<pad>	0
<s>	0
</s>	0
<unk>	0
▁e	-0
▁a	-1
▁d	-2
os	-3
▁p	-4
▁c	-5
ra	-6
▁.	-7
▁,	-8
te	-9
qu	-10
▁m	-11
ta	-12
▁s	-13
es	-14
▁n	-15
as	-16
que	-17
▁de	-18
en	-19
is	-20
▁o	-21
er	-22
▁co	-23
▁que	-24
to	-25
ar	-26
um	-27
▁f	-28
in	-29
em	-30
or	-31
ao	-32
▁es	-33
ia	-34
▁v	-35
▁um	-36
re	-37
da	-38
ic	-39
do	-40
▁com	-41
ro	-42
an	-43
im	-44
▁se	-45
al	-46
am	-47
de	-48
▁te	-49
ara	-50
▁l	-51
so	-52
ente	-53
ti	-54
▁esta	-55
co	-56
▁para	-57
un	-58
▁uma	-59
tra	-60
el	-61
▁do	-62
▁as	-63
▁nao	-64
▁em	-65
▁po	-66
▁b	-67
▁con	-68
▁h	-69
▁por	-70
▁nos	-71
▁in	-72
▁ma	-73
ri	-74
▁en	-75
▁re	-76
▁os	-77
▁no	-78
▁g	-79
▁da	-80
ui	-81
▁me	-82
mos	-83
us	-84
res	-85
ec	-86
▁qu	-87
ida	-88
ac	-89
▁so	-90
io	-91
ul	-92
▁is	-93
ei	-94
il	-95
▁pro	-96
▁al	-97
tu	-98
▁na	-99
dos	-100
▁to	-101
ca	-102
▁di	-103
▁el	-104
▁des	-105
▁ou	-106
▁mas	-107
▁como	-108
mente	-109
po	-110
ha	-111
nte	-112
ica	-113
▁ap	-114
va	-115
▁mais	-116
go	-117
▁eu	-118
ho	-119
▁ex	-120
▁ta	-121
tos	-122
emos	-123
az	-124
se	-125
▁mui	-126
ria	-127
sa	-128
▁pod	-129
amos	-130
ma	-131
▁an	-132
ol	-133
iv	-134
▁faz	-135
▁tem	-136
esso	-137
▁fo	-138
gu	-139
▁su	-140
▁ser	-141
ram	-142
cia	-143
ir	-144
tas	-145
tar	-146
▁per	-147
▁tra	-148
▁t	-149
cao	-150
▁ca	-151
idade	-152
▁j	-153
▁pesso	-154
ento	-155
▁par	-156
acao	-157
das	-158
▁muito	-159
ando	-160
ig	-161
▁im	-162
▁isso	-163
pl	-164
▁ha	-165
▁ver	-166
ve	-167
la	-168
iz	-169
ens	-170
ico	-171
▁isto	-172
▁sao	-173
mo	-174
ce	-175
ci	-176
inha	-177
▁sa	-178
▁este	-179
tr	-180
tao	-181
▁pessoas	-182
▁ter	-183
▁ve	-184
▁mo	-185
tro	-186
▁ch	-187
▁dis	-188
▁ac	-189
▁vo	-190
ado	-191
▁for	-192
▁porque	-193
▁esp	-194
▁pre	-195
▁quando	-196
▁fazer	-197
tiv	-198
▁num	-199
▁ao	-200
▁mes	-201
▁r	-202
▁pa	-203
▁dos	-204
ran	-205
mb	-206
▁cois	-207
▁i	-208
ras	-209
lo	-210
ion	-211
▁ele	-212
di	-213
bre	-214
▁inte	-215
▁foi	-216
▁ob	-217
▁ho	-218
▁res	-219
▁entao	-220
qui	-221
ver	-222
▁pr	-223
▁lo	-224
le	-225
con	-226
ores	-227
▁era	-228
ix	-229
▁sobre	-230
▁ten	-231
▁pel	-232
▁pe	-233
▁cer	-234
undo	-235
encia	-236
des	-237
fic	-238
▁vos	-239
▁comp	-240
▁das	-241
du	-242
▁ar	-243
dade	-244
▁anos	-245
▁sem	-246
▁alg	-247
har	-248
▁cons	-249
iste	-250
fer	-251
coes	-252
▁ti	-253
enta	-254
tic	-255
▁vez	-256
▁ra	-257
▁sab	-258
tan	-259
vel	-260
▁todos	-261
ag	-262
▁diz	-263
bal	-264
▁temos	-265
▁un	-266
rn	-267
rar	-268
▁eles	-269
▁fal	-270
▁ass	-271
▁tamb	-272
ita	-273
ias	-274
▁pas	-275
▁tambem	-276
por	-277
ina	-278
ante	-279
pos	-280
▁ago	-281
▁aqui	-282
▁agora	-283
tura	-284
▁mundo	-285
cis	-286
entes	-287
▁estao	-288
der	-289
▁pos	-290
bl	-291
▁minha	-292
▁pens	-293
▁du	-294
for	-295
ga	-296
tim	-297
▁on	-298
inh	-299
▁pode	-300
ido	-301
dar	-302
▁la	-303
▁real	-304
▁bo	-305
▁mil	-306
▁tu	-307
▁bem	-308
▁mesmo	-309
▁am	-310
▁meu	-311
▁prim	-312
ros	-313
gar	-314
▁trabal	-315
▁vi	-316
je	-317
▁podem	-318
▁ate	-319
ess	-320
▁car	-321
elh	-322
▁us	-323
enas	-324
▁comec	-325
▁ab	-326
▁aco	-327
cu	-328
cas	-329
isto	-330
▁cria	-331
▁podemos	-332
▁qual	-333
ns	-334
pe	-335
ios	-336
▁cor	-337
▁coisas	-338
▁fac	-339
▁forma	-340
▁precis	-341
▁ris	-342
▁conse	-343
eiro	-344
▁le	-345
ntes	-346
tre	-347
ais	-348
▁sim	-349
gia	-350
▁apenas	-351
tica	-352
▁mu	-353
sas	-354
amente	-355
▁nes	-356
▁cas	-357
▁aconte	-358
no	-359
ces	-360
lar	-361
▁depo	-362
▁depois	-363
lh	-364
▁onde	-365
▁lu	-366
cion	-367
pres	-368
▁vida	-369
per	-370
▁sua	-371
▁outra	-372
tin	-373
dor	-374
▁dia	-375
pre	-376
eira	-377
▁tempo	-378
tes	-379
▁poder	-380
sos	-381
bo	-382
▁algum	-383
▁sen	-384
ala	-385
▁difer	-386
▁cham	-387
▁fun	-388
▁assim	-389
▁men	-390
ior	-391
imento	-392
▁ja	-393
car	-394
▁nas	-395
▁gran	-396
dia	-397
ren	-398
▁tudo	-399
▁estava	-400
vo	-401
▁risos	-402
vol	-403
uir	-404
▁voces	-405
me	-406
▁coisa	-407
▁verdade	-408
tante	-409
quer	-410
▁tinha	-411
▁nossa	-412
pa	-413
ber	-414
guem	-415
▁tal	-416
▁torn	-417
▁dizer	-418
rio	-419
iam	-420
fica	-421
▁imag	-422
imos	-423
gun	-424
▁histo	-425
▁apla	-426
▁cam	-427
vam	-428
ves	-429
usos	-430
▁li	-431
rig	-432
▁hum	-433
entos	-434
▁quer	-435
aram	-436
tam	-437
▁bas	-438
▁estamos	-439
tou	-440
▁u	-441
ivel	-442
▁aplausos	-443
tros	-444
tamente	-445
dic	-446
▁seu	-447
▁man	-448
▁pou	-449
eb	-450
hec	-451
▁numa	-452
▁ela	-453
▁algo	-454
▁melh	-455
era	-456
▁disse	-457
▁encon	-458
vi	-459
▁esc	-460
tir	-461
blem	-462
▁ins	-463
▁vol	-464
▁ne	-465
▁problem	-466
gra	-467
dores	-468
▁pais	-469
anto	-470
ni	-471
inda	-472
▁estas	-473
tanto	-474
trar	-475
plo	-476
mas	-477
olo	-478
ista	-479
ada	-480
▁mul	-481
▁human	-482
▁nosso	-483
cul	-484
▁pu	-485
▁ide	-486
til	-487
▁lh	-488
▁impor	-489
ira	-490
iver	-491
▁atra	-492
▁maior	-493
▁ainda	-494
ter	-495
▁cada	-496
▁espec	-497
▁entre	-498
▁trans	-499
▁peque	-500
▁esco	-501
cer	-502
on	-503
▁af	-504
▁pen	-505
li	-506
ten	-507
▁vamos	-508
ja	-509
lu	-510
▁ba	-511
ru	-512
▁hoje	-513
▁che	-514
les	-515
▁mar	-516
▁tao	-517
eito	-518
▁parte	-519
par	-520
cn	-521
▁aque	-522
▁mos	-523
▁pelo	-524
▁grande	-525
▁ro	-526
▁falar	-527
▁fil	-528
▁poss	-529
▁estes	-530
▁tecn	-531
ero	-532
via	-533
▁prop	-534
her	-535
pon	-536
▁deix	-537
uns	-538
▁ir	-539
▁va	-540
▁todas	-541
▁cap	-542
▁vou	-543
▁pergun	-544
cos	-545
▁apren	-546
▁portanto	-547
▁pela	-548
▁gra	-549
idades	-550
za	-551
▁si	-552
▁ci	-553
▁parec	-554
ou	-555
▁exem	-556
aria	-557
▁aos	-558
▁realmente	-559
gem	-560
icos	-561
▁fiz	-562
▁vezes	-563
icao	-564
▁melhor	-565
▁au	-566
▁tipo	-567
las	-568
▁todo	-569
lan	-570
▁mor	-571
▁existe	-572
tal	-573
form	-574
tico	-575
ress	-576
▁siste	-577
▁qualquer	-578
almente	-579
ie	-580
▁mulher	-581
▁historia	-582
▁cri	-583
▁estu	-584
ur	-585
ju	-586
▁acontece	-587
▁trabalho	-588
▁desen	-589
rante	-590
na	-591
▁dire	-592
▁desco	-593
tru	-594
tiva	-595
▁dois	-596
▁compl	-597
▁crian	-598
▁pensar	-599
▁sempre	-600
▁vai	-601
▁funcion	-602
▁tenho	-603
bil	-604
▁sig	-605
▁alguns	-606
▁problema	-607
▁fa	-608
ceb	-609
▁inc	-610
▁pouco	-611
▁quero	-612
▁conhec	-613
▁toda	-614
▁seus	-615
▁outros	-616
▁jo	-617
hoes	-618
hos	-619
ito	-620
▁signi	-621
▁or	-622
▁segu	-623
▁tecnolo	-624
duz	-625
rao	-626
▁simpl	-627
▁exemplo	-628
▁prof	-629
inar	-630
▁aju	-631
▁ideia	-632
▁ul	-633
om	-634
vez	-635
unca	-636
▁muitas	-637
▁nunca	-638
▁ol	-639
▁pon	-640
▁talvez	-641
ima	-642
▁estou	-643
▁w	-644
▁milhoes	-645
istas	-646
ite	-647
icar	-648
▁nossos	-649
▁esse	-650
▁seg	-651
tivo	-652
▁primeiro	-653
amento	-654
▁gos	-655
▁simples	-656
▁gen	-657
▁essa	-658
▁obrig	-659
veis	-660
▁durante	-661
▁muitos	-662
▁conf	-663
▁plan	-664
▁obrigado	-665
▁ad	-666
▁quem	-667
▁menos	-668
▁passa	-669
▁estar	-670
▁pass	-671
▁significa	-672
▁hom	-673
▁lon	-674
▁mim	-675
▁inf	-676
▁sou	-677
▁tres	-678
gan	-679
▁contra	-680
▁cereb	-681
▁vis	-682
▁ano	-683
▁viv	-684
rias	-685
▁exper	-686
▁sistema	-687
sao	-688
▁comple	-689
▁mate	-690
▁med	-691
▁pala	-692
▁consegu	-693
▁facto	-694
▁palav	-695
ial	-696
nos	-697
▁duas	-698
▁outro	-699
▁fu	-700
▁can	-701
rios	-702
var	-703
ven	-704
▁k	-705
▁dar	-706
▁comun	-707
▁pres	-708
▁neste	-709
▁go	-710
▁jun	-711
ilo	-712
redi	-713
▁ques	-714
▁nossas	-715
▁ag	-716
cias	-717
▁tinh	-718
▁outras	-719
▁nov	-720
▁reg	-721
▁ind	-722
▁algumas	-723
emb	-724
▁fin	-725
▁casa	-726
▁muda	-727
▁lado	-728
▁antes	-729
▁lhe	-730
▁mus	-731
▁rec	-732
gua	-733
▁usar	-734
▁importante	-735
dem	-736
▁dific	-737
igo	-738
ba	-739
▁dev	-740
▁contin	-741
▁clar	-742
▁elas	-743
▁suas	-744
▁precisamos	-745
▁colo	-746
tor	-747
ula	-748
icas	-749
▁liv	-750
▁nor	-751
iamos	-752
formacao	-753
▁mom	-754
▁aca	-755
▁descob	-756
▁fam	-757
▁nem	-758
▁pra	-759
▁rel	-760
▁diferentes	-761
▁min	-762
▁olh	-763
▁nova	-764
▁perm	-765
▁univer	-766
▁!	-767
▁lig	-768
iente	-769
uta	-770
ulas	-771
▁den	-772
conom	-773
▁famil	-774
▁volta	-775
▁sub	-776
▁enqu	-777
▁criar	-778
▁ultim	-779
▁publ	-780
eta	-781
ixo	-782
et	-783
racao	-784
▁econom	-785
▁experi	-786
▁primeira	-787
▁enquanto	-788
iza	-789
▁seja	-790
▁eram	-791
tado	-792
▁mulheres	-793
▁estra	-794
▁lugar	-795
▁continu	-796
▁rap	-797
▁tan	-798
▁val	-799
▁claro	-800
pen	-801
▁penso	-802
▁desenvol	-803
▁informacao	-804
ase	-805
erca	-806
▁empres	-807
▁criancas	-808
▁alguem	-809
▁vao	-810
▁amb	-811
eu	-812
cial	-813
▁cen	-814
▁pessoa	-815
▁tentar	-816
▁pes	-817
▁sal	-818
▁gu	-819
iar	-820
▁nada	-821
▁er	-822
▁conc	-823
▁cerebro	-824
▁meus	-825
▁cerca	-826
▁acredi	-827
▁conseg	-828
▁constr	-829
ular	-830
▁fe	-831
▁cres	-832
ge	-833
tido	-834
▁tiv	-835
▁auto	-836
nas	-837
▁atraves	-838
eis	-839
▁sau	-840
ticas	-841
▁tecnologia	-842
inho	-843
▁foram	-844
it	-845
▁momento	-846
cesso	-847
entar	-848
idos	-849
icoes	-850
▁sabem	-851
▁sur	-852
▁apar	-853
▁ener	-854
▁cal	-855
▁lin	-856
▁respos	-857
▁qua	-858
ranca	-859
▁raz	-860
▁dados	-861
▁desa	-862
▁olhar	-863
nca	-864
eram	-865
▁intern	-866
▁mal	-867
elho	-868
▁bom	-869
▁cel	-870
tri	-871
▁fos	-872
vamos	-873
enca	-874
▁dias	-875
▁poli	-876
▁somos	-877
▁quan	-878
▁interess	-879
▁sin	-880
▁ess	-881
▁queria	-882
izacao	-883
▁disso	-884
▁quase	-885
▁encontra	-886
▁mesma	-887
tamos	-888
van	-889
▁inves	-890
▁alguma	-891
rem	-892
▁cin	-893
▁seria	-894
vis	-895
▁cul	-896
velmente	-897
▁sabemos	-898
ral	-899
uma	-900
▁ven	-901
antes	-902
▁partic	-903
ch	-904
▁compre	-905
▁comecar	-906
▁cl	-907
▁futu	-908
▁mudar	-909
▁nec	-910
▁acho	-911
▁diferente	-912
izar	-913
▁rep	-914
quilo	-915
▁agua	-916
▁computa	-917
ino	-918
rado	-919
▁ens	-920
▁dentro	-921
▁acontecer	-922
man	-923
den	-924
ismo	-925
▁via	-926
dente	-927
▁dificil	-928
gada	-929
▁novo	-930
▁numero	-931
iu	-932
jam	-933
ron	-934
inas	-935
▁desta	-936
▁respon	-937
tem	-938
igos	-939
▁demo	-940
▁necess	-941
ana	-942
enh	-943
acion	-944
▁trabalhar	-945
▁lhes	-946
bilidade	-947
ental	-948
▁quanto	-949
dam	-950
▁espa	-951
▁sei	-952
▁essas	-953
▁certo	-954
tivos	-955
oes	-956
▁util	-957
▁espaco	-958
▁estavam	-959
▁los	-960
▁sera	-961
▁fazem	-962
▁lim	-963
▁prova	-964
▁palavras	-965
▁inter	-966
gos	-967
▁gru	-968
▁energia	-969
bora	-970
▁super	-971
▁futuro	-972
▁encontrar	-973
ham	-974
▁are	-975
▁inic	-976
▁fer	-977
▁vir	-978
▁amer	-979
▁soci	-980
inheiro	-981
jo	-982
can	-983
dir	-984
▁cien	-985
▁escre	-986
▁realidade	-987
▁socie	-988
▁gera	-989
▁resul	-990
▁descobri	-991
ric	-992
▁pal	-993
ticos	-994
▁parece	-995
ib	-996
▁vide	-997
▁dinheiro	-998
▁tes	-999
▁caus	-1000
▁sido	-1001
▁procu	-1002
ano	-1003
sem	-1004
graf	-1005
▁produ	-1006
inci	-1007
▁havia	-1008
gas	-1009
ura	-1010
▁gover	-1011
▁luz	-1012
inhas	-1013
▁desde	-1014
agem	-1015
erem	-1016
▁cir	-1017
eiros	-1018
cal	-1019
adas	-1020
ceber	-1021
▁terra	-1022
▁mostrar	-1023
ados	-1024
ital	-1025
▁dig	-1026
▁foto	-1027
▁mode	-1028
▁prox	-1029
▁ban	-1030
▁bar	-1031
vimento	-1032
▁possivel	-1033
iao	-1034
▁resposta	-1035
ris	-1036
▁cab	-1037
▁corpo	-1038
forma	-1039
pan	-1040
▁fl	-1041
▁come	-1042
vem	-1043
ario	-1044
▁fis	-1045
tores	-1046
▁acab	-1047
▁fora	-1048
▁musica	-1049
▁z	-1050
▁expl	-1051
▁existem	-1052
culo	-1053
▁def	-1054
▁lemb	-1055
▁meio	-1056
▁tinham	-1057
▁maneira	-1058
▁experiencia	-1059
jec	-1060
▁facil	-1061
▁feito	-1062
▁obs	-1063
▁medic	-1064
▁contro	-1065
▁paises	-1066
elo	-1067
emo	-1068
▁ali	-1069
▁obri	-1070
▁questao	-1071
▁bastante	-1072
▁escola	-1073
▁deci	-1074
▁organ	-1075
▁prote	-1076
▁aquilo	-1077
dro	-1078
ide	-1079
▁aum	-1080
▁mae	-1081
▁nesta	-1082
▁saude	-1083
▁altura	-1084
▁imp	-1085
▁nenh	-1086
xo	-1087
▁anim	-1088
▁ponto	-1089
▁compreen	-1090
lares	-1091
▁glo	-1092
▁cidade	-1093
uida	-1094
▁ouv	-1095
tamento	-1096
titu	-1097
▁fic	-1098
▁proje	-1099
▁especial	-1100
cio	-1101
dio	-1102
▁uns	-1103
▁saber	-1104
▁tornar	-1105
oso	-1106
rica	-1107
▁imagin	-1108
▁materia	-1109
iro	-1110
eliz	-1111
▁princi	-1112
son	-1113
has	-1114
▁ai	-1115
▁nu	-1116
▁conta	-1117
▁recon	-1118
▁base	-1119
▁deste	-1120
▁gosta	-1121
cra	-1122
▁cus	-1123
▁alem	-1124
▁vio	-1125
▁modo	-1126
▁incri	-1127
▁posso	-1128
▁san	-1129
▁homem	-1130
icamente	-1131
▁princip	-1132
▁ru	-1133
▁gan	-1134
▁video	-1135
▁vossa	-1136
lig	-1137
▁nin	-1138
▁razao	-1139
ne	-1140
▁cur	-1141
turas	-1142
▁ficar	-1143
ip	-1144
imo	-1145
▁edu	-1146
▁mic	-1147
rente	-1148
▁local	-1149
▁vemos	-1150
▁ninguem	-1151
min	-1152
dades	-1153
mar	-1154
▁mante	-1155
▁pop	-1156
iveis	-1157
▁obrigada	-1158
▁pequeno	-1159
▁ado	-1160
▁fui	-1161
▁quatro	-1162
▁internet	-1163
▁bio	-1164
▁partil	-1165
rer	-1166
▁construir	-1167
ncia	-1168
volu	-1169
indo	-1170
▁imagem	-1171
▁maioria	-1172
▁neu	-1173
▁var	-1174
▁tive	-1175
▁deles	-1176
▁queremos	-1177
▁ri	-1178
▁vosso	-1179
▁funciona	-1180
ine	-1181
▁apro	-1182
▁pequena	-1183
▁profess	-1184
▁problemas	-1185
▁ce	-1186
▁op	-1187
▁fez	-1188
▁aprender	-1189
▁liber	-1190
▁estado	-1191
▁dolares	-1192
rim	-1193
▁fra	-1194
▁caso	-1195
▁familia	-1196
cou	-1197
▁passar	-1198
▁fazemos	-1199
▁sof	-1200
▁gente	-1201
▁nivel	-1202
duzir	-1203
tados	-1204
▁alte	-1205
▁passado	-1206
rior	-1207
▁viol	-1208
▁extra	-1209
▁resol	-1210
para	-1211
▁enor	-1212
esse	-1213
unto	-1214
▁apl	-1215
▁fim	-1216
▁viver	-1217
tis	-1218
▁ajudar	-1219
▁grandes	-1220
mes	-1221
▁arte	-1222
▁cara	-1223
▁mostra	-1224
▁interessante	-1225
▁il	-1226
quis	-1227
▁mun	-1228
▁anti	-1229
▁ajuda	-1230
▁perceb	-1231
▁ciencia	-1232
▁humanos	-1233
▁quais	-1234
▁simplesmente	-1235
▁sol	-1236
▁guer	-1237
▁ok	-1238
tia	-1239
▁edi	-1240
tei	-1241
torio	-1242
▁recu	-1243
▁aconteceu	-1244
tural	-1245
▁longo	-1246
▁podia	-1247
ecer	-1248
▁escri	-1249
▁fosse	-1250
cimento	-1251
▁escolh	-1252
eita	-1253
▁global	-1254
▁homens	-1255
▁capaz	-1256
▁segundo	-1257
eca	-1258
idas	-1259
encias	-1260
▁total	-1261
▁amigos	-1262
he	-1263
▁sala	-1264
▁unica	-1265
▁humano	-1266
▁atras	-1267
▁obser	-1268
▁acerca	-1269
▁aquele	-1270
fe	-1271
cor	-1272
isso	-1273
▁gas	-1274
▁cola	-1275
▁importa	-1276
▁pergunta	-1277
▁historias	-1278
gue	-1279
fico	-1280
tras	-1281
▁vem	-1282
▁provavelmente	-1283
▁cinco	-1284
▁naque	-1285
tun	-1286
▁boa	-1287
▁esses	-1288
▁univers	-1289
ioes	-1290
▁cos	-1291
eitos	-1292
tivas	-1293
▁desaf	-1294
▁estuda	-1295
▁comecei	-1296
▁precisa	-1297
dicion	-1298
ust	-1299
▁espe	-1300
▁voce	-1301
▁estiv	-1302
▁compor	-1303
▁poderia	-1304
▁processo	-1305
be	-1306
cre	-1307
rada	-1308
▁fre	-1309
▁sus	-1310
▁conver	-1311
▁sociedade	-1312
idu	-1313
▁norm	-1314
▁segun	-1315
ger	-1316
vos	-1317
▁las	-1318
▁pai	-1319
▁quis	-1320
▁chegar	-1321
▁frente	-1322
▁conseguem	-1323
ocu	-1324
icacao	-1325
▁preocu	-1326
eiras	-1327
ficiente	-1328
▁perceber	-1329
▁fi	-1330
▁matema	-1331
▁conseguir	-1332
▁conseguimos	-1333
▁dan	-1334
ific	-1335
oria	-1336
trib	-1337
demos	-1338
preen	-1339
▁enten	-1340
▁estru	-1341
▁vidas	-1342
▁cu	-1343
▁son	-1344
ulacao	-1345
▁chama	-1346
▁teria	-1347
▁especie	-1348
eros	-1349
▁voz	-1350
▁comecamos	-1351
ixa	-1352
▁rela	-1353
▁novas	-1354
▁pelos	-1355
▁contar	-1356
▁estran	-1357
▁x	-1358
gen	-1359
▁tar	-1360
▁tanto	-1361
▁partir	-1362
vil	-1363
▁anal	-1364
▁equi	-1365
▁solu	-1366
▁capac	-1367
▁meses	-1368
▁querem	-1369
▁repres	-1370
▁melhores	-1371
ual	-1372
▁indiv	-1373
▁caminho	-1374
▁celulas	-1375
▁mudanca	-1376
▁opor	-1377
▁receb	-1378
▁fizemos	-1379
▁preciso	-1380
▁individu	-1381
▁completamente	-1382
▁col	-1383
▁cole	-1384
▁corre	-1385
▁exc	-1386
▁tro	-1387
▁causa	-1388
▁grupo	-1389
▁muita	-1390
▁milhar	-1391
▁social	-1392
▁hi	-1393
▁oportun	-1394
gias	-1395
orda	-1396
ture	-1397
▁fan	-1398
itar	-1399
▁pol	-1400
▁formas	-1401
▁guerra	-1402
▁comunidade	-1403
ulo	-1404
▁bol	-1405
▁prog	-1406
▁imagens	-1407
pas	-1408
ciais	-1409
▁medo	-1410
▁minu	-1411
▁americ	-1412
▁fantas	-1413
▁milhares	-1414
▁ef	-1415
▁carro	-1416
amentos	-1417
endo	-1418
▁perf	-1419
▁horas	-1420
▁africa	-1421
▁indust	-1422
ting	-1423
▁mol	-1424
encas	-1425
▁confia	-1426
▁chamado	-1427
▁computador	-1428
itos	-1429
toes	-1430
tual	-1431
▁tri	-1432
semos	-1433
▁nego	-1434
tistas	-1435
▁desig	-1436
▁fotograf	-1437
▁noite	-1438
▁passo	-1439
▁flores	-1440
▁estados	-1441
▁investi	-1442
val	-1443
▁maqu	-1444
▁deixar	-1445
▁sentido	-1446
▁obje	-1447
▁sabe	-1448
▁veem	-1449
▁constru	-1450
cada	-1451
tific	-1452
▁apos	-1453
▁faze	-1454
▁situ	-1455
tidade	-1456
▁torna	-1457
▁inicio	-1458
▁minhas	-1459
▁empresas	-1460
▁universo	-1461
pel	-1462
vor	-1463
▁rede	-1464
▁valor	-1465
imentos	-1466
▁aquela	-1467
▁destas	-1468
▁filhos	-1469
▁tinhamos	-1470
▁y	-1471
log	-1472
osa	-1473
cado	-1474
▁ira	-1475
▁consegui	-1476
▁mao	-1477
▁ref	-1478
pec	-1479
tade	-1480
▁ino	-1481
▁sentim	-1482
▁projeto	-1483
inte	-1484
▁hou	-1485
▁feliz	-1486
▁enorme	-1487
▁termos	-1488
▁diver	-1489
ela	-1490
▁cha	-1491
▁rapida	-1492
▁interes	-1493
▁imaginem	-1494
ing	-1495
nia	-1496
▁aper	-1497
dencia	-1498
▁baixo	-1499
▁livro	-1500
▁nature	-1501
▁conside	-1502
▁economia	-1503
fa	-1504
dou	-1505
cido	-1506
pera	-1507
▁apo	-1508
▁ora	-1509
▁escu	-1510
▁envol	-1511
▁notic	-1512
▁trata	-1513
▁comeca	-1514
▁ferram	-1515
▁modelo	-1516
▁mundia	-1517
▁ga	-1518
▁nome	-1519
▁reco	-1520
▁comida	-1521
▁aqueles	-1522
▁palavra	-1523
▁gostaria	-1524
pi	-1525
gens	-1526
tavel	-1527
▁dese	-1528
▁comer	-1529
▁tarde	-1530
cacao	-1531
iores	-1532
▁conj	-1533
▁esti	-1534
▁tele	-1535
▁cidades	-1536
▁aten	-1537
▁carros	-1538
▁destes	-1539
▁doenca	-1540
▁ideias	-1541
quei	-1542
▁comb	-1543
▁euro	-1544
▁olhos	-1545
▁papel	-1546
▁taman	-1547
▁natureza	-1548
vens	-1549
grama	-1550
ton	-1551
▁eua	-1552
volucao	-1553
▁planeta	-1554
ea	-1555
hado	-1556
▁bri	-1557
▁pin	-1558
▁apres	-1559
▁esque	-1560
▁lingu	-1561
▁pensa	-1562
▁design	-1563
▁voltar	-1564
▁institu	-1565
anas	-1566
▁fab	-1567
icidade	-1568
▁edific	-1569
▁espera	-1570
▁pers	-1571
▁mensa	-1572
▁intelig	-1573
▁tamanho	-1574
▁igu	-1575
hamos	-1576
▁dele	-1577
▁merca	-1578
▁aparec	-1579
▁seguir	-1580
▁propria	-1581
▁pensamos	-1582
▁traz	-1583
▁dizem	-1584
▁seguranca	-1585
pia	-1586
tancia	-1587
▁cente	-1588
▁crianca	-1589
▁natural	-1590
▁ambiente	-1591
▁industria	-1592
▁ren	-1593
▁leva	-1594
▁mara	-1595
▁dever	-1596
▁ata	-1597
▁som	-1598
▁sens	-1599
▁certa	-1600
▁explo	-1601
▁pensem	-1602
▁proprio	-1603
▁blo	-1604
▁tre	-1605
▁permite	-1606
▁pesquis	-1607
▁sociais	-1608
vas	-1609
tral	-1610
▁aber	-1611
▁alun	-1612
▁dela	-1613
▁iria	-1614
▁teve	-1615
▁cuida	-1616
▁media	-1617
▁tipos	-1618
▁freque	-1619
▁sentir	-1620
▁politica	-1621
unda	-1622
▁equ	-1623
▁pag	-1624
▁ouvir	-1625
▁sabia	-1626
▁deixem	-1627
▁estavamos	-1628
▁violencia	-1629
▁desenvolvimento	-1630
cam	-1631
cro	-1632
cais	-1633
▁ted	-1634
▁ouvi	-1635
▁conte	-1636
▁comecou	-1637
▁governo	-1638
▁suficiente	-1639
iado	-1640
▁dim	-1641
▁cima	-1642
▁deus	-1643
▁fundam	-1644
▁humana	-1645
▁relacao	-1646
▁compreender	-1647
cle	-1648
rei	-1649
▁daque	-1650
acional	-1651
▁sobrev	-1652
▁surpreen	-1653
▁representa	-1654
anos	-1655
▁exa	-1656
▁iden	-1657
▁orig	-1658
▁seis	-1659
pressao	-1660
▁educacao	-1661
▁adn	-1662
▁sete	-1663
▁micro	-1664
▁jovens	-1665
▁reconhec	-1666
▁ur	-1667
▁cho	-1668
▁ing	-1669
ermos	-1670
▁avan	-1671
▁pensei	-1672
▁procura	-1673
▁conjunto	-1674
▁ge	-1675
▁ia	-1676
▁ig	-1677
▁sob	-1678
▁exis	-1679
▁subs	-1680
▁entra	-1681
▁chamada	-1682
▁maravil	-1683
entemente	-1684
sion	-1685
▁enf	-1686
entas	-1687
▁cade	-1688
▁hora	-1689
▁serv	-1690
▁consci	-1691
soes	-1692
▁pri	-1693
▁visao	-1694
▁seculo	-1695
▁colocar	-1696
▁complex	-1697
▁segunda	-1698
▁particular	-1699
dido	-1700
inal	-1701
▁mon	-1702
vacao	-1703
▁levar	-1704
▁pales	-1705
▁poten	-1706
▁cultura	-1707
▁empresa	-1708
▁mundial	-1709
▁publico	-1710
tivamente	-1711
▁programa	-1712
▁responsa	-1713
pira	-1714
▁hos	-1715
▁neg	-1716
culos	-1717
▁especi	-1718
▁projec	-1719
▁jan	-1720
▁mis	-1721
▁sair	-1722
▁delas	-1723
▁disto	-1724
▁forca	-1725
▁permi	-1726
▁dispos	-1727
▁animais	-1728
▁democra	-1729
▁confianca	-1730
▁descobrir	-1731
dao	-1732
cios	-1733
▁bil	-1734
▁deve	-1735
▁form	-1736
▁melho	-1737
▁nucle	-1738
▁analis	-1739
tividade	-1740
tualmente	-1741
▁populacao	-1742
teza	-1743
▁conhecimento	-1744
rin	-1745
ccao	-1746
▁dor	-1747
▁lan	-1748
▁abri	-1749
▁empre	-1750
▁final	-1751
▁geral	-1752
▁medida	-1753
▁neuron	-1754
▁ultimos	-1755
ele	-1756
ord	-1757
usao	-1758
▁hab	-1759
▁labora	-1760
▁locais	-1761
▁imaginar	-1762
iram	-1763
▁sex	-1764
▁ante	-1765
▁cheg	-1766
▁juntos	-1767
▁nenhum	-1768
▁unidos	-1769
▁sucesso	-1770
▁diferenca	-1771
▁matematica	-1772
▁verdadeira	-1773
▁professores	-1774
dida	-1775
▁emo	-1776
▁usa	-1777
▁fica	-1778
▁relig	-1779
▁minutos	-1780
▁ps	-1781
cional	-1782
▁passe	-1783
▁pudes	-1784
▁redes	-1785
▁maiores	-1786
▁capacidade	-1787
▁ben	-1788
▁lei	-1789
▁extr	-1790
▁numeros	-1791
▁centenas	-1792
▁resolver	-1793
esar	-1794
▁beb	-1795
▁miu	-1796
▁alim	-1797
▁quar	-1798
▁siti	-1799
▁longe	-1800
▁serem	-1801
▁tornou	-1802
▁escrever	-1803
▁pequenos	-1804
fon	-1805
jar	-1806
los	-1807
orn	-1808
inhos	-1809
▁houve	-1810
▁idade	-1811
▁cabeca	-1812
▁escala	-1813
uido	-1814
▁demas	-1815
▁vossos	-1816
▁essencia	-1817
▁situacao	-1818
▁basicamente	-1819
▁oportunidade	-1820
eg	-1821
vida	-1822
inais	-1823
logia	-1824
▁estre	-1825
▁perto	-1826
▁unico	-1827
▁semana	-1828
ticamente	-1829
▁estrutura	-1830
▁finalmente	-1831
ps	-1832
ixao	-1833
▁tel	-1834
▁amor	-1835
▁irao	-1836
▁campo	-1837
▁pelas	-1838
▁comigo	-1839
essem	-1840
▁precisam	-1841
▁partilhar	-1842
ror	-1843
▁oh	-1844
ientes	-1845
▁india	-1846
▁apesar	-1847
▁atencao	-1848
▁informa	-1849
▁incrivel	-1850
▁seguinte	-1851
ndo	-1852
vado	-1853
▁doc	-1854
▁area	-1855
▁fran	-1856
▁gene	-1857
▁praz	-1858
▁terc	-1859
▁cancro	-1860
▁transpor	-1861
▁funcionar	-1862
acto	-1863
▁lite	-1864
▁agric	-1865
▁rapar	-1866
▁decidi	-1867
▁livros	-1868
▁entanto	-1869
▁tecnologias	-1870
▁deba	-1871
▁decis	-1872
▁senti	-1873
aca	-1874
vou	-1875
▁ju	-1876
▁mem	-1877
tando	-1878
▁umas	-1879
▁china	-1880
▁finan	-1881
▁equipa	-1882
▁manter	-1883
▁raparig	-1884
▁rapidamente	-1885
og	-1886
ques	-1887
▁jus	-1888
acoes	-1889
▁bara	-1890
▁impl	-1891
▁cirur	-1892
▁defin	-1893
▁intera	-1894
▁pontos	-1895
▁usando	-1896
▁nenhuma	-1897
▁uso	-1898
▁cris	-1899
▁esquer	-1900
▁ultima	-1901
▁disseram	-1902
▁trabalha	-1903
▁continuar	-1904
rimos	-1905
tacao	-1906
▁comum	-1907
▁linha	-1908
▁parti	-1909
▁serie	-1910
▁vista	-1911
▁consum	-1912
▁susten	-1913
▁doencas	-1914
▁estudantes	-1915
▁crescimento	-1916
▁bal	-1917
▁evi	-1918
taram	-1919
▁devido	-1920
▁perguntas	-1921
▁importantes	-1922
tion	-1923
▁sil	-1924
▁docum	-1925
▁espan	-1926
▁mente	-1927
▁obter	-1928
▁risco	-1929
▁fizeram	-1930
▁acredito	-1931
▁controlo	-1932
▁sistemas	-1933
amo	-1934
bel	-1935
▁hor	-1936
▁rou	-1937
tista	-1938
▁quim	-1939
▁carbo	-1940
▁favor	-1941
▁novos	-1942
▁encontramos	-1943
▁ferramentas	-1944
mi	-1945
▁ler	-1946
▁mer	-1947
elhos	-1948
▁alcan	-1949
▁cento	-1950
▁depen	-1951
▁vejam	-1952
▁solucao	-1953
▁totalmente	-1954
ins	-1955
▁ori	-1956
▁pac	-1957
cadas	-1958
▁jorn	-1959
▁clima	-1960
▁lider	-1961
▁alunos	-1962
▁conven	-1963
▁semanas	-1964
▁movimento	-1965
timos	-1966
▁molec	-1967
▁norte	-1968
▁sejam	-1969
▁estudo	-1970
▁ultimo	-1971
▁nuclear	-1972
▁perguntar	-1973
hei	-1974
▁far	-1975
droes	-1976
ramos	-1977
▁acor	-1978
▁codi	-1979
entais	-1980
▁devia	-1981
▁haver	-1982
▁morte	-1983
▁parar	-1984
▁carbono	-1985
▁certeza	-1986
▁descober	-1987
▁extraord	-1988
▁pesquisa	-1989
▁questoes	-1990
▁transform	-1991
▁comportamento	-1992
line	-1993
▁dez	-1994
▁ior	-1995
▁areas	-1996
▁dessa	-1997
▁normal	-1998
▁experiencias	-1999
▁lar	-2000
▁bran	-2001
▁brin	-2002
▁hosp	-2003
▁devem	-2004
▁fundo	-2005
▁moder	-2006
▁sinto	-2007
▁mesmos	-2008
▁aprendi	-2009
▁interessa	-2010
▁resultado	-2011
ke	-2012
bol	-2013
lha	-2014
▁civ	-2015
quite	-2016
toria	-2017
▁quao	-2018
▁amigo	-2019
▁semelh	-2020
▁desafio	-2021
▁maquina	-2022
▁padroes	-2023
▁tivemos	-2024
▁quantidade	-2025
▁resultados	-2026
▁universidade	-2027
arem	-2028
icou	-2029
▁sul	-2030
▁bomb	-2031
▁hipo	-2032
▁pare	-2033
▁filho	-2034
▁mecan	-2035
▁nessa	-2036
▁descon	-2037
▁dessas	-2038
▁varias	-2039
▁computadores	-2040
acos	-2041
tina	-2042
▁flu	-2043
▁aprox	-2044
▁objec	-2045
▁recur	-2046
▁acesso	-2047
▁europa	-2048
▁demasiado	-2049
rados	-2050
▁peda	-2051
▁andar	-2052
▁deter	-2053
▁nisso	-2054
▁entrar	-2055
▁impacto	-2056
▁program	-2057
elhas	-2058
▁ador	-2059
▁exer	-2060
▁possi	-2061
▁resto	-2062
▁extrem	-2063
▁viagem	-2064
▁noticias	-2065
gir	-2066
gou	-2067
trei	-2068
▁fas	-2069
▁anda	-2070
▁apan	-2071
▁partes	-2072
▁prefer	-2073
▁america	-2074
▁direito	-2075
▁chamamos	-2076
▁comecaram	-2077
▁oce	-2078
▁tom	-2079
▁asso	-2080
▁face	-2081
dentes	-2082
▁lidar	-2083
▁centro	-2084
▁embora	-2085
▁iorque	-2086
▁direitos	-2087
▁proprios	-2088
▁relacion	-2089
▁descobrimos	-2090
diz	-2091
gul	-2092
ume	-2093
inos	-2094
▁mag	-2095
▁sor	-2096
cular	-2097
▁exte	-2098
▁memb	-2099
▁compe	-2100
▁ensino	-2101
▁person	-2102
▁consigo	-2103
▁digital	-2104
▁prepara	-2105
▁maravilhos	-2106
cur	-2107
camos	-2108
▁bura	-2109
▁otim	-2110
▁clara	-2111
▁nisto	-2112
▁pegar	-2113
▁fisica	-2114
▁capazes	-2115
▁desapar	-2116
▁publica	-2117
▁mensagem	-2118
▁exatamente	-2119
▁laboratorio	-2120
deu	-2121
iva	-2122
leo	-2123
tada	-2124
▁gri	-2125
▁sec	-2126
▁pros	-2127
▁porta	-2128
▁camara	-2129
▁grupos	-2130
▁metade	-2131
▁aperceb	-2132
▁compara	-2133
▁devemos	-2134
▁consegue	-2135
▁cientistas	-2136
plos	-2137
▁hon	-2138
▁elec	-2139
▁arran	-2140
▁senta	-2141
▁produz	-2142
▁escolas	-2143
ts	-2144
tus	-2145
▁at	-2146
ciar	-2147
gado	-2148
arios	-2149
▁acei	-2150
▁incl	-2151
▁verm	-2152
▁carre	-2153
▁multi	-2154
▁estive	-2155
▁fiquei	-2156
▁pensam	-2157
▁possam	-2158
▁material	-2159
▁neuronios	-2160
cep	-2161
tit	-2162
iras	-2163
visao	-2164
▁aula	-2165
▁boas	-2166
▁pron	-2167
▁jovem	-2168
▁visto	-2169
▁aplica	-2170
▁descre	-2171
▁sangue	-2172
▁visual	-2173
▁arquite	-2174
▁continua	-2175
▁superfic	-2176
ck	-2177
ok	-2178
▁web	-2179
tribu	-2180
▁dete	-2181
▁pois	-2182
▁estim	-2183
▁expan	-2184
▁mudou	-2185
▁pobre	-2186
▁sente	-2187
▁seres	-2188
▁sequer	-2189
▁telemo	-2190
▁aprendiz	-2191
▁pequenas	-2192
lec	-2193
este	-2194
ogle	-2195
▁rua	-2196
gacao	-2197
▁tras	-2198
▁nesse	-2199
▁ingles	-2200
▁agricul	-2201
▁ensinar	-2202
▁melhorar	-2203
ama	-2204
war	-2205
bres	-2206
vido	-2207
▁lou	-2208
ducao	-2209
ifica	-2210
▁bene	-2211
▁clas	-2212
▁elem	-2213
▁ofer	-2214
▁ultra	-2215
▁google	-2216
▁fundamental	-2217
fo	-2218
xto	-2219
▁az	-2220
edia	-2221
tida	-2222
▁har	-2223
▁tax	-2224
▁cida	-2225
▁oito	-2226
▁fotos	-2227
▁obvia	-2228
▁tomar	-2229
▁compan	-2230
▁usamos	-2231
▁lugares	-2232
▁pessoal	-2233
▁proximo	-2234
▁contrario	-2235
▁esperanca	-2236
ex	-2237
ivo	-2238
vio	-2239
inam	-2240
▁nar	-2241
▁abso	-2242
▁pris	-2243
▁ating	-2244
▁gosto	-2245
▁igual	-2246
entacao	-2247
▁medico	-2248
▁mental	-2249
▁colegas	-2250
▁companh	-2251
▁crescer	-2252
▁telefon	-2253
▁especies	-2254
▁explicar	-2255
▁aprendizagem	-2256
ulos	-2257
▁bre	-2258
▁ner	-2259
▁soz	-2260
▁vac	-2261
▁maos	-2262
▁carac	-2263
▁tenta	-2264
▁absolu	-2265
▁online	-2266
▁pobres	-2267
▁repara	-2268
▁teoria	-2269
▁criamos	-2270
▁naquele	-2271
▁aumentar	-2272
▁linguagem	-2273
▁professor	-2274
rou	-2275
cess	-2276
▁aba	-2277
dicao	-2278
▁reti	-2279
▁tirar	-2280
▁lingua	-2281
▁mercado	-2282
▁novamente	-2283
▁tradicion	-2284
dim	-2285
iais	-2286
ines	-2287
▁cre	-2288
perar	-2289
▁afas	-2290
▁alta	-2291
▁envi	-2292
▁ocor	-2293
iencia	-2294
tifica	-2295
▁levou	-2296
▁petro	-2297
▁varia	-2298
▁acabar	-2299
▁imedia	-2300
▁fotografia	-2301
ece	-2302
hou	-2303
hada	-2304
▁digo	-2305
▁vejo	-2306
dicoes	-2307
▁fazia	-2308
▁impos	-2309
▁manha	-2310
▁podiam	-2311
▁cuidados	-2312
▁consciencia	-2313
rais	-2314
riam	-2315
▁bac	-2316
▁cli	-2317
▁mex	-2318
dimos	-2319
izado	-2320
jamos	-2321
▁igno	-2322
▁sexo	-2323
▁custo	-2324
▁pedir	-2325
▁demons	-2326
▁espero	-2327
▁profis	-2328
▁terror	-2329
▁sociedades	-2330
bb	-2331
tarem	-2332
▁faco	-2333
▁robo	-2334
▁term	-2335
▁adicion	-2336
▁entender	-2337
▁familias	-2338
▁liberdade	-2339
▁revolucao	-2340
▁afe	-2341
▁coz	-2342
▁lev	-2343
▁ros	-2344
ensao	-2345
inhar	-2346
itais	-2347
▁guar	-2348
▁reun	-2349
▁usam	-2350
▁medio	-2351
▁sonho	-2352
▁propos	-2353
▁aproxim	-2354
▁aumenta	-2355
▁benefic	-2356
▁conversa	-2357
▁petroleo	-2358
▁podiamos	-2359
▁sobreviv	-2360
bos	-2361
cin	-2362
▁bu	-2363
guei	-2364
entou	-2365
▁fala	-2366
▁remo	-2367
▁resp	-2368
▁polic	-2369
▁tenha	-2370
▁terri	-2371
essemos	-2372
▁podera	-2373
▁tivesse	-2374
▁palestra	-2375
▁relacoes	-2376
▁essencial	-2377
▁frequente	-2378
▁primeiros	-2379
tur	-2380
▁bus	-2381
▁inv	-2382
itivo	-2383
▁cost	-2384
▁crim	-2385
▁desse	-2386
▁presi	-2387
▁efeito	-2388
▁malaria	-2389
▁familiar	-2390
▁normalmente	-2391
▁recentemente	-2392
▁km	-2393
rito	-2394
▁bra	-2395
▁cru	-2396
▁ger	-2397
ancia	-2398
eitas	-2399
▁bons	-2400
▁chave	-2401
▁levan	-2402
▁rapaz	-2403
▁terem	-2404
▁capital	-2405
▁doentes	-2406
▁procurar	-2407
▁conseguia	-2408
▁potencial	-2409
▁democracia	-2410
▁obviamente	-2411
ema	-2412
sar	-2413
eloc	-2414
tudo	-2415
▁ame	-2416
▁logo	-2417
▁caixa	-2418
▁veloc	-2419
▁animal	-2420
▁dispon	-2421
▁miudos	-2422
▁regras	-2423
▁coracao	-2424
▁medicos	-2425
▁proxima	-2426
▁produtos	-2427
▁recursos	-2428
▁edificios	-2429
▁fantastico	-2430
▁ato	-2431
▁nou	-2432
izada	-2433
▁aval	-2434
▁inde	-2435
▁pior	-2436
tusias	-2437
▁adoro	-2438
▁falta	-2439
▁fomos	-2440
▁marca	-2441
▁refer	-2442
▁sitio	-2443
▁vitim	-2444
▁tenham	-2445
▁ligacao	-2446
▁entusias	-2447
▁humanidade	-2448
▁instituicoes	-2449
rna	-2450
veu	-2451
mais	-2452
▁deu	-2453
▁geno	-2454
▁dimin	-2455
▁esfor	-2456
▁forte	-2457
▁revel	-2458
▁suger	-2459
▁aborda	-2460
▁errado	-2461
▁impres	-2462
▁comprar	-2463
▁falamos	-2464
▁preocup	-2465
▁possamos	-2466
▁materiais	-2467
▁poderiamos	-2468
▁superficie	-2469
eno	-2470
▁fec	-2471
▁pla	-2472
didos	-2473
▁agra	-2474
▁civil	-2475
▁espal	-2476
▁ficam	-2477
▁genes	-2478
▁plane	-2479
▁seque	-2480
▁correr	-2481
▁curios	-2482
▁jornal	-2483
▁propor	-2484
▁razoes	-2485
▁aquelas	-2486
▁infeliz	-2487
▁esquerda	-2488
▁producao	-2489
▁desenvolver	-2490
▁especialmente	-2491
bios	-2492
▁quad	-2493
▁deixa	-2494
▁influ	-2495
▁pagar	-2496
▁preco	-2497
▁press	-2498
▁inspira	-2499
▁posicao	-2500
▁repente	-2501
▁vivemos	-2502
▁principal	-2503
▁velocidade	-2504
▁ox	-2505
ites	-2506
▁ara	-2507
▁fem	-2508
▁jul	-2509
▁pad	-2510
▁vas	-2511
hados	-2512
▁forn	-2513
izados	-2514
▁silen	-2515
▁naquela	-2516
▁perigos	-2517
th	-2518
cop	-2519
ecas	-2520
▁epi	-2521
▁oci	-2522
▁urb	-2523
▁mapa	-2524
▁repe	-2525
▁eletr	-2526
▁sinal	-2527
tamentos	-2528
▁estudar	-2529
▁lideres	-2530
▁modelos	-2531
▁exemplos	-2532
▁floresta	-2533
▁nacional	-2534
rie	-2535
▁avo	-2536
▁fen	-2537
▁mau	-2538
▁baix	-2539
▁dess	-2540
▁gara	-2541
▁assus	-2542
▁inclu	-2543
▁massa	-2544
▁perio	-2545
▁codigo	-2546
▁confli	-2547
▁desejo	-2548
▁recolh	-2549
ralmente	-2550
▁associa	-2551
▁complica	-2552
▁profunda	-2553
▁proprias	-2554
cem	-2555
dei	-2556
ime	-2557
▁ev	-2558
▁amar	-2559
▁idos	-2560
▁meto	-2561
▁ambos	-2562
▁possa	-2563
▁vivem	-2564
▁metros	-2565
▁geracao	-2566
▁negocio	-2567
bilidades	-2568
▁distancia	-2569
▁responder	-2570
ncas	-2571
▁aus	-2572
▁dec	-2573
▁van	-2574
istir	-2575
rando	-2576
▁aspe	-2577
▁tare	-2578
▁escon	-2579
▁plano	-2580
▁teste	-2581
▁chines	-2582
▁cidada	-2583
▁limita	-2584
▁assunto	-2585
▁respostas	-2586
▁comunicacao	-2587
cto	-2588
▁bi	-2589
trou	-2590
▁alto	-2591
▁tera	-2592
▁casas	-2593
▁casos	-2594
▁crise	-2595
▁domin	-2596
▁engan	-2597
▁ficou	-2598
▁morre	-2599
▁compro	-2600
▁rapido	-2601
▁central	-2602
▁presente	-2603
▁qualidade	-2604
▁organizacao	-2605
bar	-2606
ceu	-2607
gica	-2608
▁eco	-2609
tanha	-2610
temos	-2611
▁exac	-2612
▁veio	-2613
▁compa	-2614
▁excel	-2615
▁vimos	-2616
dimento	-2617
timento	-2618
▁estrada	-2619
▁projecto	-2620
▁encontrei	-2621
▁comunidades	-2622
▁frequentemente	-2623
xe	-2624
ers	-2625
hao	-2626
▁be	-2627
elha	-2628
iros	-2629
▁epo	-2630
vemos	-2631
▁prem	-2632
▁toma	-2633
torios	-2634
▁aspec	-2635
▁insta	-2636
▁celula	-2637
▁custos	-2638
▁passei	-2639
▁estudos	-2640
▁construi	-2641
▁interior	-2642
▁necessario	-2643
▁profission	-2644
▁incrivelmente	-2645
cina	-2646
elas	-2647
▁hig	-2648
deram	-2649
▁topo	-2650
inacao	-2651
▁afric	-2652
▁bacte	-2653
▁feita	-2654
▁filme	-2655
▁recor	-2656
▁solar	-2657
▁acordo	-2658
▁combus	-2659
▁epidem	-2660
▁recons	-2661
▁escolha	-2662
▁lembrar	-2663
▁tw	-2664
▁abs	-2665
▁dro	-2666
▁fix	-2667
ficaz	-2668
orias	-2669
posto	-2670
undar	-2671
▁amos	-2672
▁ampl	-2673
▁boca	-2674
▁diag	-2675
▁enco	-2676
▁espi	-2677
▁brilh	-2678
▁envel	-2679
▁virus	-2680
▁abaixo	-2681
▁separa	-2682
▁esperar	-2683
▁parecer	-2684
▁process	-2685
▁edificio	-2686
▁estranho	-2687
▁hospital	-2688
▁inovacao	-2689
▁negocios	-2690
▁observar	-2691
▁economico	-2692
▁literalmente	-2693
▁absolutamente	-2694
dy	-2695
gum	-2696
anda	-2697
▁tur	-2698
▁zon	-2699
deira	-2700
didas	-2701
gados	-2702
tadas	-2703
▁arma	-2704
▁duma	-2705
racoes	-2706
▁serao	-2707
▁lembro	-2708
▁varios	-2709
▁utiliza	-2710
▁medicina	-2711
▁ultrapas	-2712
▁transformar	-2713
gs	-2714
lesc	-2715
▁ton	-2716
▁ves	-2717
ronte	-2718
truir	-2719
▁chega	-2720
▁concl	-2721
▁epoca	-2722
▁neuro	-2723
▁confor	-2724
▁desses	-2725
▁adolesc	-2726
▁escolher	-2727
▁espantos	-2728
▁governos	-2729
▁mudancas	-2730
▁produzir	-2731
▁transforma	-2732
▁investigacao	-2733
igu	-2734
lex	-2735
riz	-2736
dios	-2737
tava	-2738
tron	-2739
▁eis	-2740
resso	-2741
▁bair	-2742
▁prazo	-2743
▁fisico	-2744
▁perder	-2745
▁abelhas	-2746
▁comecam	-2747
▁biologia	-2748
▁poderiam	-2749
▁extraordinar	-2750
▁infelizmente	-2751
lam	-2752
tiu	-2753
▁pl	-2754
tuais	-2755
▁nano	-2756
▁vivo	-2757
▁cadeia	-2758
▁concen	-2759
▁oceano	-2760
▁perman	-2761
▁salvar	-2762
▁parecem	-2763
▁cerebros	-2764
▁evolucao	-2765
▁maneiras	-2766
▁objetivo	-2767
▁proximos	-2768
▁sensacao	-2769
▁servicos	-2770
▁compaixao	-2771
▁raparigas	-2772
▁aprendemos	-2773
dap	-2774
vao	-2775
▁ang	-2776
▁mov	-2777
curso	-2778
radas	-2779
raram	-2780
▁efic	-2781
▁jogo	-2782
▁abrir	-2783
▁quilo	-2784
▁recom	-2785
▁branco	-2786
▁doente	-2787
▁hipote	-2788
▁mesmas	-2789
▁quarto	-2790
▁tecido	-2791
▁diagnos	-2792
▁experim	-2793
▁pobreza	-2794
▁caracter	-2795
▁terceiro	-2796
▁apresenta	-2797
▁constante	-2798
▁politicos	-2799
▁surpreendente	-2800
gon	-2801
jus	-2802
deia	-2803
ilar	-2804
itas	-2805
rael	-2806
uais	-2807
ware	-2808
▁ras	-2809
▁sai	-2810
cidos	-2811
▁audi	-2812
▁circ	-2813
▁erro	-2814
grafia	-2815
metros	-2816
▁daqui	-2817
▁invis	-2818
▁sauda	-2819
▁conduz	-2820
▁decada	-2821
▁eficaz	-2822
▁electr	-2823
▁israel	-2824
▁passou	-2825
▁grafico	-2826
▁percebi	-2827
▁pratica	-2828
▁conceito	-2829
▁abordagem	-2830
▁acreditar	-2831
▁demonstra	-2832
▁construcao	-2833
▁exactamente	-2834
tiz	-2835
▁eg	-2836
book	-2837
segu	-2838
talh	-2839
tino	-2840
▁apa	-2841
▁gig	-2842
▁gre	-2843
ender	-2844
ncias	-2845
vores	-2846
▁azul	-2847
▁emer	-2848
▁irma	-2849
inaria	-2850
istica	-2851
▁intro	-2852
▁lista	-2853
▁imposs	-2854
▁indepen	-2855
▁produto	-2856
▁conduzir	-2857
▁permitir	-2858
▁superior	-2859
▁funcionam	-2860
cha	-2861
rup	-2862
teis	-2863
vera	-2864
▁max	-2865
taria	-2866
▁ruas	-2867
▁ligar	-2868
▁campan	-2869
▁chegou	-2870
▁feitos	-2871
▁morrer	-2872
▁parede	-2873
▁trazer	-2874
▁deveria	-2875
▁direita	-2876
▁inteiro	-2877
▁olhamos	-2878
▁periodo	-2879
▁quantos	-2880
▁cidadaos	-2881
▁conseque	-2882
▁envelhec	-2883
▁facebook	-2884
ly	-2885
erva	-2886
ifor	-2887
mbro	-2888
▁joh	-2889
▁leg	-2890
▁rit	-2891
▁divi	-2892
▁pena	-2893
▁class	-2894
▁fenom	-2895
▁museu	-2896
▁depres	-2897
▁financ	-2898
▁padrao	-2899
▁dificul	-2900
▁olharem	-2901
▁certamente	-2902
▁sentimento	-2903
▁imediatamente	-2904
ad	-2905
bou	-2906
ecem	-2907
espe	-2908
mina	-2909
▁jar	-2910
▁paz	-2911
▁vul	-2912
agens	-2913
▁adap	-2914
▁aran	-2915
▁desc	-2916
▁pedi	-2917
▁povo	-2918
▁soft	-2919
▁taxa	-2920
▁veic	-2921
cionar	-2922
▁acima	-2923
▁baixa	-2924
▁palco	-2925
▁repar	-2926
▁resta	-2927
rimento	-2928
▁contem	-2929
▁desper	-2930
▁enviar	-2931
▁fascin	-2932
▁querer	-2933
ferencia	-2934
istencia	-2935
▁costuma	-2936
▁policia	-2937
▁tiveram	-2938
▁presidente	-2939
▁tratamento	-2940
che	-2941
mao	-2942
dica	-2943
esta	-2944
▁ped	-2945
▁pei	-2946
▁tum	-2947
icios	-2948
tivel	-2949
▁agar	-2950
▁meta	-2951
▁opin	-2952
▁quin	-2953
▁desem	-2954
▁livre	-2955
▁mover	-2956
▁reduz	-2957
▁verao	-2958
▁verde	-2959
izacoes	-2960
▁fossem	-2961
▁fronte	-2962
▁habita	-2963
▁perspe	-2964
▁poucos	-2965
▁sinais	-2966
▁arvores	-2967
▁complexo	-2968
▁politicas	-2969
▁documentos	-2970
▁semelhante	-2971
▁necessidade	-2972
▁verdadeiramente	-2973
fi	-2974
bia	-2975
vei	-2976
▁et	-2977
anha	-2978
ecao	-2979
rava	-2980
vada	-2981
▁ama	-2982
▁ceu	-2983
▁dou	-2984
▁eng	-2985
▁gal	-2986
▁ges	-2987
▁gps	-2988
▁mac	-2989
▁abor	-2990
▁bate	-2991
▁nove	-2992
▁peso	-2993
▁somb	-2994
▁tema	-2995
ificar	-2996
▁conec	-2997
▁fonte	-2998
▁infra	-2999
▁insec	-3000
▁lutar	-3001
▁sendo	-3002
▁ganhar	-3003
▁milhao	-3004
▁parque	-3005
▁emprego	-3006
▁chegamos	-3007
▁personal	-3008
▁preocupa	-3009
jos	-3010
rno	-3011
asse	-3012
ilib	-3013
▁aci	-3014
▁chu	-3015
▁fib	-3016
▁lic	-3017
▁pis	-3018
▁the	-3019
vista	-3020
▁anun	-3021
▁luta	-3022
▁ness	-3023
▁seda	-3024
▁sorte	-3025
▁descul	-3026
▁juntar	-3027
▁nestas	-3028
▁pagina	-3029
▁vossas	-3030
▁artista	-3031
▁decadas	-3032
▁fabrica	-3033
▁membros	-3034
▁proprie	-3035
▁pudesse	-3036
▁substit	-3037
▁question	-3038
▁americanos	-3039
▁individuos	-3040
▁extremamente	-3041
mou	-3042
udo	-3043
uiu	-3044
▁der	-3045
▁afec	-3046
▁diss	-3047
▁pate	-3048
▁chamo	-3049
▁funda	-3050
▁tocar	-3051
▁mantem	-3052
▁regiao	-3053
▁tornam	-3054
▁debaixo	-3055
▁direcao	-3056
▁memoria	-3057
▁secundar	-3058
▁alimentar	-3059
▁condicoes	-3060
▁telemovel	-3061
▁particulas	-3062
eral	-3063
isse	-3064
▁arm	-3065
▁viu	-3066
ional	-3067
issao	-3068
nosco	-3069
renta	-3070
tador	-3071
vosco	-3072
▁adul	-3073
▁afir	-3074
▁bebe	-3075
▁cedo	-3076
▁chao	-3077
▁cong	-3078
▁leis	-3079
▁olho	-3080
▁pele	-3081
ologia	-3082
▁danca	-3083
▁forem	-3084
▁frase	-3085
▁menti	-3086
▁olhem	-3087
▁carvao	-3088
▁gostam	-3089
▁bilioes	-3090
▁comenta	-3091
▁decisao	-3092
▁efeitos	-3093
▁parecia	-3094
▁partilh	-3095
▁anterior	-3096
▁convosco	-3097
▁depressa	-3098
▁particip	-3099
▁utilizar	-3100
▁perguntei	-3101
▁descoberta	-3102
▁impossivel	-3103
▁tr	-3104
▁xx	-3105
fera	-3106
iada	-3107
nito	-3108
olog	-3109
vess	-3110
▁fel	-3111
▁geo	-3112
▁acha	-3113
▁clin	-3114
▁senh	-3115
taveis	-3116
▁carne	-3117
▁curso	-3118
▁diria	-3119
▁engen	-3120
▁envia	-3121
▁viram	-3122
▁tempos	-3123
▁vitimas	-3124
▁decisoes	-3125
▁maquinas	-3126
▁quiserem	-3127
▁religiao	-3128
▁aplicacao	-3129
▁necessaria	-3130
▁pensamento	-3131
▁reconhecer	-3132
eo	-3133
ack	-3134
tui	-3135
▁sm	-3136
rido	-3137
▁cob	-3138
▁gor	-3139
▁pao	-3140
▁viz	-3141
▁von	-3142
cados	-3143
inado	-3144
▁disc	-3145
▁imen	-3146
▁inco	-3147
▁john	-3148
▁aulas	-3149
▁carta	-3150
▁direc	-3151
▁erros	-3152
▁meios	-3153
▁opera	-3154
▁proto	-3155
▁paixao	-3156
▁seguro	-3157
▁receber	-3158
▁cirurgia	-3159
▁contexto	-3160
▁hipotese	-3161
▁sobreviver	-3162
▁verdadeiro	-3163
fas	-3164
rir	-3165
alax	-3166
quem	-3167
timo	-3168
▁cic	-3169
▁pul	-3170
▁tua	-3171
tidos	-3172
▁ativ	-3173
▁impe	-3174
▁argum	-3175
▁astro	-3176
▁filha	-3177
▁galax	-3178
▁narra	-3179
▁prima	-3180
▁radio	-3181
▁serio	-3182
acidade	-3183
▁acabou	-3184
▁chamar	-3185
▁exerci	-3186
▁micros	-3187
▁nestes	-3188
▁sermos	-3189
▁utiliz	-3190
▁espacos	-3191
▁quantas	-3192
▁connosco	-3193
▁enfrenta	-3194
▁mercados	-3195
▁controlar	-3196
▁decidimos	-3197
jas	-3198
▁st	-3199
arao	-3200
imas	-3201
quia	-3202
▁bro	-3203
▁rio	-3204
dutor	-3205
ganis	-3206
siste	-3207
▁alea	-3208
▁exam	-3209
▁sons	-3210
iedade	-3211
itario	-3212
▁apoio	-3213
▁armas	-3214
▁falam	-3215
▁secre	-3216
peracao	-3217
▁buraco	-3218
▁expres	-3219
▁funcao	-3220
▁linhas	-3221
▁daquele	-3222
▁equilib	-3223
▁felizes	-3224
▁oriente	-3225
▁poderao	-3226
▁queriam	-3227
▁tempera	-3228
▁valores	-3229
▁vontade	-3230
▁campanha	-3231
▁conhecer	-3232
▁explorar	-3233
▁software	-3234
▁solucoes	-3235
▁elementos	-3236
▁queriamos	-3237
▁atualmente	-3238
▁claramente	-3239
▁conhecemos	-3240
▁considerar	-3241
▁influencia	-3242
▁importancia	-3243
▁informacoes	-3244
bio	-3245
ila	-3246
dora	-3247
tais	-3248
tora	-3249
▁ocu	-3250
▁pus	-3251
▁apon	-3252
▁arti	-3253
▁cate	-3254
▁esca	-3255
▁evol	-3256
▁olha	-3257
▁surg	-3258
▁acham	-3259
▁barul	-3260
▁chris	-3261
▁creio	-3262
▁esper	-3263
▁instr	-3264
▁tente	-3265
▁usado	-3266
▁vindo	-3267
▁factos	-3268
▁genoma	-3269
▁pedaco	-3270
▁conheci	-3271
▁criacao	-3272
▁integra	-3273
▁alcancar	-3274
▁estrelas	-3275
▁partilha	-3276
▁tornaram	-3277
▁estruturas	-3278
▁transporte	-3279
▁inteligente	-3280
bu	-3281
tt	-3282
ach	-3283
ice	-3284
tel	-3285
uso	-3286
ramo	-3287
▁adm	-3288
▁ati	-3289
▁bon	-3290
▁lua	-3291
▁vin	-3292
ustra	-3293
▁ecra	-3294
▁peca	-3295
▁perc	-3296
▁zero	-3297
▁canto	-3298
▁corte	-3299
▁dizia	-3300
▁facam	-3301
▁indic	-3302
▁inten	-3303
▁ritmo	-3304
▁automo	-3305
▁prisao	-3306
▁riscos	-3307
▁sentem	-3308
▁tantas	-3309
▁terren	-3310
ganistao	-3311
▁estrate	-3312
▁atravess	-3313
▁segundos	-3314
▁moleculas	-3315
▁perspetiva	-3316
▁afeganistao	-3317
▁quilometros	-3318
▁complexidade	-3319
▁oportunidades	-3320
ick	-3321
esia	-3322
rida	-3323
▁hol	-3324
▁lam	-3325
▁tru	-3326
copio	-3327
uidos	-3328
vidos	-3329
▁bras	-3330
▁devo	-3331
▁hero	-3332
▁mesa	-3333
▁tido	-3334
▁trou	-3335
itivos	-3336
izadas	-3337
tantes	-3338
▁dirig	-3339
▁expos	-3340
▁reino	-3341
▁vanta	-3342
ramente	-3343
tificar	-3344
▁abando	-3345
▁coloca	-3346
▁filoso	-3347
▁mosqui	-3348
▁artific	-3349
▁estatis	-3350
▁desempen	-3351
▁poderoso	-3352
▁proteger	-3353
▁rapariga	-3354
▁estiverem	-3355
▁estivesse	-3356
▁incluindo	-3357
▁poderemos	-3358
▁sequencia	-3359
▁construimos	-3360
▁significado	-3361
▁possibilidade	-3362
▁trabalhadores	-3363
▁particularmente	-3364
ry	-3365
iss	-3366
itu	-3367
izo	-3368
enda	-3369
ixon	-3370
tres	-3371
▁agu	-3372
▁gar	-3373
▁agir	-3374
▁ecos	-3375
▁fogo	-3376
itaria	-3377
▁dinam	-3378
▁garan	-3379
▁incen	-3380
▁metro	-3381
▁negro	-3382
▁brasil	-3383
▁concor	-3384
▁genero	-3385
▁govern	-3386
▁sentia	-3387
▁aumento	-3388
▁quimica	-3389
▁regress	-3390
▁alimenta	-3391
▁momentos	-3392
▁tentamos	-3393
▁terceira	-3394
▁americana	-3395
▁mensagens	-3396
▁proposito	-3397
▁diferencas	-3398
▁inteligencia	-3399
▁interessantes	-3400
ami	-3401
iga	-3402
dura	-3403
▁fol	-3404
▁ine	-3405
▁ola	-3406
▁rem	-3407
haria	-3408
▁arre	-3409
▁cura	-3410
▁dito	-3411
▁even	-3412
▁imun	-3413
▁suic	-3414
▁emerg	-3415
▁espac	-3416
▁famos	-3417
▁infer	-3418
▁inven	-3419
▁motor	-3420
▁pares	-3421
▁segre	-3422
▁certas	-3423
▁detalh	-3424
▁eramos	-3425
▁esteja	-3426
▁niveis	-3427
▁testem	-3428
▁apaixon	-3429
▁brincar	-3430
▁estabel	-3431
▁humanas	-3432
▁justica	-3433
▁estradas	-3434
▁passamos	-3435
▁permitem	-3436
▁interesse	-3437
lor	-3438
ivos	-3439
▁dai	-3440
▁dao	-3441
mitir	-3442
▁exig	-3443
▁faca	-3444
▁ocid	-3445
▁queb	-3446
rancia	-3447
▁notas	-3448
▁usada	-3449
▁comeco	-3450
▁metodo	-3451
▁teriam	-3452
dimentos	-3453
▁linguas	-3454
▁partici	-3455
▁insectos	-3456
▁respeito	-3457
▁conseguiu	-3458
▁especific	-3459
▁expressao	-3460
▁principio	-3461
▁felicidade	-3462
▁medicamentos	-3463
eias	-3464
▁ade	-3465
▁emp	-3466
▁tex	-3467
▁tim	-3468
▁tor	-3469
arias	-3470
minis	-3471
▁almo	-3472
▁dupl	-3473
▁esqu	-3474
▁gelo	-3475
▁moda	-3476
▁reto	-3477
▁toca	-3478
▁trem	-3479
▁zona	-3480
itacao	-3481
▁ensin	-3482
▁rique	-3483
▁supor	-3484
cionais	-3485
▁afinal	-3486
▁aldeia	-3487
▁aspeto	-3488
▁forcas	-3489
▁prazer	-3490
▁tratar	-3491
▁versao	-3492
▁contudo	-3493
▁enormes	-3494
▁fazerem	-3495
▁gostava	-3496
▁desafios	-3497
▁encontro	-3498
▁perfeito	-3499
▁setembro	-3500
▁silencio	-3501
▁depressao	-3502
▁cientifica	-3503
▁investimento	-3504
▁profissionais	-3505
hi	-3506
pho	-3507
▁av	-3508
osao	-3509
resc	-3510
tiam	-3511
▁dob	-3512
▁dra	-3513
▁pan	-3514
▁vig	-3515
pensa	-3516
veram	-3517
▁acas	-3518
▁elim	-3519
▁psic	-3520
▁twit	-3521
sidade	-3522
▁abran	-3523
▁afeta	-3524
▁algor	-3525
▁comba	-3526
▁equip	-3527
▁matar	-3528
▁medir	-3529
▁perda	-3530
▁provo	-3531
▁tanta	-3532
▁barato	-3533
▁deixou	-3534
▁destru	-3535
▁europe	-3536
▁idosos	-3537
▁mortal	-3538
▁nervos	-3539
▁origem	-3540
▁poucas	-3541
▁profun	-3542
▁stress	-3543
adamente	-3544
▁adminis	-3545
▁alterna	-3546
▁analise	-3547
▁esforco	-3548
▁estrela	-3549
▁instrum	-3550
▁popular	-3551
▁conselho	-3552
▁exercito	-3553
▁olharmos	-3554
▁terminar	-3555
▁testemun	-3556
▁audiencia	-3557
▁florestas	-3558
▁programas	-3559
▁impression	-3560
▁criatividade	-3561
lis	-3562
tom	-3563
eles	-3564
▁ber	-3565
▁bla	-3566
▁bor	-3567
▁cem	-3568
▁cog	-3569
▁new	-3570
▁rus	-3571
▁ste	-3572
eleza	-3573
embro	-3574
▁dado	-3575
▁fras	-3576
▁isol	-3577
dimens	-3578
issoes	-3579
▁higgs	-3580
▁miste	-3581
▁moral	-3582
▁pecas	-3583
▁puder	-3584
▁ratos	-3585
▁tendo	-3586
dencias	-3587
icacoes	-3588
▁bocado	-3589
▁cirurg	-3590
▁compon	-3591
▁compos	-3592
▁contas	-3593
▁evitar	-3594
▁fortes	-3595
▁negros	-3596
▁buracos	-3597
▁opiniao	-3598
▁poderos	-3599
▁reparem	-3600
tribuicao	-3601
▁determin	-3602
▁deviamos	-3603
▁dificeis	-3604
▁espirito	-3605
▁exterior	-3606
▁comunicar	-3607
▁desaparec	-3608
▁ferramenta	-3609
▁geralmente	-3610
▁inteligentes	-3611
iso	-3612
▁of	-3613
itam	-3614
logo	-3615
mpan	-3616
▁del	-3617
▁rea	-3618
▁tun	-3619
haram	-3620
▁chip	-3621
▁cora	-3622
▁desf	-3623
▁lide	-3624
▁solo	-3625
logica	-3626
▁areia	-3627
▁armaz	-3628
▁calor	-3629
▁femin	-3630
▁flutu	-3631
▁marte	-3632
▁orgul	-3633
▁ponta	-3634
▁repro	-3635
▁velho	-3636
▁antiga	-3637
▁beleza	-3638
▁iremos	-3639
▁litera	-3640
▁objeto	-3641
▁sitios	-3642
▁acompan	-3643
▁algorit	-3644
▁aspecto	-3645
▁cuidado	-3646
▁multipl	-3647
▁pensava	-3648
▁teremos	-3649
▁aparecer	-3650
▁artistas	-3651
▁conhecem	-3652
▁epidemia	-3653
▁sentimos	-3654
▁incriveis	-3655
▁tendencia	-3656
▁adolescentes	-3657
▁essencialmente	-3658
ed	-3659
▁wa	-3660
vita	-3661
▁bic	-3662
caram	-3663
iacao	-3664
▁bola	-3665
▁imig	-3666
▁nave	-3667
tropia	-3668
▁arabe	-3669
▁costa	-3670
▁deser	-3671
▁imens	-3672
▁reais	-3673
isticas	-3674
▁britan	-3675
▁dentes	-3676
▁minuto	-3677
▁ocorre	-3678
▁ouvido	-3679
▁pressao	-3680
▁colabora	-3681
▁americano	-3682
▁excelente	-3683
▁sentimentos	-3684
au	-3685
ze	-3686
pro	-3687
▁cr	-3688
onia	-3689
▁teu	-3690
estru	-3691
gamos	-3692
tivar	-3693
▁aleg	-3694
▁dorm	-3695
▁reno	-3696
▁voar	-3697
eladas	-3698
▁acess	-3699
▁bomba	-3700
▁longa	-3701
▁ordem	-3702
▁otimo	-3703
▁vento	-3704
▁automa	-3705
▁comuns	-3706
▁tantos	-3707
▁testar	-3708
▁alterar	-3709
▁avancar	-3710
▁consumo	-3711
▁depende	-3712
▁escrita	-3713
▁esquele	-3714
▁ficamos	-3715
▁inteira	-3716
▁noticia	-3717
▁servico	-3718
▁eleicoes	-3719
▁formacao	-3720
▁provavel	-3721
▁publicos	-3722
▁ecossiste	-3723
▁encontram	-3724
▁trabalhos	-3725
▁dispositivo	-3726
▁fotografias	-3727
▁individuais	-3728
▁agricultores	-3729
▁eventualmente	-3730
by	-3731
cen	-3732
ell	-3733
ple	-3734
umo	-3735
acia	-3736
gaos	-3737
ilha	-3738
ivas	-3739
leta	-3740
pica	-3741
toma	-3742
▁vaz	-3743
ismos	-3744
▁abra	-3745
▁asia	-3746
▁cren	-3747
▁lixo	-3748
▁nota	-3749
vacoes	-3750
▁banco	-3751
▁busca	-3752
▁celeb	-3753
▁chuva	-3754
▁cogni	-3755
▁infan	-3756
▁irmao	-3757
▁redor	-3758
▁robos	-3759
▁aberto	-3760
▁cardia	-3761
▁errada	-3762
▁formar	-3763
▁instru	-3764
▁marido	-3765
▁medica	-3766
▁pernas	-3767
▁tarefa	-3768
▁empreen	-3769
▁fazendo	-3770
▁ficaram	-3771
▁surpres	-3772
▁twitter	-3773
▁fenomeno	-3774
▁protecao	-3775
▁tecnicas	-3776
▁terrivel	-3777
▁acreditam	-3778
▁preocupar	-3779
▁primeiras	-3780
▁apresentar	-3781
▁disponivel	-3782
▁felizmente	-3783
▁combustivel	-3784
▁compreensao	-3785
fes	-3786
gam	-3787
pes	-3788
ival	-3789
▁dei	-3790
▁les	-3791
▁pun	-3792
sario	-3793
vidas	-3794
▁acus	-3795
▁bang	-3796
▁cair	-3797
▁crio	-3798
▁frag	-3799
▁rele	-3800
tralia	-3801
turais	-3802
▁ameac	-3803
▁bebes	-3804
▁cheia	-3805
▁educa	-3806
▁inver	-3807
▁lados	-3808
▁licao	-3809
▁vozes	-3810
ifornia	-3811
▁acresc	-3812
▁antigo	-3813
▁drogas	-3814
▁enfren	-3815
▁fracas	-3816
▁percor	-3817
▁poupar	-3818
▁quente	-3819
▁sabiam	-3820
▁videos	-3821
▁aprovei	-3822
▁cheguei	-3823
▁vacinas	-3824
▁analisar	-3825
▁carreira	-3826
▁interpre	-3827
▁poderosa	-3828
▁precisao	-3829
▁teriamos	-3830
▁transito	-3831
▁transpar	-3832
dentemente	-3833
▁australia	-3834
▁brilhante	-3835
▁conhecido	-3836
▁pacientes	-3837
▁precisava	-3838
▁california	-3839
▁imaginacao	-3840
▁maravilhoso	-3841
▁responsavel	-3842
▁conseguirmos	-3843
▁internacional	-3844
▁extraordinaria	-3845
▁suficientemente	-3846
hu	-3847
bur	-3848
mor	-3849
uro	-3850
ider	-3851
ixas	-3852
tein	-3853
unta	-3854
▁etc	-3855
▁rei	-3856
gures	-3857
rania	-3858
uiram	-3859
▁meia	-3860
▁obra	-3861
▁pato	-3862
rantes	-3863
torias	-3864
▁banho	-3865
▁caval	-3866
▁graus	-3867
▁menor	-3868
▁nocao	-3869
▁plata	-3870
▁ponte	-3871
▁terao	-3872
▁termo	-3873
tancias	-3874
▁bloque	-3875
▁discus	-3876
▁encora	-3877
▁engenh	-3878
▁espeta	-3879
▁feitas	-3880
▁gratui	-3881
▁guarda	-3882
▁limite	-3883
▁testes	-3884
▁triste	-3885
▁visita	-3886
▁algures	-3887
▁atingir	-3888
▁barulho	-3889
▁cadeira	-3890
▁daquela	-3891
▁equival	-3892
▁escrito	-3893
▁lembrem	-3894
▁plantas	-3895
▁recente	-3896
▁terreno	-3897
▁unidade	-3898
▁conteudo	-3899
▁direccao	-3900
▁escolhas	-3901
▁escreveu	-3902
▁sabiamos	-3903
▁bacterias	-3904
▁cientista	-3905
▁companhia	-3906
▁enfrentar	-3907
▁microbios	-3908
▁reconstruir	-3909
▁sustentavel	-3910
▁temperatura	-3911
▁organizacoes	-3912
cap	-3913
fia	-3914
▁kg	-3915
ical	-3916
▁jam	-3917
tidas	-3918
▁caro	-3919
▁ouro	-3920
▁pain	-3921
▁rato	-3922
▁acaba	-3923
▁acaso	-3924
▁assum	-3925
▁defic	-3926
▁discu	-3927
▁domes	-3928
▁magia	-3929
▁vidro	-3930
▁acabei	-3931
▁academ	-3932
▁admira	-3933
▁ataque	-3934
▁cabelo	-3935
▁certos	-3936
▁detras	-3937
▁deviam	-3938
▁eleito	-3939
▁gracas	-3940
▁perigo	-3941
▁pronto	-3942
▁voltei	-3943
ificacao	-3944
▁aceitar	-3945
▁consumi	-3946
▁mistura	-3947
▁normais	-3948
▁obtemos	-3949
▁ouvimos	-3950
▁perspec	-3951
▁consider	-3952
▁gostamos	-3953
▁investir	-3954
▁telefone	-3955
▁altamente	-3956
▁individuo	-3957
▁televisao	-3958
▁administra	-3959
▁engenharia	-3960
▁entusiasma	-3961
▁identidade	-3962
▁principais	-3963
▁descobriram	-3964
▁tradicional	-3965
▁tradicionais	-3966
bi	-3967
▁wal	-3968
▁cabo	-3969
▁fabr	-3970
▁fixe	-3971
▁flor	-3972
▁ilum	-3973
▁lond	-3974
▁suce	-3975
▁tens	-3976
tiveis	-3977
▁atmos	-3978
▁batal	-3979
▁cober	-3980
▁cores	-3981
▁damos	-3982
▁facul	-3983
▁infec	-3984
▁oxito	-3985
▁salas	-3986
▁selec	-3987
▁unido	-3988
▁aranha	-3989
▁camada	-3990
▁cancao	-3991
▁colabo	-3992
▁debate	-3993
▁distin	-3994
▁ensina	-3995
▁missao	-3996
▁passam	-3997
▁senhor	-3998
▁sexual	-3999
▁treino	-4000
acionais	-4001
▁dezenas	-4002
▁generos	-4003
▁riqueza	-4004
▁acabamos	-4005
▁naturais	-4006
▁podermos	-4007
▁politico	-4008
▁projetos	-4009
▁religios	-4010
▁vermelho	-4011
▁casamento	-4012
▁invisivel	-4013
▁oxitocina	-4014
▁infraestru	-4015
▁principios	-4016
▁agricultura	-4017
ds	-4018
ass	-4019
bun	-4020
gio	-4021
nes	-4022
tch	-4023
zes	-4024
▁tv	-4025
veja	-4026
▁coo	-4027
▁cop	-4028
▁mel	-4029
▁tin	-4030
ceram	-4031
▁apre	-4032
▁diga	-4033
▁exce	-4034
▁liga	-4035
▁pira	-4036
▁vale	-4037
▁vive	-4038
tifico	-4039
▁atual	-4040
▁autor	-4041
▁bicic	-4042
▁colec	-4043
▁depar	-4044
▁desas	-4045
▁refle	-4046
▁roman	-4047
gadores	-4048
▁ameaca	-4049
▁blocos	-4050
▁calcul	-4051
▁duvida	-4052
▁frases	-4053
▁implem	-4054
▁juntas	-4055
▁mergul	-4056
▁perten	-4057
▁quenia	-4058
▁reputa	-4059
▁requer	-4060
▁seriam	-4061
▁tentei	-4062
▁viajar	-4063
ivamente	-4064
▁apanhar	-4065
▁eletron	-4066
▁existir	-4067
▁londres	-4068
▁mostram	-4069
▁paginas	-4070
▁reduzir	-4071
▁registo	-4072
▁amostras	-4073
▁arquitec	-4074
▁arranjar	-4075
▁clientes	-4076
▁espacial	-4077
▁expansao	-4078
▁precisar	-4079
▁tenhamos	-4080
▁conflitos	-4081
▁definicao	-4082
▁impressao	-4083
▁perguntou	-4084
dimensional	-4085
▁aplicacoes	-4086
▁facilmente	-4087
▁frequencia	-4088
▁substituir	-4089
▁dispositivos	-4090
ash	-4091
fac	-4092
usa	-4093
▁ei	-4094
▁he	-4095
▁ni	-4096
iote	-4097
pico	-4098
tero	-4099
▁ans	-4100
▁big	-4101
▁dif	-4102
▁div	-4103
▁sms	-4104
cemos	-4105
ticao	-4106
tidao	-4107
▁alar	-4108
▁ater	-4109
▁bibl	-4110
▁cama	-4111
▁char	-4112
▁empa	-4113
▁frio	-4114
▁indo	-4115
▁parc	-4116
▁park	-4117
▁reci	-4118
▁sapa	-4119
▁vuln	-4120
▁ciclo	-4121
▁custa	-4122
▁destr	-4123
▁hones	-4124
▁horri	-4125
▁lenta	-4126
▁rodas	-4127
▁rosto	-4128
▁satis	-4129
▁aberta	-4130
▁cartas	-4131
▁corpos	-4132
▁franca	-4133
▁havera	-4134
▁mortes	-4135
▁pertur	-4136
▁recebe	-4137
▁revolu	-4138
▁decidir	-4139
▁emocoes	-4140
▁estejam	-4141
▁reforma	-4142
▁somente	-4143
▁virtual	-4144
▁apareceu	-4145
▁conflito	-4146
▁cultural	-4147
▁defender	-4148
▁desenhar	-4149
▁entropia	-4150
▁libertar	-4151
▁original	-4152
▁passaram	-4153
▁pensarem	-4154
▁tivessem	-4155
▁adicionar	-4156
▁descrever	-4157
▁deveriamos	-4158
▁ignorancia	-4159
▁juntamente	-4160
▁participar	-4161
▁rendimento	-4162
▁telemoveis	-4163
▁arquitetura	-4164
▁disponiveis	-4165
▁instituicao	-4166
▁consequencias	-4167
eas	-4168
men	-4169
ump	-4170
▁ah	-4171
▁gl	-4172
eria	-4173
icam	-4174
igen	-4175
vore	-4176
▁bru	-4177
▁lib	-4178
▁rig	-4179
▁suj	-4180
cente	-4181
misso	-4182
teses	-4183
vesse	-4184
▁alvo	-4185
▁flex	-4186
▁medi	-4187
entado	-4188
vidade	-4189
▁deita	-4190
▁enfer	-4191
▁exerc	-4192
▁incon	-4193
▁monte	-4194
▁obvio	-4195
▁ondas	-4196
▁virem	-4197
▁acorda	-4198
▁agrade	-4199
▁bairro	-4200
▁chamam	-4201
▁demais	-4202
▁estilo	-4203
▁filmes	-4204
▁gestao	-4205
▁intens	-4206
▁iraque	-4207
▁orgaos	-4208
▁poupan	-4209
▁premio	-4210
▁vender	-4211
▁achamos	-4212
▁afastar	-4213
▁aparece	-4214
▁baseado	-4215
▁digamos	-4216
▁instala	-4217
▁limites	-4218
▁tecnica	-4219
▁vulnera	-4220
ibilidade	-4221
▁controla	-4222
▁profundo	-4223
▁alimentos	-4224
▁atmosfera	-4225
▁comercial	-4226
▁empreende	-4227
▁mosquitos	-4228
▁reputacao	-4229
▁industrial	-4230
▁terrorismo	-4231
▁praticamente	-4232
▁profundamente	-4233
▁relativamente	-4234
▁comportamentos	-4235
▁constantemente	-4236
▁possibilidades	-4237
oo	-4238
wn	-4239
cri	-4240
esa	-4241
eza	-4242
bais	-4243
▁cui	-4244
▁rab	-4245
intes	-4246
mento	-4247
▁acao	-4248
▁ambi	-4249
▁decl	-4250
▁eins	-4251
▁elef	-4252
▁fase	-4253
▁fome	-4254
▁priv	-4255
cepcao	-4256
eracao	-4257
ington	-4258
respon	-4259
riamos	-4260
▁criou	-4261
▁humil	-4262
▁intes	-4263
▁luzes	-4264
▁miudo	-4265
▁natal	-4266
▁paris	-4267
▁senho	-4268
▁texto	-4269
tribuir	-4270
ulacoes	-4271
▁aceita	-4272
▁arvore	-4273
▁diaria	-4274
▁nacoes	-4275
▁opcoes	-4276
▁trauma	-4277
▁autocar	-4278
▁batalha	-4279
▁candida	-4280
▁convida	-4281
▁criaram	-4282
▁dizemos	-4283
▁frances	-4284
▁ligeira	-4285
▁mudaram	-4286
▁pedacos	-4287
▁visitar	-4288
▁cozinhar	-4289
▁einstein	-4290
▁elemento	-4291
▁envolver	-4292
▁esquerdo	-4293
▁interven	-4294
▁ligacoes	-4295
▁planetas	-4296
▁pudessem	-4297
▁desconhec	-4298
▁emocional	-4299
▁beneficios	-4300
▁cientifico	-4301
▁exploracao	-4302
▁fantastica	-4303
▁privacidade	-4304
▁semelhantes	-4305
▁eletricidade	-4306
▁necessidades	-4307
▁extraordinario	-4308
wa	-4309
age	-4310
cta	-4311
eda	-4312
pao	-4313
vin	-4314
▁sr	-4315
▁avi	-4316
▁gol	-4317
▁pib	-4318
▁sel	-4319
▁soa	-4320
▁acel	-4321
▁arro	-4322
▁coca	-4323
▁egip	-4324
▁exci	-4325
▁mape	-4326
▁posi	-4327
aravel	-4328
▁adequ	-4329
▁apoia	-4330
▁canal	-4331
▁categ	-4332
▁cegos	-4333
▁gripe	-4334
▁japao	-4335
▁manip	-4336
▁peixe	-4337
▁prior	-4338
▁proba	-4339
▁repor	-4340
▁retra	-4341
▁rever	-4342
▁torno	-4343
▁andava	-4344
▁milita	-4345
▁poesia	-4346
▁transm	-4347
▁velhos	-4348
▁vergon	-4349
▁armazen	-4350
▁militar	-4351
▁objecto	-4352
▁paredes	-4353
▁retirar	-4354
▁tecidos	-4355
▁galaxias	-4356
▁montanha	-4357
▁complexos	-4358
▁concentra	-4359
▁continuam	-4360
▁espantoso	-4361
▁faculdade	-4362
▁hospitais	-4363
▁ocidental	-4364
▁proteinas	-4365
▁recuperar	-4366
▁sobretudo	-4367
▁toneladas	-4368
▁artificial	-4369
▁individual	-4370
▁equipamento	-4371
ph	-4372
ler	-4373
pam	-4374
▁wi	-4375
▁cao	-4376
ficos	-4377
gador	-4378
remos	-4379
untos	-4380
▁alma	-4381
▁enca	-4382
▁nega	-4383
▁ocas	-4384
icamos	-4385
▁accao	-4386
▁braco	-4387
▁breve	-4388
▁cheio	-4389
▁credi	-4390
▁dedos	-4391
▁incap	-4392
▁infin	-4393
▁iriam	-4394
▁junta	-4395
▁marke	-4396
▁nacao	-4397
▁nomes	-4398
▁opcao	-4399
▁preto	-4400
▁promo	-4401
▁radia	-4402
▁sabes	-4403
▁tumor	-4404
istente	-4405
▁canada	-4406
▁centra	-4407
▁criado	-4408
▁energe	-4409
▁escuro	-4410
▁excrem	-4411
▁indica	-4412
▁morreu	-4413
▁provar	-4414
▁segura	-4415
▁termin	-4416
▁alegria	-4417
▁daquilo	-4418
▁fisicos	-4419
▁general	-4420
▁inicial	-4421
▁moderna	-4422
▁tiverem	-4423
▁aprendem	-4424
▁digitais	-4425
▁discurso	-4426
▁dissemos	-4427
▁empregos	-4428
▁molecula	-4429
▁signific	-4430
▁conversas	-4431
▁descobriu	-4432
▁desperdic	-4433
▁divertido	-4434
▁escaravel	-4435
▁esperamos	-4436
▁estranhos	-4437
▁programar	-4438
▁religioes	-4439
▁tentativa	-4440
▁alteracoes	-4441
▁climaticas	-4442
▁complicado	-4443
▁destruicao	-4444
▁fascinante	-4445
▁secundario	-4446
▁conferencia	-4447
▁rendimentos	-4448
▁ultrapassar	-4449
▁consumidores	-4450
▁dificuldades	-4451
▁fundamentais	-4452
ny	-4453
pr	-4454
seg	-4455
umb	-4456
una	-4457
▁ed	-4458
ford	-4459
pada	-4460
prim	-4461
ucao	-4462
util	-4463
viam	-4464
▁alu	-4465
▁gui	-4466
▁ope	-4467
assem	-4468
pirar	-4469
ticar	-4470
▁amaz	-4471
▁ciro	-4472
▁core	-4473
▁exec	-4474
▁mail	-4475
▁mass	-4476
▁pega	-4477
▁plas	-4478
▁raiz	-4479
▁refu	-4480
▁webs	-4481
▁aviao	-4482
▁bloco	-4483
▁empur	-4484
▁feira	-4485
▁focar	-4486
▁minus	-4487
▁obras	-4488
▁assegu	-4489
▁autori	-4490
▁cortar	-4491
▁faziam	-4492
▁inicia	-4493
▁simbol	-4494
▁volume	-4495
▁circulo	-4496
▁ouvidos	-4497
▁pintura	-4498
▁seguros	-4499
▁sozinho	-4500
▁sugerir	-4501
▁veiculo	-4502
▁aparelho	-4503
▁apercebi	-4504
▁culturas	-4505
▁detalhes	-4506
▁fizermos	-4507
▁genetica	-4508
▁interlig	-4509
▁oferecer	-4510
▁preparar	-4511
▁transfer	-4512
▁vergonha	-4513
▁correspon	-4514
▁militares	-4515
▁fronteiras	-4516
▁plataforma	-4517
▁pudessemos	-4518
▁diretamente	-4519
▁mortalidade	-4520
▁perspectiva	-4521
▁distribuicao	-4522
▁caracteristicas	-4523
ff	-4524
ty	-4525
ud	-4526
and	-4527
ear	-4528
jei	-4529
ola	-4530
ork	-4531
▁dr	-4532
▁fr	-4533
▁ka	-4534
tude	-4535
▁bos	-4536
▁hai	-4537
▁hel	-4538
▁iam	-4539
▁pux	-4540
▁sac	-4541
cando	-4542
dinho	-4543
rensa	-4544
teira	-4545
vados	-4546
▁advo	-4547
▁aven	-4548
▁eixo	-4549
▁ensa	-4550
▁nela	-4551
▁ofic	-4552
▁rein	-4553
ensoes	-4554
▁andam	-4555
▁curva	-4556
▁deslo	-4557
▁evolu	-4558
▁negra	-4559
▁preen	-4560
▁rabis	-4561
▁ajudam	-4562
▁aniver	-4563
▁campos	-4564
▁colega	-4565
▁cresci	-4566
▁fabric	-4567
▁fontes	-4568
▁mexico	-4569
▁quadro	-4570
▁satisf	-4571
▁sonhos	-4572
▁tornei	-4573
▁confiar	-4574
▁explica	-4575
▁prototi	-4576
▁conforme	-4577
▁explosao	-4578
▁geracoes	-4579
▁imprensa	-4580
▁realizar	-4581
▁saudavel	-4582
▁surpresa	-4583
▁dimensoes	-4584
▁economias	-4585
▁possiveis	-4586
▁quisermos	-4587
▁trabalhei	-4588
▁universal	-4589
▁construido	-4590
▁interesses	-4591
▁acreditamos	-4592
▁aniversario	-4593
▁propriedade	-4594
▁electricidade	-4595
▁envelhecimento	-4596
ka	-4597
oa	-4598
cel	-4599
ega	-4600
ill	-4601
ley	-4602
mon	-4603
pol	-4604
zas	-4605
▁sh	-4606
diam	-4607
icio	-4608
idio	-4609
pado	-4610
sado	-4611
tane	-4612
teli	-4613
tria	-4614
▁emb	-4615
▁eti	-4616
▁psi	-4617
▁tij	-4618
▁you	-4619
inham	-4620
issem	-4621
macao	-4622
▁adop	-4623
▁bela	-4624
▁bens	-4625
▁fila	-4626
▁inim	-4627
▁nele	-4628
▁rece	-4629
▁susp	-4630
▁tran	-4631
▁vais	-4632
▁wash	-4633
izamos	-4634
visoes	-4635
▁deram	-4636
▁despe	-4637
▁euros	-4638
▁incer	-4639
▁jogar	-4640
▁podes	-4641
▁radic	-4642
▁roupa	-4643
▁saida	-4644
▁subir	-4645
▁urban	-4646
▁vence	-4647
▁abunda	-4648
▁agress	-4649
▁baixos	-4650
▁biolog	-4651
▁consul	-4652
▁cuidar	-4653
▁deslig	-4654
▁enferm	-4655
▁escura	-4656
▁estima	-4657
▁gastar	-4658
▁histor	-4659
▁janela	-4660
▁maximo	-4661
▁motiva	-4662
▁motivo	-4663
▁oposto	-4664
▁renova	-4665
▁sateli	-4666
▁sombra	-4667
▁bairros	-4668
▁cozinha	-4669
▁desenho	-4670
▁escrevi	-4671
▁lembram	-4672
▁objetos	-4673
▁prestes	-4674
▁revista	-4675
▁completa	-4676
▁contacto	-4677
▁deveriam	-4678
▁emissoes	-4679
▁financia	-4680
▁infantil	-4681
▁perigoso	-4682
▁radiacao	-4683
▁vizinhos	-4684
▁domestica	-4685
▁igualdade	-4686
▁marketing	-4687
▁trabalham	-4688
▁atravessar	-4689
▁excremento	-4690
▁existencia	-4691
▁comentarios	-4692
▁resistencia	-4693
▁ligeiramente	-4694
bes	-4695
com	-4696
dge	-4697
ney	-4698
pul	-4699
▁om	-4700
cara	-4701
dado	-4702
gues	-4703
heco	-4704
land	-4705
▁and	-4706
▁bit	-4707
▁don	-4708
▁han	-4709
▁lag	-4710
▁uau	-4711
genio	-4712
porto	-4713
ravam	-4714
sados	-4715
vador	-4716
▁arqu	-4717
▁cafe	-4718
▁farm	-4719
▁fico	-4720
▁geor	-4721
▁lida	-4722
▁maca	-4723
▁maes	-4724
▁peco	-4725
▁site	-4726
▁sono	-4727
▁usou	-4728
culman	-4729
reiras	-4730
▁acoes	-4731
▁conex	-4732
▁engra	-4733
▁faria	-4734
▁ganha	-4735
▁impul	-4736
▁nutri	-4737
▁nuvem	-4738
▁regis	-4739
▁relev	-4740
▁surge	-4741
camento	-4742
▁artigo	-4743
▁bracos	-4744
▁circui	-4745
▁diante	-4746
▁diziam	-4747
▁falhar	-4748
▁jardim	-4749
▁mentes	-4750
▁mortos	-4751
▁passos	-4752
▁preten	-4753
▁prever	-4754
▁queres	-4755
▁trouxe	-4756
▁verdes	-4757
▁vieram	-4758
▁angeles	-4759
▁ataques	-4760
▁cenario	-4761
▁dialogo	-4762
▁empatia	-4763
▁estacao	-4764
▁existia	-4765
▁intelec	-4766
▁oceanos	-4767
▁olhando	-4768
▁perante	-4769
▁rapazes	-4770
▁recebem	-4771
▁respira	-4772
▁tarefas	-4773
▁vejamos	-4774
▁volunta	-4775
▁acidente	-4776
▁alemanha	-4777
▁expandir	-4778
▁infancia	-4779
▁mecanica	-4780
▁muculman	-4781
▁praticas	-4782
▁recolher	-4783
▁cientific	-4784
▁conclusao	-4785
▁processos	-4786
▁progresso	-4787
▁equilibrio	-4788
▁familiares	-4789
▁compromisso	-4790
▁engenheiros	-4791
▁equivalente	-4792
▁transformacao	-4793
▁aproximadamente	-4794
▁ep	-4795
▁ana	-4796
▁cil	-4797
▁cro	-4798
▁ema	-4799
▁hal	-4800
▁mit	-4801
ander	-4802
ifico	-4803
tebol	-4804
tismo	-4805
▁anon	-4806
▁cump	-4807
▁esma	-4808
▁excl	-4809
▁obes	-4810
▁opos	-4811
▁reag	-4812
▁resi	-4813
▁soub	-4814
▁viva	-4815
▁acele	-4816
▁aluno	-4817
▁amiga	-4818
▁arris	-4819
▁assis	-4820
▁conso	-4821
▁curto	-4822
▁devas	-4823
▁drama	-4824
▁escul	-4825
▁haiti	-4826
▁imper	-4827
▁invas	-4828
▁magni	-4829
▁marco	-4830
▁minis	-4831
▁morto	-4832
▁optim	-4833
▁possu	-4834
▁refor	-4835
▁selva	-4836
▁tiver	-4837
▁troca	-4838
▁uteis	-4839
▁vende	-4840
▁vivia	-4841
itarios	-4842
tidades	-4843
▁causar	-4844
▁classe	-4845
▁crispr	-4846
▁ilusao	-4847
▁imenso	-4848
▁instal	-4849
▁nessas	-4850
▁nesses	-4851
▁paquis	-4852
▁perfei	-4853
▁pintar	-4854
▁preven	-4855
▁propag	-4856
▁quiser	-4857
▁traduz	-4858
▁abandon	-4859
▁amostra	-4860
▁critica	-4861
▁estiver	-4862
▁estrang	-4863
▁inevita	-4864
▁moderno	-4865
▁ouviram	-4866
▁perdido	-4867
▁assistir	-4868
▁bacteria	-4869
▁bretanha	-4870
▁ciencias	-4871
▁corrente	-4872
▁desculpa	-4873
▁espalhar	-4874
▁fundacao	-4875
▁gigantes	-4876
▁morreram	-4877
▁parecido	-4878
▁climatica	-4879
▁colocamos	-4880
▁costumava	-4881
▁economica	-4882
▁eficiente	-4883
▁estudante	-4884
▁interagir	-4885
▁narrativa	-4886
▁pensarmos	-4887
▁saudaveis	-4888
▁transicao	-4889
▁companhias	-4890
▁desempenho	-4891
▁escritorio	-4892
▁explicacao	-4893
▁tivessemos	-4894
▁capacidades	-4895
▁civilizacao	-4896
▁diversidade	-4897
▁naturalmente	-4898
▁especialistas	-4899
▁perfeitamente	-4900
▁sobrevivencia	-4901
far	-4902
lon	-4903
pso	-4904
▁je	-4905
ador	-4906
guer	-4907
gura	-4908
mete	-4909
tata	-4910
tube	-4911
voso	-4912
▁lac	-4913
▁mig	-4914
▁vib	-4915
icion	-4916
phone	-4917
raria	-4918
▁colh	-4919
▁cruz	-4920
▁haja	-4921
▁iron	-4922
▁roda	-4923
▁sara	-4924
giados	-4925
▁absor	-4926
▁basta	-4927
▁bitco	-4928
▁email	-4929
▁estup	-4930
▁impro	-4931
▁injus	-4932
▁jogos	-4933
▁pedra	-4934
▁votar	-4935
▁almoco	-4936
▁apoiar	-4937
▁atomos	-4938
▁concre	-4939
▁corrig	-4940
▁distur	-4941
▁fundos	-4942
▁habitu	-4943
▁membro	-4944
▁monito	-4945
▁oferec	-4946
▁presos	-4947
▁recebi	-4948
▁sofrer	-4949
▁valios	-4950
itamente	-4951
▁adultos	-4952
▁antigos	-4953
▁baseada	-4954
▁emocion	-4955
▁frustra	-4956
▁mencion	-4957
▁reparar	-4958
▁ultimas	-4959
▁youtube	-4960
▁constitu	-4961
▁deixamos	-4962
▁misterio	-4963
▁ocidente	-4964
▁paisagem	-4965
▁percebem	-4966
▁permitiu	-4967
▁potencia	-4968
▁quimicos	-4969
▁veiculos	-4970
▁bocadinho	-4971
▁decidiram	-4972
▁determina	-4973
▁objectivo	-4974
▁recompensa	-4975
▁sofrimento	-4976
▁transmitir	-4977
▁alternativa	-4978
▁comprimento	-4979
▁desaparecer	-4980
▁descobertas	-4981
▁principalmente	-4982
tz	-4983
fal	-4984
ril	-4985
cida	-4986
cipl	-4987
izam	-4988
tiza	-4989
vios	-4990
▁air	-4991
▁jos	-4992
▁tab	-4993
▁urg	-4994
dendo	-4995
essao	-4996
lacao	-4997
metro	-4998
minar	-4999
▁agul	-5000
▁atin	-5001
▁cinz	-5002
▁fato	-5003
▁igre	-5004
▁inac	-5005
▁raio	-5006
enciar	-5007
riores	-5008
▁acolh	-5009
▁adqui	-5010
▁ander	-5011
▁angar	-5012
▁artes	-5013
▁conto	-5014
▁divul	-5015
▁dolor	-5016
▁estil	-5017
▁expon	-5018
▁grave	-5019
▁hotel	-5020
▁integ	-5021
▁leito	-5022
▁mobil	-5023
▁polar	-5024
▁primo	-5025
▁vazio	-5026
ramento	-5027
▁amanha	-5028
▁atacar	-5029
▁bonito	-5030
▁conceb	-5031
▁cortex	-5032
▁engano	-5033
▁esposa	-5034
▁iguais	-5035
▁nasceu	-5036
▁provas	-5037
▁reacao	-5038
▁tribun	-5039
▁usadas	-5040
▁usados	-5041
▁alcance	-5042
▁aplicar	-5043
▁calculo	-5044
▁destino	-5045
▁inventa	-5046
▁janelas	-5047
▁madeira	-5048
▁nervoso	-5049
▁pegamos	-5050
▁poderem	-5051
▁prosper	-5052
▁segredo	-5053
▁seguida	-5054
▁acelerar	-5055
▁bibliote	-5056
▁competen	-5057
▁paciente	-5058
▁passaros	-5059
▁perdemos	-5060
▁perfeita	-5061
▁pessoais	-5062
▁sozinhos	-5063
▁vantagem	-5064
▁atividade	-5065
▁discussao	-5066
▁variedade	-5067
▁economicos	-5068
▁estrategia	-5069
▁proporcion	-5070
▁washington	-5071
▁curiosidade	-5072
▁enfrentamos	-5073
▁identificar	-5074
▁maravilhosa	-5075
▁trabalhamos	-5076
▁instrumentos	-5077
▁utilizadores	-5078
cec	-5079
don	-5080
sia	-5081
xes	-5082
gico	-5083
ters	-5084
▁clu	-5085
▁dum	-5086
▁her	-5087
▁nal	-5088
▁org	-5089
▁quo	-5090
▁ram	-5091
▁tit	-5092
▁vag	-5093
carre	-5094
dados	-5095
iados	-5096
inada	-5097
mante	-5098
reira	-5099
teres	-5100
▁aero	-5101
▁ajus	-5102
▁bigo	-5103
▁cena	-5104
▁loja	-5105
▁maus	-5106
▁namo	-5107
▁pilo	-5108
encial	-5109
▁auten	-5110
▁bater	-5111
▁beber	-5112
▁copia	-5113
▁criam	-5114
▁detec	-5115
▁diplo	-5116
▁extin	-5117
▁gerir	-5118
▁hidro	-5119
▁manus	-5120
▁memor	-5121
▁nasci	-5122
▁obcec	-5123
▁piada	-5124
▁pouca	-5125
▁proce	-5126
▁queda	-5127
▁ricos	-5128
▁simpa	-5129
▁sinte	-5130
▁virar	-5131
▁actual	-5132
▁anatom	-5133
▁assass	-5134
▁chamou	-5135
▁gritar	-5136
▁incomo	-5137
▁instan	-5138
▁mandar	-5139
▁noites	-5140
▁parado	-5141
▁planos	-5142
▁privil	-5143
▁restau	-5144
▁aspetos	-5145
▁cartoes	-5146
▁circuns	-5147
▁confron	-5148
▁coragem	-5149
▁deserto	-5150
▁estaria	-5151
▁falando	-5152
▁francis	-5153
▁funcoes	-5154
▁guerras	-5155
▁levante	-5156
▁notavel	-5157
▁privado	-5158
▁psiquia	-5159
▁viagens	-5160
▁aconteca	-5161
▁aspectos	-5162
▁daqueles	-5163
▁estranha	-5164
▁objectos	-5165
▁quadrado	-5166
▁sustenta	-5167
▁tivermos	-5168
▁variacao	-5169
taneamente	-5170
▁aparelhos	-5171
▁avaliacao	-5172
▁designers	-5173
▁fronteira	-5174
▁intestino	-5175
▁regressar	-5176
▁seguintes	-5177
▁acontecido	-5178
▁eficiencia	-5179
▁microscopio	-5180
▁propriedades	-5181
▁aparentemente	-5182
ki	-5183
cho	-5184
lho	-5185
▁bg	-5186
▁sp	-5187
aste	-5188
hard	-5189
igma	-5190
▁duz	-5191
▁ham	-5192
▁ric	-5193
▁sta	-5194
nomos	-5195
tavam	-5196
teran	-5197
vendo	-5198
▁acen	-5199
▁acer	-5200
▁avis	-5201
▁falo	-5202
▁ileg	-5203
▁inci	-5204
▁leve	-5205
▁onda	-5206
▁soli	-5207
▁vira	-5208
▁voto	-5209
aldade	-5210
inosos	-5211
▁chefe	-5212
▁cilin	-5213
▁egito	-5214
▁gerar	-5215
▁ideal	-5216
▁levam	-5217
▁terco	-5218
▁tuber	-5219
▁uniao	-5220
rizacao	-5221
▁abrigo	-5222
▁ajudou	-5223
▁barata	-5224
▁cavalo	-5225
▁chorar	-5226
▁contam	-5227
▁cordas	-5228
▁crenca	-5229
▁curric	-5230
▁dispar	-5231
▁imensa	-5232
▁irmaos	-5233
▁jantar	-5234
▁mentir	-5235
▁rastre	-5236
▁centros	-5237
▁conheco	-5238
▁decidiu	-5239
▁distrib	-5240
▁dizendo	-5241
▁elevado	-5242
▁fatores	-5243
▁globais	-5244
▁metodos	-5245
▁mostrei	-5246
▁passada	-5247
▁patente	-5248
▁sapatos	-5249
▁suposto	-5250
▁veteran	-5251
▁chegaram	-5252
▁comercio	-5253
▁completo	-5254
▁complexa	-5255
▁fracasso	-5256
▁inferior	-5257
▁inventar	-5258
▁levantar	-5259
▁percenta	-5260
▁tradicao	-5261
▁vermelha	-5262
▁conectoma	-5263
▁exposicao	-5264
▁mecanismo	-5265
▁palestras	-5266
▁criminosos	-5267
▁especifico	-5268
▁lentamente	-5269
▁refugiados	-5270
▁aquecimento	-5271
▁componentes	-5272
▁continuamos	-5273
▁ecossistema	-5274
▁necessarios	-5275
▁pensamentos	-5276
▁combustiveis	-5277
▁interessados	-5278
▁relacionadas	-5279
▁desenvolvemos	-5280
▁circunstancias	-5281
gh	-5282
if	-5283
eco	-5284
ner	-5285
zhe	-5286
▁ec	-5287
▁wk	-5288
cros	-5289
dela	-5290
ecia	-5291
imer	-5292
irem	-5293
ixar	-5294
vard	-5295
▁cai	-5296
▁efe	-5297
▁gem	-5298
▁ken	-5299
▁poe	-5300
▁tho	-5301
uidas	-5302
▁aves	-5303
▁data	-5304
▁efec	-5305
▁esgo	-5306
▁glac	-5307
▁irri	-5308
▁leon	-5309
▁mala	-5310
▁mami	-5311
▁manu	-5312
▁polu	-5313
▁repl	-5314
▁rode	-5315
nidade	-5316
▁altru	-5317
▁alzhe	-5318
▁arque	-5319
▁artis	-5320
▁barco	-5321
▁botao	-5322
▁criei	-5323
▁crime	-5324
▁danos	-5325
▁dolar	-5326
▁droga	-5327
▁escal	-5328
▁frank	-5329
▁psico	-5330
▁serve	-5331
▁teles	-5332
▁tinta	-5333
▁vivos	-5334
▁agrada	-5335
▁caixas	-5336
▁circul	-5337
▁conser	-5338
▁corrup	-5339
▁deseja	-5340
▁dormir	-5341
▁entrou	-5342
▁evento	-5343
▁extens	-5344
▁falsos	-5345
▁ficcao	-5346
▁formam	-5347
▁herois	-5348
▁ligado	-5349
▁menina	-5350
▁peixes	-5351
▁tensao	-5352
▁vacina	-5353
esperada	-5354
▁abertos	-5355
▁brancos	-5356
▁camadas	-5357
▁cancoes	-5358
▁configu	-5359
▁declara	-5360
▁fosseis	-5361
▁ligados	-5362
▁mamifer	-5363
▁mentais	-5364
▁partido	-5365
▁prision	-5366
▁terramo	-5367
▁visivel	-5368
▁condutor	-5369
▁esconder	-5370
▁fazermos	-5371
▁fornecer	-5372
▁horrivel	-5373
▁memorias	-5374
▁pergunto	-5375
▁proteina	-5376
▁africanos	-5377
▁alzheimer	-5378
▁ambientes	-5379
▁aproximar	-5380
▁automovel	-5381
▁bicicleta	-5382
▁convencer	-5383
▁desconfor	-5384
▁esqueleto	-5385
▁funcionou	-5386
▁gravidade	-5387
▁hipoteses	-5388
▁poderosos	-5389
▁igualmente	-5390
▁inspiracao	-5391
▁literatura	-5392
▁tuberculos	-5393
▁actualmente	-5394
▁medicamento	-5395
▁desenvolvido	-5396
▁experimentar	-5397
▁precisavamos	-5398
▁especificamente	-5399
ky	-5400
ld	-5401
zz	-5402
bor	-5403
isa	-5404
nom	-5405
▁mi	-5406
▁th	-5407
conc	-5408
izou	-5409
mart	-5410
▁fio	-5411
▁hem	-5412
adora	-5413
bbage	-5414
dicar	-5415
vadas	-5416
▁acto	-5417
▁acum	-5418
▁adiv	-5419
▁gato	-5420
▁modi	-5421
▁mono	-5422
▁sida	-5423
▁sina	-5424
▁sopa	-5425
▁tais	-5426
▁tiro	-5427
▁zumb	-5428
gueira	-5429
tacoes	-5430
▁altas	-5431
▁barbe	-5432
▁condu	-5433
▁encan	-5434
▁fogue	-5435
▁fragm	-5436
▁lindo	-5437
▁moeda	-5438
▁mudam	-5439
▁olham	-5440
▁ossos	-5441
▁penis	-5442
▁porem	-5443
▁saudi	-5444
▁verem	-5445
ariamos	-5446
gamento	-5447
▁cantar	-5448
▁conden	-5449
▁espiri	-5450
▁esteve	-5451
▁fibras	-5452
▁ficava	-5453
▁licoes	-5454
▁livres	-5455
▁logica	-5456
▁mortas	-5457
▁protes	-5458
▁quinta	-5459
▁sentar	-5460
▁surgiu	-5461
▁treina	-5462
▁abordar	-5463
▁acabado	-5464
▁antigas	-5465
▁babbage	-5466
▁chamava	-5467
▁critico	-5468
▁dispara	-5469
▁interac	-5470
▁interna	-5471
▁janeiro	-5472
▁mostrou	-5473
▁neander	-5474
▁noutros	-5475
▁repetir	-5476
▁reserva	-5477
▁richard	-5478
▁sentado	-5479
▁website	-5480
▁zumbido	-5481
▁africano	-5482
▁anderson	-5483
▁caminhar	-5484
▁codifica	-5485
▁europeia	-5486
▁introduz	-5487
▁mundiais	-5488
▁acreditem	-5489
▁estiveram	-5490
▁francisco	-5491
▁funcional	-5492
▁molecular	-5493
▁resolucao	-5494
▁assustador	-5495
▁comparacao	-5496
▁concentrar	-5497
▁construida	-5498
▁jornalista	-5499
▁utilizacao	-5500
▁diagnostico	-5501
▁encontraram	-5502
▁representam	-5503
▁representar	-5504
▁tratamentos	-5505
▁tuberculose	-5506
▁personalidade	-5507
▁transparencia	-5508
▁reconhecimento	-5509
ks	-5510
ws	-5511
bri	-5512
ile	-5513
win	-5514
ardo	-5515
erao	-5516
pria	-5517
tano	-5518
unas	-5519
▁dio	-5520
▁fru	-5521
▁nig	-5522
▁ore	-5523
gadas	-5524
gante	-5525
hadas	-5526
terra	-5527
tiram	-5528
▁abre	-5529
▁bill	-5530
▁boni	-5531
▁caos	-5532
▁crip	-5533
▁feed	-5534
▁fios	-5535
▁guia	-5536
▁idio	-5537
▁malu	-5538
▁rica	-5539
▁rosa	-5540
▁soma	-5541
tencao	-5542
▁altos	-5543
▁atitu	-5544
▁color	-5545
▁decor	-5546
▁demos	-5547
▁esten	-5548
▁fluxo	-5549
▁incom	-5550
▁islam	-5551
▁james	-5552
▁mexer	-5553
▁morce	-5554
▁obsta	-5555
▁perce	-5556
▁perdi	-5557
▁proib	-5558
▁raiva	-5559
▁simul	-5560
▁socio	-5561
▁tunel	-5562
▁vivas	-5563
▁acabam	-5564
▁basica	-5565
▁bombas	-5566
▁capita	-5567
▁chegam	-5568
▁cheiro	-5569
▁cinema	-5570
▁exceto	-5571
▁gostar	-5572
▁inclus	-5573
▁inveja	-5574
▁letras	-5575
▁perdeu	-5576
▁perseg	-5577
▁precos	-5578
▁proces	-5579
▁proteg	-5580
▁tendem	-5581
▁vitima	-5582
▁voltou	-5583
▁divisao	-5584
▁escutar	-5585
▁esquizo	-5586
▁estarem	-5587
▁extrair	-5588
▁gigante	-5589
▁harvard	-5590
▁medidas	-5591
▁motores	-5592
▁passava	-5593
▁preconc	-5594
▁retorno	-5595
▁treinar	-5596
▁visuais	-5597
▁acabaram	-5598
▁calculos	-5599
▁cerebral	-5600
▁chamadas	-5601
▁criativo	-5602
▁destruir	-5603
▁discutir	-5604
▁garantir	-5605
▁interfac	-5606
▁orgulhos	-5607
▁percecao	-5608
▁pudermos	-5609
▁sintomas	-5610
▁unidades	-5611
▁acessivel	-5612
▁algoritmo	-5613
▁alteracao	-5614
▁barreiras	-5615
▁complexas	-5616
▁paquistao	-5617
▁presentes	-5618
▁raramente	-5619
▁situacoes	-5620
▁sofistica	-5621
▁terramoto	-5622
▁aproveitar	-5623
▁entrevista	-5624
▁industrias	-5625
▁observamos	-5626
▁tendencias	-5627
▁dificuldade	-5628
▁percentagem	-5629
▁transportes	-5630
▁arquitectura	-5631
▁pessoalmente	-5632
▁probabilidade	-5633
▁necessariamente	-5634
agre	-5635
anca	-5636
bert	-5637
dulo	-5638
ntem	-5639
plan	-5640
tecn	-5641
▁ace	-5642
▁ala	-5643
▁ego	-5644
▁orb	-5645
▁sup	-5646
▁tea	-5647
doria	-5648
logos	-5649
messa	-5650
olina	-5651
ramas	-5652
ridos	-5653
turar	-5654
▁belo	-5655
▁evan	-5656
▁gana	-5657
▁irem	-5658
▁irre	-5659
▁polo	-5660
▁saiu	-5661
▁stan	-5662
▁york	-5663
essora	-5664
feicao	-5665
rentes	-5666
tadora	-5667
▁bolas	-5668
▁casar	-5669
▁colon	-5670
▁combo	-5671
▁conqu	-5672
▁couro	-5673
▁defen	-5674
▁duplo	-5675
▁empen	-5676
▁execu	-5677
▁fugir	-5678
▁ganho	-5679
▁gradu	-5680
▁honra	-5681
▁imita	-5682
▁legal	-5683
▁leite	-5684
▁letra	-5685
▁limpa	-5686
▁linda	-5687
▁nobel	-5688
▁olhou	-5689
▁regra	-5690
▁regul	-5691
▁resum	-5692
▁sofre	-5693
▁toque	-5694
eamento	-5695
▁brinca	-5696
▁buscar	-5697
▁confir	-5698
▁corais	-5699
▁cursos	-5700
▁dancar	-5701
▁deixei	-5702
▁ecolog	-5703
▁fariam	-5704
▁george	-5705
▁instin	-5706
▁lancar	-5707
▁latina	-5708
▁parcer	-5709
▁planta	-5710
▁agarrar	-5711
▁anuncio	-5712
▁colapso	-5713
▁colocam	-5714
▁comedia	-5715
▁comprim	-5716
▁corrida	-5717
▁escolar	-5718
▁evoluir	-5719
▁glaciar	-5720
▁ilustra	-5721
▁meninas	-5722
▁radical	-5723
▁seculos	-5724
ficientes	-5725
▁carregar	-5726
▁concluir	-5727
▁continuo	-5728
▁desastre	-5729
▁dimensao	-5730
▁diminuir	-5731
▁esperava	-5732
▁houvesse	-5733
▁microfon	-5734
▁pensaram	-5735
▁promessa	-5736
▁prostata	-5737
▁tornamos	-5738
▁violenta	-5739
▁afirmacao	-5740
▁aleatoria	-5741
▁especiais	-5742
▁lideranca	-5743
▁percorrer	-5744
▁relevante	-5745
▁biblioteca	-5746
▁brilhantes	-5747
▁imigrantes	-5748
▁instrucoes	-5749
▁investigar	-5750
▁movimentos	-5751
▁percebemos	-5752
▁professora	-5753
▁estatistica	-5754
▁partilhamos	-5755
▁personagens	-5756
▁verdadeiros	-5757
▁especialista	-5758
▁participacao	-5759
▁precisamente	-5760
▁prosperidade	-5761
▁investigadores	-5762
id	-5763
ua	-5764
bas	-5765
bus	-5766
din	-5767
eos	-5768
gma	-5769
mem	-5770
sex	-5771
wan	-5772
erso	-5773
teia	-5774
triz	-5775
▁amo	-5776
▁cla	-5777
▁fes	-5778
▁gel	-5779
▁ina	-5780
▁jon	-5781
▁jui	-5782
▁kan	-5783
▁tio	-5784
▁zan	-5785
cante	-5786
iadas	-5787
itimo	-5788
turno	-5789
▁caca	-5790
▁chim	-5791
▁coco	-5792
▁dada	-5793
▁deva	-5794
▁esto	-5795
▁long	-5796
▁mete	-5797
▁paga	-5798
▁pesa	-5799
▁pude	-5800
▁raca	-5801
▁rico	-5802
▁saib	-5803
▁viaj	-5804
adores	-5805
ilares	-5806
▁ciume	-5807
▁degra	-5808
▁demor	-5809
▁devol	-5810
▁douto	-5811
▁envio	-5812
▁ingla	-5813
▁junto	-5814
▁leste	-5815
▁mapas	-5816
▁porco	-5817
▁racio	-5818
▁razoa	-5819
▁recru	-5820
▁recus	-5821
▁resil	-5822
▁ridic	-5823
▁senao	-5824
camente	-5825
radores	-5826
▁aborre	-5827
▁bigode	-5828
▁bonita	-5829
▁calhar	-5830
▁cartao	-5831
▁crista	-5832
▁desigu	-5833
▁folhas	-5834
▁formos	-5835
▁gratis	-5836
▁insegu	-5837
▁lembra	-5838
▁longas	-5839
▁marcas	-5840
▁metafo	-5841
▁minimo	-5842
▁noutro	-5843
▁oxigen	-5844
▁pensou	-5845
▁seccao	-5846
▁unicos	-5847
istentes	-5848
▁aranhas	-5849
▁compras	-5850
▁constro	-5851
▁correto	-5852
▁criando	-5853
▁elevada	-5854
▁entrada	-5855
▁especta	-5856
▁haveria	-5857
▁leitura	-5858
▁paralis	-5859
▁plantar	-5860
▁prontos	-5861
▁sozinha	-5862
▁terapia	-5863
tificacao	-5864
▁barreira	-5865
▁condicao	-5866
▁contribu	-5867
▁esquecer	-5868
▁estacion	-5869
▁existiam	-5870
▁fabricas	-5871
▁governam	-5872
▁neuronio	-5873
▁passagem	-5874
▁percurso	-5875
▁positiva	-5876
▁positivo	-5877
▁quantica	-5878
▁regresso	-5879
▁sentados	-5880
▁tribunal	-5881
▁ambiental	-5882
▁britanico	-5883
▁cirurgiao	-5884
▁controver	-5885
▁criaturas	-5886
▁dignidade	-5887
▁ecologica	-5888
▁incerteza	-5889
▁injustica	-5890
▁recebemos	-5891
▁consciente	-5892
▁inglaterra	-5893
▁muculmanos	-5894
▁organismos	-5895
▁questionar	-5896
▁saneamento	-5897
▁conseguiram	-5898
▁espetacular	-5899
▁implicacoes	-5900
▁publicidade	-5901
▁terroristas	-5902
▁consequencia	-5903
▁departamento	-5904
▁funcionarios	-5905
▁investidores	-5906
▁laboratorios	-5907
▁responsaveis	-5908
▁infraestrutura	-5909
ys	-5910
bro	-5911
dis	-5912
ena	-5913
ges	-5914
hem	-5915
ies	-5916
bine	-5917
bolo	-5918
cher	-5919
fren	-5920
iano	-5921
tang	-5922
▁alb	-5923
▁ico	-5924
▁imo	-5925
▁isa	-5926
▁sha	-5927
▁vic	-5928
▁vih	-5929
▁xix	-5930
▁xxi	-5931
cento	-5932
cioso	-5933
duras	-5934
estim	-5935
guine	-5936
picos	-5937
ricao	-5938
rific	-5939
tinho	-5940
tizar	-5941
urais	-5942
▁aler	-5943
▁alex	-5944
▁caiu	-5945
▁davi	-5946
▁inse	-5947
▁insu	-5948
▁jude	-5949
▁move	-5950
▁reac	-5951
▁seca	-5952
▁tatu	-5953
cencia	-5954
iforme	-5955
tastro	-5956
tuacao	-5957
▁achei	-5958
▁culpa	-5959
▁digam	-5960
▁embar	-5961
▁falei	-5962
▁femea	-5963
▁festa	-5964
▁fibra	-5965
▁hormo	-5966
▁intim	-5967
▁juven	-5968
▁larga	-5969
▁louca	-5970
▁micha	-5971
▁motiv	-5972
▁pilha	-5973
▁pista	-5974
▁povos	-5975
▁preju	-5976
▁servi	-5977
▁sites	-5978
▁supos	-5979
▁troux	-5980
assemos	-5981
▁agulha	-5982
▁cometa	-5983
▁cresce	-5984
▁criada	-5985
▁demora	-5986
▁diminu	-5987
▁fornec	-5988
▁gabine	-5989
▁ganhou	-5990
▁igreja	-5991
▁ligada	-5992
▁mascul	-5993
▁montes	-5994
▁morrem	-5995
▁painel	-5996
▁pistas	-5997
▁portas	-5998
▁primor	-5999
▁reflec	-6000
▁sensor	-6001
▁sugere	-6002
▁surgir	-6003
▁thomas	-6004
▁truque	-6005
▁unidas	-6006
▁acontec	-6007
▁antepas	-6008
▁aprende	-6009
▁artigos	-6010
▁avaliar	-6011
▁cabecas	-6012
▁chimpan	-6013
▁colocou	-6014
▁colonia	-6015
▁constit	-6016
▁cresceu	-6017
▁crucial	-6018
▁discipl	-6019
▁envolve	-6020
▁imagina	-6021
▁interro	-6022
▁neuroci	-6023
▁ocasion	-6024
▁orienta	-6025
▁pareceu	-6026
▁pedimos	-6027
▁percebe	-6028
▁recurso	-6029
▁regular	-6030
▁remover	-6031
▁simbolo	-6032
▁veremos	-6033
▁vitoria	-6034
▁abertura	-6035
▁amazonia	-6036
▁aparecem	-6037
▁apropria	-6038
▁catastro	-6039
▁cilindro	-6040
▁corrigir	-6041
▁danifica	-6042
▁daquelas	-6043
▁dinamica	-6044
▁eficazes	-6045
▁elefante	-6046
▁eliminar	-6047
▁esforcos	-6048
▁gasolina	-6049
▁mentiras	-6050
▁modernos	-6051
▁porcento	-6052
▁recentes	-6053
▁robotica	-6054
▁sanguine	-6055
▁conhecida	-6056
▁mamiferos	-6057
▁nucleares	-6058
▁parceiros	-6059
▁projectos	-6060
▁prototipo	-6061
▁respondeu	-6062
▁sabedoria	-6063
▁universos	-6064
▁algoritmos	-6065
▁combinacao	-6066
▁competicao	-6067
▁computacao	-6068
▁disturbios	-6069
▁financeira	-6070
▁matematico	-6071
▁populacoes	-6072
▁procuramos	-6073
▁conseguirem	-6074
▁considerado	-6075
▁deficiencia	-6076
▁esquizofren	-6077
▁estabelecer	-6078
▁fantasticas	-6079
▁fisicamente	-6080
▁gostariamos	-6081
▁instalacoes	-6082
▁necessarias	-6083
▁recuperacao	-6084
▁produtividade	-6085
▁representacao	-6086
yn	-6087
col	-6088
its	-6089
lou	-6090
net	-6091
vie	-6092
▁cm	-6093
▁pm	-6094
alia	-6095
cura	-6096
igas	-6097
lado	-6098
osas	-6099
quim	-6100
tian	-6101
tive	-6102
ttan	-6103
▁jeo	-6104
▁jer	-6105
▁log	-6106
▁voo	-6107
▁wat	-6108
▁wor	-6109
andia	-6110
doras	-6111
inson	-6112
mbros	-6113
organ	-6114
patch	-6115
rinha	-6116
rique	-6117
tasse	-6118
tindo	-6119
▁adia	-6120
▁arch	-6121
▁arco	-6122
▁conv	-6123
▁cron	-6124
▁cujo	-6125
▁dose	-6126
▁emba	-6127
▁prin	-6128
▁stre	-6129
▁uber	-6130
▁virg	-6131
adoras	-6132
sacoes	-6133
▁alien	-6134
▁analo	-6135
▁apple	-6136
▁atlan	-6137
▁banda	-6138
▁bolso	-6139
▁comem	-6140
▁exito	-6141
▁hiper	-6142
▁junho	-6143
▁ligam	-6144
▁limpo	-6145
▁liqui	-6146
▁louco	-6147
▁metal	-6148
▁movim	-6149
▁ontem	-6150
▁perna	-6151
▁poema	-6152
▁sabor	-6153
▁serra	-6154
▁supon	-6155
▁vapor	-6156
itarias	-6157
tativas	-6158
▁abstra	-6159
▁activa	-6160
▁branca	-6161
▁causas	-6162
▁contac	-6163
▁deixam	-6164
▁estatu	-6165
▁exames	-6166
▁inform	-6167
▁iphone	-6168
▁navios	-6169
▁operar	-6170
▁pareca	-6171
▁pedido	-6172
▁refere	-6173
▁reutil	-6174
▁rurais	-6175
▁teatro	-6176
▁tentam	-6177
▁titulo	-6178
nografia	-6179
ualmente	-6180
▁amarelo	-6181
▁camaras	-6182
▁combina	-6183
▁convers	-6184
▁dividir	-6185
▁estarao	-6186
▁extrema	-6187
▁fenomen	-6188
▁futebol	-6189
▁galaxia	-6190
▁imensas	-6191
▁impedir	-6192
▁inovado	-6193
▁musical	-6194
▁ocorreu	-6195
▁pensado	-6196
▁psicolo	-6197
▁reinven	-6198
▁abrandar	-6199
▁acredita	-6200
▁assuntos	-6201
▁calcular	-6202
▁caminhos	-6203
▁contrato	-6204
▁criativa	-6205
▁deixaram	-6206
▁desistir	-6207
▁eficacia	-6208
▁gabinete	-6209
▁inacredi	-6210
▁instante	-6211
▁leonardo	-6212
▁metafora	-6213
▁ministro	-6214
▁naqueles	-6215
▁operacao	-6216
▁oxigenio	-6217
▁pensavam	-6218
▁plastico	-6219
▁preserva	-6220
▁privileg	-6221
▁proximas	-6222
▁sementes	-6223
▁tentando	-6224
▁transfor	-6225
▁estabelec	-6226
▁maravilha	-6227
▁nanopatch	-6228
▁organizar	-6229
▁originais	-6230
▁perguntam	-6231
▁poderosas	-6232
▁separacao	-6233
▁veteranos	-6234
▁componente	-6235
▁conhecidos	-6236
▁continente	-6237
▁envolvidos	-6238
▁observacao	-6239
▁perceberam	-6240
▁trabalhado	-6241
▁trabalhava	-6242
▁capitalismo	-6243
▁diariamente	-6244
▁escaravelho	-6245
▁intelectual	-6246
▁interessado	-6247
▁programacao	-6248
▁significava	-6249
▁suficientes	-6250
▁voluntarios	-6251
▁competencias	-6252
▁estatisticas	-6253
▁profissional	-6254
▁administracao	-6255
▁anteriormente	-6256
▁compreendemos	-6257
fl	-6258
pt	-6259
ard	-6260
bby	-6261
eia	-6262
fin	-6263
gal	-6264
oro	-6265
ste	-6266
▁hu	-6267
▁ke	-6268
▁mc	-6269
arre	-6270
back	-6271
cons	-6272
etas	-6273
idez	-6274
olas	-6275
olos	-6276
vias	-6277
xido	-6278
▁aqu	-6279
▁ete	-6280
▁fug	-6281
▁fum	-6282
▁mad	-6283
▁reb	-6284
▁rir	-6285
▁sir	-6286
▁sto	-6287
letas	-6288
rador	-6289
tente	-6290
tidia	-6291
trica	-6292
uncia	-6293
▁ader	-6294
▁admi	-6295
▁dens	-6296
▁dura	-6297
▁erra	-6298
▁etio	-6299
▁expe	-6300
▁grau	-6301
▁ilha	-6302
▁impo	-6303
▁indi	-6304
▁irei	-6305
▁paul	-6306
▁will	-6307
bridge	-6308
▁audio	-6309
▁babil	-6310
▁cabos	-6311
▁capit	-6312
▁casca	-6313
▁curar	-6314
▁excep	-6315
▁fizer	-6316
▁ilhas	-6317
▁mexic	-6318
▁oeste	-6319
▁olhei	-6320
▁paral	-6321
▁pediu	-6322
▁perde	-6323
▁polin	-6324
▁polio	-6325
▁presa	-6326
▁raios	-6327
▁restr	-6328
▁salto	-6329
▁sexta	-6330
▁times	-6331
▁tirei	-6332
▁trage	-6333
▁velha	-6334
▁vigil	-6335
▁arabes	-6336
▁basico	-6337
▁choque	-6338
▁consig	-6339
▁darwin	-6340
▁defesa	-6341
▁entram	-6342
▁faceis	-6343
▁famoso	-6344
▁fertil	-6345
▁horizo	-6346
▁idosas	-6347
▁ilegal	-6348
▁juntam	-6349
▁levado	-6350
▁menino	-6351
▁pequen	-6352
▁piores	-6353
▁primos	-6354
▁rostos	-6355
▁sofrem	-6356
▁street	-6357
▁tirada	-6358
▁ultras	-6359
▁velhas	-6360
▁agentes	-6361
▁brinque	-6362
▁competi	-6363
▁esperem	-6364
▁eventos	-6365
▁ignorar	-6366
▁ingredi	-6367
▁mentira	-6368
▁michael	-6369
▁orgulho	-6370
▁parques	-6371
▁plateia	-6372
▁recebeu	-6373
▁regista	-6374
▁resulta	-6375
▁revelar	-6376
▁romance	-6377
▁seguras	-6378
▁senhora	-6379
▁sexuais	-6380
▁transmi	-6381
▁agencias	-6382
▁aproxima	-6383
▁aumentou	-6384
▁cardiaco	-6385
▁centimos	-6386
▁centrais	-6387
▁chamaram	-6388
▁comprome	-6389
▁consiste	-6390
▁entendem	-6391
▁flexivel	-6392
▁melhoria	-6393
▁movembro	-6394
▁perturba	-6395
▁pinturas	-6396
▁previsao	-6397
▁processa	-6398
▁proposta	-6399
▁publicas	-6400
▁sentidos	-6401
▁simbolos	-6402
▁surgiram	-6403
▁acontecem	-6404
▁argumento	-6405
▁comportam	-6406
▁consegues	-6407
▁exercicio	-6408
▁historico	-6409
▁inovacoes	-6410
▁manhattan	-6411
▁microfone	-6412
▁percepcao	-6413
▁poupancas	-6414
▁profundas	-6415
▁automoveis	-6416
▁descoberto	-6417
▁eficientes	-6418
▁estivessem	-6419
▁expressoes	-6420
▁invisiveis	-6421
▁nutrientes	-6422
▁partilhada	-6423
▁preparados	-6424
▁prioridade	-6425
▁telescopio	-6426
▁utilizador	-6427
▁apartamento	-6428
▁colaboracao	-6429
▁desperdicio	-6430
▁diagnostica	-6431
▁jornalistas	-6432
▁perguntamos	-6433
▁vulneraveis	-6434
▁apresentacao	-6435
▁desconhecido	-6436
▁directamente	-6437
▁globalizacao	-6438
▁informaticos	-6439
▁universidades	-6440
▁empreendedores	-6441
▁potencialmente	-6442
▁tridimensional	-6443
▁extraordinarias	-6444
ft	-6445
ko	-6446
▁q	-6447
fos	-6448
jac	-6449
ker	-6450
lin	-6451
low	-6452
sou	-6453
▁ii	-6454
aceu	-6455
etra	-6456
ilas	-6457
tigo	-6458
trao	-6459
ttle	-6460
▁anf	-6461
▁sch	-6462
▁voa	-6463
cario	-6464
crito	-6465
disse	-6466
erais	-6467
hando	-6468
icado	-6469
icago	-6470
rizar	-6471
tagem	-6472
tical	-6473
troes	-6474
▁caes	-6475
▁cego	-6476
▁cosm	-6477
▁foco	-6478
▁ital	-6479
▁lago	-6480
▁mama	-6481
▁odio	-6482
▁pess	-6483
▁proc	-6484
▁ress	-6485
▁saem	-6486
▁teor	-6487
▁tira	-6488
▁tole	-6489
centes	-6490
minais	-6491
▁achar	-6492
▁ambas	-6493
▁antar	-6494
▁arroz	-6495
▁bases	-6496
▁bolha	-6497
▁caras	-6498
▁david	-6499
▁dispo	-6500
▁empol	-6501
▁escra	-6502
▁evita	-6503
▁falso	-6504
▁filma	-6505
▁fusao	-6506
▁irmas	-6507
▁justo	-6508
▁legis	-6509
▁liceu	-6510
▁ocupa	-6511
▁orgao	-6512
▁paras	-6513
▁perfu	-6514
▁placa	-6515
▁praia	-6516
▁preso	-6517
▁queim	-6518
▁rural	-6519
▁siria	-6520
▁soube	-6521
▁tesla	-6522
▁world	-6523
▁achava	-6524
▁altera	-6525
▁atribu	-6526
▁biliao	-6527
▁coinci	-6528
▁conclu	-6529
▁consen	-6530
▁cripto	-6531
▁descer	-6532
▁destro	-6533
▁desvan	-6534
▁diarre	-6535
▁encolh	-6536
▁irania	-6537
▁judeus	-6538
▁limpar	-6539
▁magico	-6540
▁mapear	-6541
▁negras	-6542
▁passag	-6543
▁pormen	-6544
▁reform	-6545
▁retina	-6546
▁ruanda	-6547
▁sanita	-6548
▁silico	-6549
▁trocar	-6550
▁usaram	-6551
▁vencer	-6552
▁vistos	-6553
tificado	-6554
▁ameacas	-6555
▁apontar	-6556
▁chicago	-6557
▁cidadao	-6558
▁combate	-6559
▁credito	-6560
▁desafia	-6561
▁diretor	-6562
▁disting	-6563
▁eleicao	-6564
▁enrique	-6565
▁estudio	-6566
▁extremo	-6567
▁ficarem	-6568
▁fizesse	-6569
▁imensos	-6570
▁invento	-6571
▁ligadas	-6572
▁loucura	-6573
▁mudamos	-6574
▁nigeria	-6575
▁noutras	-6576
▁possuem	-6577
▁pudemos	-6578
▁reducao	-6579
▁sejamos	-6580
▁tecnico	-6581
▁tijolos	-6582
▁tiramos	-6583
▁tornado	-6584
▁william	-6585
ificacoes	-6586
▁ajudaram	-6587
▁combater	-6588
▁concorda	-6589
▁conducao	-6590
▁conexoes	-6591
▁conserva	-6592
▁corporal	-6593
▁estarmos	-6594
▁farmaceu	-6595
▁inventou	-6596
▁licencia	-6597
▁passados	-6598
▁quotidia	-6599
▁receitas	-6600
▁resistir	-6601
▁suicidio	-6602
▁tornarem	-6603
▁ultrasso	-6604
▁voltamos	-6605
▁autocarro	-6606
▁cambridge	-6607
▁categoria	-6608
▁comecemos	-6609
▁corrupcao	-6610
▁documento	-6611
▁epidemias	-6612
▁excitante	-6613
▁imigracao	-6614
▁obesidade	-6615
▁operacoes	-6616
▁primavera	-6617
▁reparacao	-6618
▁terriveis	-6619
▁vantagens	-6620
▁verificar	-6621
▁acreditava	-6622
▁americanas	-6623
▁anteriores	-6624
▁conseguiam	-6625
▁continuava	-6626
▁contribuir	-6627
▁costumavam	-6628
▁escolhemos	-6629
▁estaminais	-6630
▁excelentes	-6631
▁instalacao	-6632
▁limitacoes	-6633
▁personagem	-6634
▁adolescente	-6635
▁determinado	-6636
▁francamente	-6637
▁informatica	-6638
▁intervencao	-6639
▁localizacao	-6640
▁matematicos	-6641
▁tecnologica	-6642
▁transformou	-6643
▁efetivamente	-6644
▁estabilidade	-6645
▁acontecimento	-6646
▁possivelmente	-6647
▁transferencia	-6648
ale	-6649
del	-6650
ech	-6651
hua	-6652
ian	-6653
med	-6654
pem	-6655
peu	-6656
pus	-6657
▁mt	-6658
▁pi	-6659
▁ts	-6660
▁zo	-6661
ania	-6662
aran	-6663
berg	-6664
elos	-6665
lhar	-6666
rnos	-6667
tuar	-6668
▁bul	-6669
▁fei	-6670
▁tig	-6671
daria	-6672
ecion	-6673
ensar	-6674
entam	-6675
pardy	-6676
ridao	-6677
▁ades	-6678
▁aliv	-6679
▁bron	-6680
▁cens	-6681
▁ceus	-6682
▁habi	-6683
▁iner	-6684
▁luxo	-6685
▁mago	-6686
▁mega	-6687
▁mito	-6688
▁pura	-6689
▁riso	-6690
▁sobe	-6691
▁tony	-6692
▁usei	-6693
bilita	-6694
izando	-6695
ridade	-6696
▁andre	-6697
▁apelo	-6698
▁assin	-6699
▁carga	-6700
▁deses	-6701
▁desis	-6702
▁dieta	-6703
▁donos	-6704
▁encar	-6705
▁expec	-6706
▁graca	-6707
▁grama	-6708
▁incor	-6709
▁inser	-6710
▁lavar	-6711
▁manda	-6712
▁milen	-6713
▁mudei	-6714
▁nariz	-6715
▁nelas	-6716
▁parou	-6717
▁poeta	-6718
▁rebel	-6719
▁rigor	-6720
▁ruido	-6721
▁sagra	-6722
▁segui	-6723
▁smart	-6724
burguer	-6725
tiverso	-6726
vemente	-6727
▁ansios	-6728
▁ativos	-6729
▁captar	-6730
▁clique	-6731
▁congel	-6732
▁defini	-6733
▁distor	-6734
▁ferias	-6735
▁ganham	-6736
▁geogra	-6737
▁gravar	-6738
▁havido	-6739
▁medula	-6740
▁mundos	-6741
▁noutra	-6742
▁queira	-6743
▁reunir	-6744
▁roubar	-6745
▁saltar	-6746
▁trivia	-6747
▁vendas	-6748
▁vulgar	-6749
timentos	-6750
▁antibio	-6751
▁assumir	-6752
▁camioes	-6753
▁charles	-6754
▁clareza	-6755
▁clinica	-6756
▁conhece	-6757
▁correio	-6758
▁definir	-6759
▁detetar	-6760
▁devagar	-6761
▁dioxido	-6762
▁dominio	-6763
▁ensinou	-6764
▁entrega	-6765
▁errados	-6766
▁etiopia	-6767
▁excesso	-6768
▁fornece	-6769
▁genomas	-6770
▁gordura	-6771
▁incluir	-6772
▁levaram	-6773
▁naquilo	-6774
▁navegar	-6775
▁observa	-6776
▁oficial	-6777
▁olhemos	-6778
▁paineis	-6779
▁parcial	-6780
▁partida	-6781
▁perdida	-6782
▁perfura	-6783
▁rapidos	-6784
▁saudita	-6785
▁sujeito	-6786
▁suporte	-6787
▁truques	-6788
▁cadeiras	-6789
▁chamados	-6790
▁chineses	-6791
▁clinicos	-6792
▁comparar	-6793
▁desenhos	-6794
▁distante	-6795
▁estariam	-6796
▁explicou	-6797
▁factores	-6798
▁funcione	-6799
▁impresso	-6800
▁inspirar	-6801
▁invencao	-6802
▁jeopardy	-6803
▁levantem	-6804
▁morcegos	-6805
▁poupanca	-6806
▁pression	-6807
▁produzem	-6808
▁publicar	-6809
▁resultou	-6810
▁senhores	-6811
▁sensores	-6812
▁substitu	-6813
▁traducao	-6814
▁tragedia	-6815
tecnologia	-6816
▁aperceber	-6817
▁circuitos	-6818
▁cognitivo	-6819
▁condicion	-6820
▁considera	-6821
▁considero	-6822
▁conversar	-6823
▁dispostos	-6824
▁escuridao	-6825
▁espantosa	-6826
▁geneticas	-6827
▁manipular	-6828
▁misterios	-6829
▁mostramos	-6830
▁motivacao	-6831
▁quaisquer	-6832
▁satelites	-6833
▁tradicoes	-6834
▁acessiveis	-6835
▁aprenderam	-6836
▁autocarros	-6837
▁comentario	-6838
▁complicada	-6839
▁economicas	-6840
▁emergencia	-6841
▁empregados	-6842
▁encontrado	-6843
▁energetica	-6844
▁especifica	-6845
▁exercicios	-6846
▁financeiro	-6847
▁hamburguer	-6848
▁incentivos	-6849
▁inevitavel	-6850
▁julgamento	-6851
▁multiverso	-6852
▁obstaculos	-6853
▁partilhado	-6854
▁precisavam	-6855
▁privilegio	-6856
▁referencia	-6857
▁reinventar	-6858
▁renovaveis	-6859
▁desesperada	-6860
▁escritorios	-6861
▁exponencial	-6862
▁preocupacao	-6863
▁quantidades	-6864
▁antepassados	-6865
▁demonstracao	-6866
▁doutoramento	-6867
▁ecossistemas	-6868
▁inicialmente	-6869
▁preocupacoes	-6870
▁acontecimentos	-6871
▁ocasionalmente	-6872
aa	-6873
zi	-6874
dez	-6875
han	-6876
iba	-6877
iei	-6878
ith	-6879
nou	-6880
sor	-6881
wer	-6882
▁gi	-6883
▁oc	-6884
▁rm	-6885
ebra	-6886
enco	-6887
iana	-6888
ides	-6889
ilos	-6890
moes	-6891
poli	-6892
rian	-6893
time	-6894
trem	-6895
▁alo	-6896
▁asc	-6897
▁bur	-6898
▁cra	-6899
▁dil	-6900
▁jen	-6901
▁nic	-6902
▁sar	-6903
▁uni	-6904
andes	-6905
entei	-6906
ficas	-6907
pedia	-6908
tario	-6909
tinas	-6910
▁agre	-6911
▁airb	-6912
▁alfa	-6913
▁chei	-6914
▁deco	-6915
▁dita	-6916
▁exib	-6917
▁frig	-6918
▁gira	-6919
▁irra	-6920
▁nasa	-6921
▁pico	-6922
▁scra	-6923
▁teus	-6924
▁viam	-6925
▁wall	-6926
picais	-6927
vistas	-6928
▁absur	-6929
▁alvos	-6930
▁ambul	-6931
▁ances	-6932
▁atrib	-6933
▁caros	-6934
▁chips	-6935
▁clube	-6936
▁corri	-6937
▁deixe	-6938
▁dupla	-6939
▁enter	-6940
▁episo	-6941
▁espon	-6942
▁falha	-6943
▁falsa	-6944
▁garra	-6945
▁impre	-6946
▁lojas	-6947
▁magne	-6948
▁metas	-6949
▁morta	-6950
▁obtem	-6951
▁prece	-6952
▁prome	-6953
▁recem	-6954
▁recic	-6955
▁reser	-6956
▁segue	-6957
▁taxas	-6958
▁tento	-6959
▁turma	-6960
▁vasto	-6961
restres	-6962
▁aceder	-6963
▁afirma	-6964
▁anteci	-6965
▁avanco	-6966
▁avioes	-6967
▁clicar	-6968
▁conges	-6969
▁correu	-6970
▁cortes	-6971
▁costas	-6972
▁dedica	-6973
▁diapos	-6974
▁entrei	-6975
▁falhas	-6976
▁imprim	-6977
▁lancou	-6978
▁linear	-6979
▁loucos	-6980
▁manten	-6981
▁milime	-6982
▁pedras	-6983
▁porcos	-6984
▁raizes	-6985
▁servir	-6986
▁tempes	-6987
▁textos	-6988
▁topico	-6989
▁urbano	-6990
ologicos	-6991
vertidos	-6992
▁acelera	-6993
▁adiante	-6994
▁adopcao	-6995
▁adorava	-6996
▁anuncia	-6997
▁astrona	-6998
▁baratos	-6999
▁bitcoin	-7000
▁centime	-7001
▁cimento	-7002
▁comemos	-7003
▁crencas	-7004
▁demorou	-7005
▁detalhe	-7006
▁ensinam	-7007
▁equacao	-7008
▁escapar	-7009
▁estudei	-7010
▁guardar	-7011
▁inverno	-7012
▁metabol	-7013
▁pediram	-7014
▁potavel	-7015
▁profund	-7016
▁quartos	-7017
▁quimico	-7018
▁receita	-7019
▁scratch	-7020
▁sentada	-7021
▁seremos	-7022
▁talento	-7023
▁alimento	-7024
▁anatomia	-7025
▁cegueira	-7026
▁combinar	-7027
▁competir	-7028
▁confusao	-7029
▁conhecia	-7030
▁contamos	-7031
▁correcta	-7032
▁criminal	-7033
▁diarreia	-7034
▁divertir	-7035
▁doloroso	-7036
▁electron	-7037
▁energias	-7038
▁escritos	-7039
▁estacoes	-7040
▁extensao	-7041
▁feedback	-7042
▁gastamos	-7043
▁gratidao	-7044
▁improvis	-7045
▁lancamos	-7046
▁novidade	-7047
▁paradoxo	-7048
▁patentes	-7049
▁permanec	-7050
▁posicoes	-7051
▁presenca	-7052
▁quantico	-7053
▁responde	-7054
▁restaura	-7055
▁sacrific	-7056
▁senhoras	-7057
▁sentirem	-7058
▁tecnolog	-7059
▁tentaram	-7060
▁voltando	-7061
▁agradavel	-7062
▁aparencia	-7063
▁assegurar	-7064
▁conceitos	-7065
▁criadores	-7066
▁curriculo	-7067
▁estivemos	-7068
▁horizonte	-7069
▁instituto	-7070
▁interface	-7071
▁literacia	-7072
▁necessita	-7073
▁pontuacao	-7074
▁processar	-7075
▁relatorio	-7076
▁tropicais	-7077
▁vermelhos	-7078
▁abundancia	-7079
▁acompanhar	-7080
▁apaixonada	-7081
▁apareceram	-7082
▁associacao	-7083
▁cirurgioes	-7084
▁comecarmos	-7085
▁determinar	-7086
▁eletronica	-7087
▁evidencias	-7088
▁lancamento	-7089
▁nascimento	-7090
▁permanente	-7091
▁respiracao	-7092
▁sequencias	-7093
▁vigilancia	-7094
▁visualizar	-7095
▁aconteceria	-7096
▁alimentacao	-7097
▁construidas	-7098
▁economistas	-7099
▁estrategias	-7100
▁verdadeiras	-7101
▁alternativas	-7102
▁entusiasmado	-7103
▁incapacidade	-7104
▁maravilhosas	-7105
▁prisioneiros	-7106
▁conhecimentos	-7107
▁efectivamente	-7108
▁esquizofrenia	-7109
▁impressionante	-7110
zo	-7111
let	-7112
ood	-7113
sec	-7114
sil	-7115
▁gg	-7116
▁ph	-7117
▁uc	-7118
azer	-7119
inio	-7120
irou	-7121
lhas	-7122
osos	-7123
udir	-7124
udos	-7125
▁aer	-7126
▁bam	-7127
▁bei	-7128
▁cac	-7129
▁cau	-7130
▁ido	-7131
▁jes	-7132
▁nel	-7133
▁pec	-7134
▁sli	-7135
▁twe	-7136
caria	-7137
lexao	-7138
merca	-7139
nados	-7140
poran	-7141
ranio	-7142
▁avos	-7143
▁baby	-7144
▁coer	-7145
▁deri	-7146
▁desl	-7147
▁doce	-7148
▁enro	-7149
▁foxo	-7150
▁high	-7151
▁infe	-7152
▁line	-7153
▁mata	-7154
▁olim	-7155
▁ouve	-7156
▁parl	-7157
▁repu	-7158
▁rios	-7159
▁roub	-7160
▁saco	-7161
▁trin	-7162
▁unir	-7163
▁vila	-7164
igenas	-7165
imedes	-7166
tassem	-7167
tentes	-7168
terran	-7169
tional	-7170
▁adora	-7171
▁adver	-7172
▁alias	-7173
▁anima	-7174
▁assem	-7175
▁civis	-7176
▁congo	-7177
▁depos	-7178
▁detal	-7179
▁dobro	-7180
▁dores	-7181
▁duzia	-7182
▁embal	-7183
▁ender	-7184
▁falec	-7185
▁ferro	-7186
▁gates	-7187
▁insul	-7188
▁malas	-7189
▁minim	-7190
▁neles	-7191
▁netos	-7192
▁obtiv	-7193
▁ostra	-7194
▁pesca	-7195
▁regen	-7196
▁rejei	-7197
▁rocha	-7198
▁saido	-7199
▁salva	-7200
▁sebas	-7201
▁sexos	-7202
▁sovie	-7203
▁traje	-7204
▁venda	-7205
▁zonas	-7206
damente	-7207
entamos	-7208
vadores	-7209
▁abelha	-7210
▁angulo	-7211
▁apanha	-7212
▁baixar	-7213
▁bancos	-7214
▁contou	-7215
▁copiar	-7216
▁deitar	-7217
▁deprim	-7218
▁discor	-7219
▁estoma	-7220
▁fiquem	-7221
▁frigor	-7222
▁liguei	-7223
▁lucros	-7224
▁merece	-7225
▁metano	-7226
▁meteor	-7227
▁montan	-7228
▁moveis	-7229
▁nelson	-7230
▁nucleo	-7231
▁optimo	-7232
▁peguei	-7233
▁presas	-7234
▁quarta	-7235
▁roupas	-7236
▁russia	-7237
▁saibam	-7238
▁suecia	-7239
▁terras	-7240
▁tomada	-7241
ticidade	-7242
▁actuais	-7243
▁aplauso	-7244
▁aprecia	-7245
▁aterror	-7246
▁atitude	-7247
▁chinesa	-7248
▁cliente	-7249
▁demorar	-7250
▁difusao	-7251
▁diminui	-7252
▁espanho	-7253
▁excepto	-7254
▁formato	-7255
▁jornada	-7256
▁jornais	-7257
▁levanta	-7258
▁motivos	-7259
▁oferece	-7260
▁planear	-7261
▁sabendo	-7262
▁segurar	-7263
▁sombras	-7264
▁tratava	-7265
▁adoramos	-7266
▁ascensao	-7267
▁avancada	-7268
▁comecado	-7269
▁cultivar	-7270
▁desporto	-7271
▁diametro	-7272
▁diversas	-7273
▁ecologia	-7274
▁egipcios	-7275
▁entramos	-7276
▁fossemos	-7277
▁interrup	-7278
▁mergulho	-7279
▁mostrado	-7280
▁multidao	-7281
▁perderam	-7282
▁primatas	-7283
▁rabiscar	-7284
▁stanford	-7285
▁talentos	-7286
▁tornando	-7287
▁agradecer	-7288
▁apercebeu	-7289
▁descricao	-7290
▁desenhado	-7291
▁eleitores	-7292
▁encontrou	-7293
▁escultura	-7294
▁evidencia	-7295
▁identicas	-7296
▁interacao	-7297
▁juventude	-7298
▁organismo	-7299
▁paciencia	-7300
▁parkinson	-7301
▁particula	-7302
▁profissao	-7303
▁quadrados	-7304
▁sebastian	-7305
▁sustentar	-7306
▁variaveis	-7307
▁automatica	-7308
▁desenvolve	-7309
▁distinguir	-7310
▁emergentes	-7311
▁entretanto	-7312
▁existentes	-7313
▁iniciativa	-7314
▁propaganda	-7315
▁revolucion	-7316
▁secundaria	-7317
▁supermerca	-7318
▁utilizando	-7319
▁contemporan	-7320
▁fabricantes	-7321
▁financeiros	-7322
▁instrumento	-7323
▁intensidade	-7324
▁restaurante	-7325
▁surpreendeu	-7326
▁transmissao	-7327
▁preconceitos	-7328
▁proporcionar	-7329
▁colaboradores	-7330
▁processamento	-7331
▁internacionais	-7332
▁infraestruturas	-7333
fu	-7334
ht	-7335
yl	-7336
are	-7337
diu	-7338
iel	-7339
lie	-7340
nam	-7341
rey	-7342
uis	-7343
uri	-7344
zar	-7345
▁bl	-7346
▁br	-7347
▁mk	-7348
▁wh	-7349
bble	-7350
chas	-7351
dial	-7352
gava	-7353
gios	-7354
idel	-7355
ilio	-7356
pura	-7357
▁clo	-7358
▁eol	-7359
▁fia	-7360
▁ful	-7361
▁hib	-7362
▁len	-7363
▁mur	-7364
▁tec	-7365
▁xvi	-7366
arial	-7367
armos	-7368
cinio	-7369
deste	-7370
gente	-7371
orden	-7372
param	-7373
press	-7374
tisse	-7375
▁acam	-7376
▁afro	-7377
▁cana	-7378
▁cher	-7379
▁deem	-7380
▁deli	-7381
▁eric	-7382
▁fals	-7383
▁ines	-7384
▁inta	-7385
▁intr	-7386
▁mary	-7387
▁muro	-7388
▁mutu	-7389
▁osso	-7390
▁patr	-7391
▁pion	-7392
▁puzz	-7393
▁soar	-7394
▁sota	-7395
▁teia	-7396
▁tela	-7397
▁usem	-7398
▁vers	-7399
▁vivi	-7400
inossa	-7401
phones	-7402
ressao	-7403
uidade	-7404
▁acons	-7405
▁album	-7406
▁alema	-7407
▁asfal	-7408
▁ativo	-7409
▁aviso	-7410
▁azuis	-7411
▁bosao	-7412
▁carto	-7413
▁colis	-7414
▁convi	-7415
▁curta	-7416
▁derru	-7417
▁espre	-7418
▁extro	-7419
▁gener	-7420
▁japon	-7421
▁lento	-7422
▁lesao	-7423
▁lobos	-7424
▁lucra	-7425
▁medos	-7426
▁minas	-7427
▁movel	-7428
▁norma	-7429
▁orden	-7430
▁oscar	-7431
▁otima	-7432
▁parad	-7433
▁parem	-7434
▁porto	-7435
▁praca	-7436
▁steve	-7437
▁vinha	-7438
▁viola	-7439
espeech	-7440
iciosos	-7441
issemos	-7442
ologico	-7443
tadoras	-7444
▁agenda	-7445
▁andrew	-7446
▁assina	-7447
▁conten	-7448
▁contex	-7449
▁convin	-7450
▁descar	-7451
▁desfru	-7452
▁despro	-7453
▁disper	-7454
▁distra	-7455
▁divida	-7456
▁dobrar	-7457
▁educar	-7458
▁enviam	-7459
▁enviou	-7460
▁espira	-7461
▁estara	-7462
▁falava	-7463
▁filmar	-7464
▁incons	-7465
▁macaco	-7466
▁manual	-7467
▁margem	-7468
▁montar	-7469
▁mudado	-7470
▁normas	-7471
▁nuvens	-7472
▁ostras	-7473
▁pegada	-7474
▁perfil	-7475
▁piloto	-7476
▁prolon	-7477
▁public	-7478
▁reagir	-7479
▁respei	-7480
▁seguem	-7481
▁tanque	-7482
▁vermos	-7483
▁virgin	-7484
izadores	-7485
▁admitir	-7486
▁caminha	-7487
▁celular	-7488
▁cerveja	-7489
▁comboio	-7490
▁crescem	-7491
▁curioso	-7492
▁desejos	-7493
▁espelho	-7494
▁esperam	-7495
▁estabil	-7496
▁estimul	-7497
▁facamos	-7498
▁garagem	-7499
▁gravita	-7500
▁holanda	-7501
▁inglesa	-7502
▁inimigo	-7503
▁insetos	-7504
▁interme	-7505
▁macacos	-7506
▁mandela	-7507
▁merecem	-7508
▁milagre	-7509
▁musicos	-7510
▁negocia	-7511
▁operado	-7512
▁perturb	-7513
▁preench	-7514
▁prestar	-7515
▁queiram	-7516
▁salario	-7517
▁teorias	-7518
▁tomamos	-7519
▁tornamo	-7520
▁verific	-7521
▁versoes	-7522
▁agricola	-7523
▁anuncios	-7524
▁aventura	-7525
▁capitulo	-7526
▁cardiaca	-7527
▁circular	-7528
▁desafiar	-7529
▁descreve	-7530
▁dezembro	-7531
▁divisoes	-7532
▁duplicar	-7533
▁estomago	-7534
▁genetico	-7535
▁graficos	-7536
▁integrar	-7537
▁microbia	-7538
▁minuscul	-7539
▁parceria	-7540
▁permitam	-7541
▁portatil	-7542
▁promover	-7543
▁prostitu	-7544
▁uniforme	-7545
▁vertical	-7546
▁voltaram	-7547
▁acidentes	-7548
▁acontecia	-7549
▁advogados	-7550
▁aeroporto	-7551
▁ansiedade	-7552
▁cobertura	-7553
▁colagenio	-7554
▁congresso	-7555
▁criativos	-7556
▁desculpem	-7557
▁encontros	-7558
▁filosofia	-7559
▁medicacao	-7560
▁mostraram	-7561
▁multiplas	-7562
▁pesquisar	-7563
▁populares	-7564
▁preferido	-7565
▁proporcao	-7566
▁receberam	-7567
▁vermelhas	-7568
▁actividade	-7569
▁aleatorias	-7570
▁arquimedes	-7571
▁astronomos	-7572
▁beneficiar	-7573
▁caracteres	-7574
▁congestion	-7575
▁demonstrar	-7576
▁freespeech	-7577
▁moralidade	-7578
▁orientacao	-7579
▁revolucoes	-7580
▁terrorista	-7581
▁brincadeira	-7582
▁desempenhar	-7583
▁empresarios	-7584
▁estrangeiro	-7585
▁globalmente	-7586
▁monitorizar	-7587
▁observacoes	-7588
▁subitamente	-7589
▁transportar	-7590
▁desigualdade	-7591
▁estivessemos	-7592
▁generosidade	-7593
▁procedimento	-7594
▁profundidade	-7595
▁visualizacao	-7596
▁entusiasmante	-7597
▁significativo	-7598
▁sobreviventes	-7599
▁cuidadosamente	-7600
▁desconfortavel	-7601
cy	-7602
hh	-7603
nb	-7604
yd	-7605
ava	-7606
cil	-7607
dra	-7608
fun	-7609
gel	-7610
lao	-7611
nac	-7612
nec	-7613
▁eh	-7614
▁ip	-7615
acas	-7616
ebol	-7617
gais	-7618
geta	-7619
icip	-7620
lass	-7621
late	-7622
lome	-7623
tono	-7624
vana	-7625
wood	-7626
▁daf	-7627
▁fla	-7628
▁int	-7629
▁lab	-7630
▁plu	-7631
▁rot	-7632
▁tip	-7633
achor	-7634
ciosa	-7635
dioso	-7636
ensas	-7637
feico	-7638
garam	-7639
itude	-7640
lores	-7641
padas	-7642
redir	-7643
rimas	-7644
teiro	-7645
tinos	-7646
trico	-7647
trina	-7648
varam	-7649
vente	-7650
▁agos	-7651
▁alco	-7652
▁apag	-7653
▁ardu	-7654
▁atom	-7655
▁barb	-7656
▁capa	-7657
▁dedo	-7658
▁dono	-7659
▁duro	-7660
▁flui	-7661
▁fren	-7662
▁ilus	-7663
▁intu	-7664
▁joel	-7665
▁lama	-7666
▁lego	-7667
▁pede	-7668
▁rebo	-7669
▁trip	-7670
▁tubo	-7671
▁vaca	-7672
▁vias	-7673
▁wiki	-7674
critos	-7675
cursos	-7676
icioso	-7677
ionais	-7678
istico	-7679
ologos	-7680
sexual	-7681
teiras	-7682
tricao	-7683
ulados	-7684
▁abuso	-7685
▁agrup	-7686
▁ampla	-7687
▁arras	-7688
▁barra	-7689
▁beira	-7690
▁bordo	-7691
▁brook	-7692
▁butao	-7693
▁dando	-7694
▁desag	-7695
▁durar	-7696
▁emite	-7697
▁enver	-7698
▁expor	-7699
▁falou	-7700
▁gasta	-7701
▁hospe	-7702
▁humor	-7703
▁lacos	-7704
▁libia	-7705
▁mails	-7706
▁meter	-7707
▁navio	-7708
▁piram	-7709
▁polen	-7710
▁racis	-7711
▁recep	-7712
▁rouba	-7713
▁serin	-7714
▁solly	-7715
▁texas	-7716
▁tunis	-7717
▁tweet	-7718
▁vasos	-7719
▁vasta	-7720
▁venho	-7721
▁viral	-7722
▁virtu	-7723
ensivel	-7724
iencias	-7725
logista	-7726
tadores	-7727
▁aceite	-7728
▁afetar	-7729
▁agente	-7730
▁alavan	-7731
▁archie	-7732
▁atirar	-7733
▁atrair	-7734
▁avalia	-7735
▁bailar	-7736
▁banque	-7737
▁cachor	-7738
▁camiao	-7739
▁canais	-7740
▁center	-7741
▁compra	-7742
▁confun	-7743
▁coreia	-7744
▁dicion	-7745
▁diriam	-7746
▁exclus	-7747
▁faixas	-7748
▁fechar	-7749
▁figura	-7750
▁fossil	-7751
▁fragil	-7752
▁gastos	-7753
▁houver	-7754
▁inovar	-7755
▁inspec	-7756
▁inunda	-7757
▁marcar	-7758
▁origin	-7759
▁possui	-7760
▁provem	-7761
▁puzzle	-7762
▁quanta	-7763
▁refiro	-7764
▁sairem	-7765
▁sentei	-7766
▁sindro	-7767
▁sonhar	-7768
▁sucess	-7769
▁taliba	-7770
▁tentou	-7771
▁tipica	-7772
▁usavam	-7773
▁vegeta	-7774
▁veneza	-7775
▁venham	-7776
▁vistas	-7777
camentos	-7778
▁abracar	-7779
▁afectam	-7780
▁alturas	-7781
▁andamos	-7782
▁atingiu	-7783
▁basebol	-7784
▁basicos	-7785
▁bateria	-7786
▁captura	-7787
▁culpado	-7788
▁diploma	-7789
▁erradas	-7790
▁escreve	-7791
▁escrevo	-7792
▁externa	-7793
▁fisicas	-7794
▁fizeste	-7795
▁implica	-7796
▁incluem	-7797
▁indiano	-7798
▁liderar	-7799
▁morrido	-7800
▁musicas	-7801
▁ouvirem	-7802
▁pratico	-7803
▁querida	-7804
▁querido	-7805
▁saturno	-7806
▁secular	-7807
▁seguido	-7808
▁separar	-7809
▁solares	-7810
▁telhado	-7811
▁trivial	-7812
▁africana	-7813
▁analises	-7814
▁animacao	-7815
▁classico	-7816
▁desesper	-7817
▁designer	-7818
▁deteccao	-7819
▁extincao	-7820
▁fornecem	-7821
▁infinito	-7822
▁lagrimas	-7823
▁limitado	-7824
▁maritimo	-7825
▁modifica	-7826
▁obcecado	-7827
▁opinioes	-7828
▁pareciam	-7829
▁partidos	-7830
▁pensemos	-7831
▁poluicao	-7832
▁prevenir	-7833
▁protegem	-7834
▁refeicao	-7835
▁registos	-7836
▁reunioes	-7837
▁satelite	-7838
▁segredos	-7839
▁soldados	-7840
▁subestim	-7841
▁suportar	-7842
▁tecnicos	-7843
▁traduzir	-7844
▁academico	-7845
▁adivinhar	-7846
▁aperfeico	-7847
▁associada	-7848
▁cerebrais	-7849
▁comecando	-7850
▁conjuntos	-7851
▁conquista	-7852
▁continuou	-7853
▁crescente	-7854
▁dispostas	-7855
▁distantes	-7856
▁documenta	-7857
▁dominante	-7858
▁estudamos	-7859
▁evoluimos	-7860
▁expressar	-7861
▁fotografo	-7862
▁gostariam	-7863
▁objetivos	-7864
▁perguntem	-7865
▁permissao	-7866
▁preocupam	-7867
▁reconstru	-7868
▁tornarmos	-7869
▁acontecera	-7870
▁atividades	-7871
▁candidatos	-7872
▁declaracao	-7873
▁disciplina	-7874
▁encontramo	-7875
▁esqueletos	-7876
▁estilistas	-7877
▁facilidade	-7878
▁habilidade	-7879
▁interaccao	-7880
▁investimos	-7881
▁israelitas	-7882
▁legislacao	-7883
▁libertacao	-7884
▁mecanismos	-7885
▁ocidentais	-7886
▁parlamento	-7887
▁primordial	-7888
▁religiosas	-7889
▁restricoes	-7890
▁transacoes	-7891
▁utilizamos	-7892
▁acrescentar	-7893
▁assistencia	-7894
▁cientificos	-7895
▁conscientes	-7896
▁conseguiria	-7897
▁desenvolveu	-7898
▁matematicas	-7899
▁neandertais	-7900
▁perguntaram	-7901
▁planeamento	-7902
▁trabalhador	-7903
▁escaravelhos	-7904
▁independente	-7905
▁ingredientes	-7906
▁desapareceram	-7907
▁evidentemente	-7908
▁financiamento	-7909
▁funcionamento	-7910
▁inacreditavel	-7911
▁participantes	-7912
▁significativa	-7913
▁caracteristica	-7914
▁estacionamento	-7915
▁governamentais	-7916
ak	-7917
ya	-7918
acu	-7919
bra	-7920
hal	-7921
ien	-7922
ive	-7923
lum	-7924
mis	-7925
ona	-7926
oto	-7927
sen	-7928
wat	-7929
▁ak	-7930
▁io	-7931
▁mm	-7932
anes	-7933
bola	-7934
ches	-7935
coco	-7936
guns	-7937
ilia	-7938
imba	-7939
imes	-7940
rial	-7941
ther	-7942
tias	-7943
tory	-7944
uros	-7945
utas	-7946
▁acu	-7947
▁bel	-7948
▁bob	-7949
▁cod	-7950
▁dal	-7951
▁enx	-7952
▁hen	-7953
▁jia	-7954
▁law	-7955
▁leu	-7956
▁obe	-7957
▁onu	-7958
▁sho	-7959
▁tox	-7960
casse	-7961
chool	-7962
diver	-7963
dulos	-7964
egais	-7965
essar	-7966
estes	-7967
ficar	-7968
gular	-7969
isfer	-7970
nomia	-7971
peram	-7972
rapia	-7973
trans	-7974
▁alas	-7975
▁dava	-7976
▁fede	-7977
▁fres	-7978
▁gama	-7979
▁grao	-7980
▁gras	-7981
▁inex	-7982
▁insp	-7983
▁jack	-7984
▁mede	-7985
▁muse	-7986
▁nojo	-7987
▁obte	-7988
▁ocul	-7989
▁pano	-7990
▁poem	-7991
▁pomb	-7992
▁prev	-7993
▁seco	-7994
▁star	-7995
▁subm	-7996
▁teto	-7997
ariana	-7998
gapura	-7999
rancas	-8000
▁activ	-8001
▁antro	-8002
▁brian	-8003
▁carol	-8004
▁colar	-8005
▁coral	-8006
▁denso	-8007
▁diabo	-8008
▁dirao	-8009
▁ebola	-8010
▁exten	-8011
▁fabul	-8012
▁fases	-8013
▁fraca	-8014
▁fumar	-8015
▁gabby	-8016
▁gasto	-8017
▁glass	-8018
▁guiar	-8019
▁inque	-8020
▁limpe	-8021
▁maria	-8022
▁minia	-8023
▁modos	-8024
▁multa	-8025
▁obama	-8026
▁ombro	-8027
▁pagam	-8028
▁paraf	-8029
▁pausa	-8030
▁perpe	-8031
▁portu	-8032
▁preve	-8033
▁provi	-8034
▁setor	-8035
▁verme	-8036
▁vesti	-8037
▁viveu	-8038
dicacao	-8039
gamente	-8040
jamento	-8041
tizacao	-8042
▁accoes	-8043
▁aglome	-8044
▁agosto	-8045
▁airbnb	-8046
▁arabia	-8047
▁calcas	-8048
▁cheias	-8049
▁concer	-8050
▁confer	-8051
▁correc	-8052
▁cultiv	-8053
▁curvas	-8054
▁descan	-8055
▁descen	-8056
▁encara	-8057
▁enigma	-8058
▁ensaio	-8059
▁explos	-8060
▁famosa	-8061
▁ficado	-8062
▁fingir	-8063
▁formou	-8064
▁haviam	-8065
▁horror	-8066
▁inclui	-8067
▁indice	-8068
▁kansas	-8069
▁leitor	-8070
▁little	-8071
▁machos	-8072
▁martin	-8073
▁morais	-8074
▁obriga	-8075
▁odisse	-8076
▁orbita	-8077
▁panico	-8078
▁perdas	-8079
▁perdem	-8080
▁ponham	-8081
▁pontas	-8082
▁preval	-8083
▁previs	-8084
▁queima	-8085
▁resume	-8086
▁sairam	-8087
▁school	-8088
▁sentiu	-8089
▁souber	-8090
▁tijolo	-8091
▁usarem	-8092
▁versus	-8093
▁vindos	-8094
▁watson	-8095
sonancia	-8096
▁acordar	-8097
▁atingem	-8098
▁citacao	-8099
▁contrib	-8100
▁criador	-8101
▁criados	-8102
▁curiosa	-8103
▁degrada	-8104
▁designs	-8105
▁dinossa	-8106
▁dirigir	-8107
▁disponi	-8108
▁duracao	-8109
▁duvidas	-8110
▁escolhi	-8111
▁esperma	-8112
▁espiral	-8113
▁fechado	-8114
▁fizerem	-8115
▁fluores	-8116
▁focados	-8117
▁furacao	-8118
▁futuros	-8119
▁ilegais	-8120
▁iniciar	-8121
▁largura	-8122
▁levamos	-8123
▁liquido	-8124
▁membran	-8125
▁municip	-8126
▁nalguns	-8127
▁ocorrer	-8128
▁penetra	-8129
▁pescoco	-8130
▁premios	-8131
▁prender	-8132
▁prisoes	-8133
▁privada	-8134
▁protege	-8135
▁protoco	-8136
▁puderam	-8137
▁pusemos	-8138
▁puseram	-8139
▁reboque	-8140
▁recorda	-8141
▁resolve	-8142
▁suponho	-8143
▁traicao	-8144
▁tratado	-8145
▁tumores	-8146
▁advogado	-8147
▁ativista	-8148
▁bandeira	-8149
▁biodiver	-8150
▁chocante	-8151
▁circuito	-8152
▁circulos	-8153
▁coletiva	-8154
▁comparem	-8155
▁criatura	-8156
▁desejava	-8157
▁diretora	-8158
▁eletrico	-8159
▁envergon	-8160
▁equacoes	-8161
▁esquecam	-8162
▁estatuto	-8163
▁favorito	-8164
▁faziamos	-8165
▁ganhamos	-8166
▁gratuita	-8167
▁hemisfer	-8168
▁imediata	-8169
▁instalar	-8170
▁intersec	-8171
▁juntamos	-8172
▁modernas	-8173
▁pegarmos	-8174
▁percebeu	-8175
▁pertence	-8176
▁praticar	-8177
▁procuram	-8178
▁queridos	-8179
▁quimicas	-8180
▁respirar	-8181
▁silicone	-8182
▁sucedida	-8183
▁biologica	-8184
▁britanica	-8185
▁colaborar	-8186
▁culturais	-8187
▁densidade	-8188
▁desagrada	-8189
▁descreveu	-8190
▁desespero	-8191
▁educativo	-8192
▁elefantes	-8193
▁eletricos	-8194
▁engracado	-8195
▁estranhas	-8196
▁intencoes	-8197
▁montanhas	-8198
▁nacionais	-8199
▁optimista	-8200
▁pagamento	-8201
▁paradigma	-8202
▁partilham	-8203
▁perseguir	-8204
▁previsoes	-8205
▁renovavel	-8206
▁singapura	-8207
▁tatuagens	-8208
▁trouxeram	-8209
▁variacoes	-8210
▁argumentos	-8211
▁bicicletas	-8212
▁conhecidas	-8213
▁conseguido	-8214
▁considerem	-8215
▁cooperacao	-8216
▁desaparece	-8217
▁discussoes	-8218
▁escondidas	-8219
▁espiritual	-8220
▁essenciais	-8221
▁hidrogenio	-8222
▁iluminacao	-8223
▁inovadores	-8224
▁integracao	-8225
▁manuscrito	-8226
▁mobilidade	-8227
▁preferidas	-8228
▁psicologia	-8229
▁raciocinio	-8230
▁recolhemos	-8231
▁relacionar	-8232
▁reproducao	-8233
▁secretaria	-8234
▁significar	-8235
▁ultrapassa	-8236
▁alimentares	-8237
▁complicadas	-8238
▁compreendem	-8239
▁confortavel	-8240
▁construiram	-8241
▁interaccoes	-8242
▁relacionado	-8243
▁urbanizacao	-8244
▁credibilidade	-8245
▁desenvolveram	-8246
▁investimentos	-8247
▁biodiversidade	-8248
▁emocionalmente	-8249
▁extraordinarios	-8250
ey	-8251
ez	-8252
ald	-8253
cub	-8254
ego	-8255
fan	-8256
fre	-8257
ijo	-8258
lim	-8259
lyn	-8260
mol	-8261
ore	-8262
uas	-8263
yan	-8264
▁ss	-8265
anal	-8266
ance	-8267
dias	-8268
diva	-8269
fego	-8270
hara	-8271
ique	-8272
itei	-8273
rabb	-8274
tiss	-8275
uega	-8276
usal	-8277
▁arn	-8278
▁bes	-8279
▁eva	-8280
▁fir	-8281
▁gro	-8282
▁kit	-8283
▁red	-8284
▁tam	-8285
▁tas	-8286
▁tia	-8287
▁vim	-8288
▁woo	-8289
atico	-8290
bonac	-8291
diram	-8292
etnam	-8293
feras	-8294
istem	-8295
itada	-8296
lagem	-8297
rerem	-8298
tarra	-8299
tendo	-8300
trifu	-8301
trito	-8302
ulado	-8303
ville	-8304
▁abus	-8305
▁arbi	-8306
▁chef	-8307
▁cica	-8308
▁coli	-8309
▁cuja	-8310
▁desp	-8311
▁fara	-8312
▁fumo	-8313
▁gado	-8314
▁gore	-8315
▁graf	-8316
▁hard	-8317
▁homo	-8318
▁jean	-8319
▁mark	-8320
▁mons	-8321
▁neve	-8322
▁obso	-8323
▁pago	-8324
▁papa	-8325
▁pete	-8326
▁pspt	-8327
▁scan	-8328
▁tang	-8329
▁temp	-8330
▁valv	-8331
▁xvii	-8332
gadora	-8333
landes	-8334
tativa	-8335
tricas	-8336
trizes	-8337
▁abriu	-8338
▁anfit	-8339
▁armad	-8340
▁balao	-8341
▁belas	-8342
▁block	-8343
▁campe	-8344
▁caver	-8345
▁choco	-8346
▁darem	-8347
▁derre	-8348
▁durou	-8349
▁ecras	-8350
▁etica	-8351
▁exame	-8352
▁exato	-8353
▁favel	-8354
▁fever	-8355
▁ficas	-8356
▁forum	-8357
▁fraco	-8358
▁gatos	-8359
▁green	-8360
▁homic	-8361
▁islao	-8362
▁jesus	-8363
▁lanca	-8364
▁lucro	-8365
▁macho	-8366
▁ouvem	-8367
▁ouviu	-8368
▁power	-8369
▁puxar	-8370
▁relog	-8371
▁revis	-8372
▁revol	-8373
▁ricas	-8374
▁salvo	-8375
▁senso	-8376
▁sepul	-8377
▁sonda	-8378
▁sorri	-8379
▁story	-8380
▁temas	-8381
▁tende	-8382
▁tenis	-8383
▁venha	-8384
bonacci	-8385
isterio	-8386
ticidas	-8387
tiveram	-8388
▁abaste	-8389
▁abenco	-8390
▁activo	-8391
▁adulta	-8392
▁alugar	-8393
▁amazon	-8394
▁amigas	-8395
▁andado	-8396
▁aposto	-8397
▁atinge	-8398
▁boston	-8399
▁botoes	-8400
▁caminh	-8401
▁cobrir	-8402
▁custar	-8403
▁dadiva	-8404
▁daniel	-8405
▁dispen	-8406
▁domina	-8407
▁emocao	-8408
▁esquec	-8409
▁explic	-8410
▁forcar	-8411
▁grecia	-8412
▁humilh	-8413
▁impede	-8414
▁intang	-8415
▁intrig	-8416
▁lacuna	-8417
▁legado	-8418
▁litros	-8419
▁livrar	-8420
▁marcha	-8421
▁milhas	-8422
▁nascer	-8423
▁ocupar	-8424
▁otimas	-8425
▁outono	-8426
▁parada	-8427
▁poster	-8428
▁preser	-8429
▁pressu	-8430
▁presum	-8431
▁prince	-8432
▁proust	-8433
▁referi	-8434
▁regime	-8435
▁republ	-8436
▁requis	-8437
▁sequen	-8438
▁servem	-8439
▁subida	-8440
▁suprem	-8441
▁tercos	-8442
▁tipico	-8443
▁tracos	-8444
▁tranqu	-8445
▁unicas	-8446
▁vinham	-8447
▁viviam	-8448
▁vivido	-8449
riamente	-8450
▁afectar	-8451
▁ampliar	-8452
▁avancos	-8453
▁basicas	-8454
▁cadeias	-8455
▁chegada	-8456
▁conexao	-8457
▁contigo	-8458
▁cultiva	-8459
▁dadores	-8460
▁deixado	-8461
▁discrim	-8462
▁enganar	-8463
▁ensaios	-8464
▁evoluiu	-8465
▁ficando	-8466
▁formula	-8467
▁imperio	-8468
▁incapac	-8469
▁indicar	-8470
▁joelhos	-8471
▁liberal	-8472
▁mascara	-8473
▁noruega	-8474
▁paraiso	-8475
▁patogen	-8476
▁piratas	-8477
▁primata	-8478
▁reacoes	-8479
▁sagrado	-8480
▁secreto	-8481
▁seringa	-8482
▁solidar	-8483
▁somalia	-8484
▁superar	-8485
▁termina	-8486
▁tortura	-8487
▁trafego	-8488
▁valioso	-8489
▁vietnam	-8490
▁viveram	-8491
idelidade	-8492
ricamente	-8493
▁adequada	-8494
▁aguentar	-8495
▁analogia	-8496
▁anonimas	-8497
▁atingido	-8498
▁aumentam	-8499
▁ausencia	-8500
▁baterias	-8501
▁bitcoins	-8502
▁brooklyn	-8503
▁calcario	-8504
▁centrifu	-8505
▁coletivo	-8506
▁composto	-8507
▁criticas	-8508
▁desligar	-8509
▁diagrama	-8510
▁diminuiu	-8511
▁diversos	-8512
▁encoraja	-8513
▁espectro	-8514
▁estimulo	-8515
▁europeus	-8516
▁examinar	-8517
▁extrater	-8518
▁impostos	-8519
▁imprimir	-8520
▁infecoes	-8521
▁mandarim	-8522
▁memorial	-8523
▁mutacoes	-8524
▁namorada	-8525
▁narrador	-8526
▁national	-8527
▁negativo	-8528
▁neuronal	-8529
▁novembro	-8530
▁observem	-8531
▁passeios	-8532
▁razoavel	-8533
▁receptor	-8534
▁reconcil	-8535
▁registar	-8536
▁retratos	-8537
▁vencedor	-8538
▁verdades	-8539
▁adicional	-8540
▁ancestral	-8541
▁artistico	-8542
▁babilonia	-8543
▁concordar	-8544
▁constroem	-8545
▁conteudos	-8546
▁continuei	-8547
▁contraste	-8548
▁criativas	-8549
▁divertida	-8550
▁eleitoral	-8551
▁ensinaram	-8552
▁facilitar	-8553
▁fascinado	-8554
▁fevereiro	-8555
▁fibonacci	-8556
▁franceses	-8557
▁impulsion	-8558
▁mencionei	-8559
▁microscop	-8560
▁multiplos	-8561
▁perigosos	-8562
▁progredir	-8563
▁proteccao	-8564
▁silencios	-8565
▁simulacao	-8566
▁ultrapass	-8567
▁utilidade	-8568
▁wikipedia	-8569
▁apresentam	-8570
▁categorias	-8571
▁compreende	-8572
▁condutores	-8573
▁convencido	-8574
▁dependendo	-8575
▁educadores	-8576
▁emocionais	-8577
▁energetico	-8578
▁entendemos	-8579
▁envelhecer	-8580
▁escritores	-8581
▁estimativa	-8582
▁hemisferio	-8583
▁identifica	-8584
▁introduzir	-8585
▁ministerio	-8586
▁mutuamente	-8587
▁permanecer	-8588
▁pormenores	-8589
▁preocupado	-8590
▁reproduzir	-8591
▁totalidade	-8592
▁autorizacao	-8593
▁certificado	-8594
▁cientificas	-8595
▁conservacao	-8596
▁construidos	-8597
▁dependentes	-8598
▁determinada	-8599
▁encontrarem	-8600
▁especificas	-8601
▁fundamentos	-8602
▁indicadores	-8603
▁industriais	-8604
▁influenciar	-8605
▁preocupante	-8606
▁programavel	-8607
▁antibioticos	-8608
▁colaborativo	-8609
▁configuracao	-8610
▁constituicao	-8611
▁deficiencias	-8612
▁entendimento	-8613
▁fornecimento	-8614
▁inteiramente	-8615
▁surpreendido	-8616
▁sustentaveis	-8617
▁transparente	-8618
▁consentimento	-8619
▁independencia	-8620
▁preservativos	-8621
▁programadores	-8622
▁surpreendidos	-8623
▁aleatoriamente	-8624
bp	-8625
cr	-8626
ls	-8627
my	-8628
ng	-8629
od	-8630
up	-8631
ut	-8632
cun	-8633
edo	-8634
fis	-8635
gie	-8636
gol	-8637
itz	-8638
len	-8639
pad	-8640
pou	-8641
reo	-8642
ude	-8643
uls	-8644
ung	-8645
▁dv	-8646
▁jh	-8647
avam	-8648
eais	-8649
erou	-8650
hahi	-8651
icul	-8652
izon	-8653
jado	-8654
miss	-8655
onio	-8656
pses	-8657
puta	-8658
rama	-8659
talk	-8660
tens	-8661
vers	-8662
ward	-8663
▁avc	-8664
▁bet	-8665
▁cun	-8666
▁fig	-8667
▁hie	-8668
▁hin	-8669
▁jor	-8670
▁ong	-8671
▁rez	-8672
▁sco	-8673
▁sky	-8674
▁slo	-8675
▁stu	-8676
▁tbp	-8677
genes	-8678
idios	-8679
iquei	-8680
ixoes	-8681
nifer	-8682
reiro	-8683
ressa	-8684
rieta	-8685
trado	-8686
▁acal	-8687
▁acid	-8688
▁alde	-8689
▁apel	-8690
▁blog	-8691
▁cave	-8692
▁coro	-8693
▁dano	-8694
▁dras	-8695
▁elog	-8696
▁ench	-8697
▁fita	-8698
▁fria	-8699
▁giga	-8700
▁gros	-8701
▁hall	-8702
▁jane	-8703
▁juda	-8704
▁juiz	-8705
▁lata	-8706
▁marg	-8707
▁nike	-8708
▁oleo	-8709
▁open	-8710
▁piso	-8711
▁saia	-8712
▁tabu	-8713
dicais	-8714
izador	-8715
izaram	-8716
louque	-8717
torial	-8718
usalem	-8719
▁achas	-8720
▁arref	-8721
▁atrai	-8722
▁black	-8723
▁bolsa	-8724
▁brown	-8725
▁cairo	-8726
▁casal	-8727
▁cated	-8728
▁ciber	-8729
▁crite	-8730
▁cruel	-8731
▁evacu	-8732
▁expul	-8733
▁falem	-8734
▁fator	-8735
▁fosso	-8736
▁fruta	-8737
▁genio	-8738
▁globo	-8739
▁iamos	-8740
▁impac	-8741
▁ingen	-8742
▁injec	-8743
▁jorda	-8744
▁judic	-8745
▁mares	-8746
▁mario	-8747
▁misso	-8748
▁moham	-8749
▁movem	-8750
▁nadar	-8751
▁obscu	-8752
▁ouvia	-8753
▁pagos	-8754
▁parto	-8755
▁pedem	-8756
▁peito	-8757
▁prato	-8758
▁pulso	-8759
▁retro	-8760
▁reves	-8761
▁rodar	-8762
▁sensa	-8763
▁since	-8764
▁south	-8765
▁subiu	-8766
▁testa	-8767
▁tiram	-8768
▁tomam	-8769
▁trava	-8770
▁usava	-8771
▁votos	-8772
elandia	-8773
enciais	-8774
estades	-8775
grafico	-8776
rnidade	-8777
▁acucar	-8778
▁alfabe	-8779
▁aspira	-8780
▁baleia	-8781
▁barris	-8782
▁baseia	-8783
▁basque	-8784
▁brilho	-8785
▁brutal	-8786
▁cantos	-8787
▁cheira	-8788
▁coluna	-8789
▁contes	-8790
▁crimes	-8791
▁custam	-8792
▁decide	-8793
▁diario	-8794
▁direto	-8795
▁eolica	-8796
▁etique	-8797
▁excess	-8798
▁femeas	-8799
▁fortal	-8800
▁gemeos	-8801
▁hierar	-8802
▁idiota	-8803
▁inutil	-8804
▁italia	-8805
▁jamais	-8806
▁limiar	-8807
▁maluco	-8808
▁meados	-8809
▁oxford	-8810
▁pronta	-8811
▁psicos	-8812
▁quebra	-8813
▁quinto	-8814
▁rainha	-8815
▁recomp	-8816
▁sentou	-8817
▁sorris	-8818
▁submar	-8819
▁tirote	-8820
▁urbana	-8821
▁ushahi	-8822
▁verbal	-8823
▁voltam	-8824
denciais	-8825
esperado	-8826
▁abertas	-8827
▁adquiri	-8828
▁aplicam	-8829
▁assusta	-8830
▁baleias	-8831
▁batedor	-8832
▁brancas	-8833
▁brilhar	-8834
▁codigos	-8835
▁comecem	-8836
▁comprei	-8837
▁deitado	-8838
▁desinte	-8839
▁domingo	-8840
▁esferas	-8841
▁espalha	-8842
▁existiu	-8843
▁famosos	-8844
▁ficaria	-8845
▁frequen	-8846
▁gravado	-8847
▁guardas	-8848
▁habitat	-8849
▁horizon	-8850
▁implaca	-8851
▁iniciou	-8852
▁lampada	-8853
▁limpeza	-8854
▁manuais	-8855
▁melhora	-8856
▁musculo	-8857
▁nascido	-8858
▁olharam	-8859
▁pagamos	-8860
▁paramos	-8861
▁passear	-8862
▁pontape	-8863
▁pulmoes	-8864
▁quebrar	-8865
▁reuniao	-8866
▁sentiam	-8867
▁soldado	-8868
▁suicida	-8869
▁termica	-8870
▁urbanos	-8871
▁usarmos	-8872
▁visitas	-8873
▁vizinho	-8874
▁absorver	-8875
▁academia	-8876
▁baseados	-8877
▁biologos	-8878
▁blockcha	-8879
▁bloquear	-8880
▁colocado	-8881
▁controle	-8882
▁correcto	-8883
▁depender	-8884
▁detectar	-8885
▁diversao	-8886
▁divulgar	-8887
▁eletrica	-8888
▁endereco	-8889
▁enlouque	-8890
▁episodio	-8891
▁escrevem	-8892
▁escritor	-8893
▁evidente	-8894
▁favorita	-8895
▁feminina	-8896
▁filosofo	-8897
▁gravacao	-8898
▁hormonas	-8899
▁imediato	-8900
▁inspirou	-8901
▁intencao	-8902
▁interfer	-8903
▁intuicao	-8904
▁levantou	-8905
▁mudarmos	-8906
▁nasceram	-8907
▁observam	-8908
▁oficiais	-8909
▁parceiro	-8910
▁passavam	-8911
▁pilhagem	-8912
▁piramide	-8913
▁privados	-8914
▁progress	-8915
▁projetar	-8916
▁proteses	-8917
▁provocar	-8918
▁radicais	-8919
▁reconstr	-8920
▁respeita	-8921
▁sabermos	-8922
▁sinapses	-8923
▁sindrome	-8924
▁telhados	-8925
▁terrenos	-8926
▁tradutor	-8927
▁utilizam	-8928
▁violacao	-8929
lorestacao	-8930
▁abandonar	-8931
▁altruismo	-8932
▁associado	-8933
▁ativistas	-8934
▁beneficio	-8935
▁brinquedo	-8936
▁cirurgias	-8937
▁cognitiva	-8938
▁colocaram	-8939
▁comparado	-8940
▁confiante	-8941
▁culinaria	-8942
▁destruida	-8943
▁encorajar	-8944
▁envolvido	-8945
▁escondido	-8946
▁espaciais	-8947
▁estaremos	-8948
▁fenomenos	-8949
▁filosofos	-8950
▁horriveis	-8951
▁integrado	-8952
▁interagem	-8953
▁israelita	-8954
▁jerusalem	-8955
▁mencionar	-8956
▁minusculo	-8957
▁mostrando	-8958
▁municipal	-8959
▁orcamento	-8960
▁palestina	-8961
▁permitido	-8962
▁pirataria	-8963
▁preencher	-8964
▁preferida	-8965
▁preocupem	-8966
▁proprieta	-8967
▁reconhece	-8968
▁telefones	-8969
▁acrescenta	-8970
▁ambientais	-8971
▁atravessam	-8972
▁compreendo	-8973
▁comprimido	-8974
▁documentar	-8975
▁economista	-8976
▁enfermaria	-8977
▁entusiasmo	-8978
▁equilibrar	-8979
▁escrituras	-8980
▁estivermos	-8981
▁fizessemos	-8982
▁habituados	-8983
▁implementa	-8984
▁impressora	-8985
▁imunitario	-8986
▁inovadoras	-8987
▁interessam	-8988
▁lindamente	-8989
▁metronomos	-8990
▁minusculas	-8991
▁orcamentos	-8992
▁perfuracao	-8993
▁perfurados	-8994
▁preferidos	-8995
▁preparacao	-8996
▁publicacao	-8997
▁reconhecem	-8998
▁substancia	-8999
▁tempestade	-9000
▁territorio	-9001
▁transdutor	-9002
▁vencedores	-9003
▁visitantes	-9004
▁compreendia	-9005
▁conseguisse	-9006
▁continentes	-9007
▁corresponde	-9008
▁desaparecem	-9009
▁diapositivo	-9010
▁emocionante	-9011
▁estimulante	-9012
▁implementar	-9013
▁manuscritos	-9014
▁mentalidade	-9015
▁precedentes	-9016
▁preocupados	-9017
▁prioridades	-9018
▁resiliencia	-9019
▁resistentes	-9020
▁ressonancia	-9021
▁tempestades	-9022
▁companheiros	-9023
▁continuarmos	-9024
▁convencional	-9025
▁envolvimento	-9026
▁expectativas	-9027
▁honestamente	-9028
▁intervencoes	-9029
▁licenciatura	-9030
▁propriamente	-9031
▁restaurantes	-9032
▁biotecnologia	-9033
▁universitario	-9034
▁historicamente	-9035
▁surpreendentes	-9036
▁universitarios	-9037
ah	-9038
bs	-9039
dt	-9040
mp	-9041
uo	-9042
ace	-9043
cei	-9044
cip	-9045
cus	-9046
die	-9047
fen	-9048
nde	-9049
rit	-9050
she	-9051
ure	-9052
▁hp	-9053
▁rb	-9054
aque	-9055
bits	-9056
chel	-9057
dire	-9058
eses	-9059
fiti	-9060
gram	-9061
ifes	-9062
igar	-9063
iola	-9064
issa	-9065
itim	-9066
josa	-9067
mann	-9068
nomo	-9069
rame	-9070
rane	-9071
riao	-9072
rnar	-9073
tter	-9074
usou	-9075
▁ale	-9076
▁dam	-9077
▁dvd	-9078
▁hes	-9079
▁lem	-9080
▁lum	-9081
▁net	-9082
▁ous	-9083
▁pav	-9084
▁pig	-9085
▁ran	-9086
▁sam	-9087
▁syd	-9088
▁tac	-9089
▁tub	-9090
cesse	-9091
ficou	-9092
ganda	-9093
hotos	-9094
icada	-9095
igena	-9096
ionar	-9097
meteu	-9098
monia	-9099
nesia	-9100
pleto	-9101
polar	-9102
quida	-9103
rinho	-9104
teros	-9105
ticul	-9106
tubro	-9107
valor	-9108
▁adam	-9109
▁asas	-9110
▁atro	-9111
▁boom	-9112
▁brun	-9113
▁caem	-9114
▁cato	-9115
▁cega	-9116
▁chan	-9117
▁city	-9118
▁coch	-9119
▁coma	-9120
▁down	-9121
▁dron	-9122
▁educ	-9123
▁emma	-9124
▁enra	-9125
▁exag	-9126
▁foie	-9127
▁fral	-9128
▁fric	-9129
▁fron	-9130
▁gand	-9131
▁giro	-9132
▁into	-9133
▁jose	-9134
▁lava	-9135
▁lido	-9136
▁maio	-9137
▁mens	-9138
▁moch	-9139
▁omni	-9140
▁ouco	-9141
▁paco	-9142
▁ramo	-9143
▁rota	-9144
▁sali	-9145
▁stop	-9146
▁subl	-9147
▁tril	-9148
▁turb	-9149
delfia	-9150
forshe	-9151
gancia	-9152
inadas	-9153
inados	-9154
inando	-9155
metria	-9156
primir	-9157
rabbit	-9158
tarmos	-9159
▁abrig	-9160
▁actor	-9161
▁aguas	-9162
▁amiza	-9163
▁andei	-9164
▁aprof	-9165
▁argen	-9166
▁ataca	-9167
▁ativa	-9168
▁atomo	-9169
▁betao	-9170
▁cegas	-9171
▁chile	-9172
▁conju	-9173
▁conor	-9174
▁deixo	-9175
▁desce	-9176
▁disco	-9177
▁entes	-9178
▁espar	-9179
▁evapo	-9180
▁exaus	-9181
▁fezes	-9182
▁fique	-9183
▁forno	-9184
▁gases	-9185
▁geoff	-9186
▁gland	-9187
▁gravi	-9188
▁hanna	-9189
▁henry	-9190
▁homos	-9191
▁indes	-9192
▁infil	-9193
▁intui	-9194
▁jiade	-9195
▁julho	-9196
▁lagos	-9197
▁legen	-9198
▁levei	-9199
▁manif	-9200
▁matou	-9201
▁maxim	-9202
▁mesas	-9203
▁molda	-9204
▁nasce	-9205
▁patro	-9206
▁pendu	-9207
▁preda	-9208
▁redon	-9209
▁relva	-9210
▁repos	-9211
▁sandy	-9212
▁sarah	-9213
▁sedas	-9214
▁slide	-9215
▁subme	-9216
▁suges	-9217
▁titan	-9218
▁trein	-9219
▁vagas	-9220
▁vinho	-9221
▁vital	-9222
bilizar	-9223
culares	-9224
grafica	-9225
remente	-9226
▁aborto	-9227
▁alcool	-9228
▁alemao	-9229
▁alerta	-9230
▁atuais	-9231
▁baixas	-9232
▁cairam	-9233
▁casais	-9234
▁castan	-9235
▁chamei	-9236
▁cineas	-9237
▁defens	-9238
▁despor	-9239
▁dirige	-9240
▁durado	-9241
▁esclar	-9242
▁ficara	-9243
▁filhas	-9244
▁finais	-9245
▁genoci	-9246
▁gerais	-9247
▁germes	-9248
▁graves	-9249
▁habito	-9250
▁helico	-9251
▁hoteis	-9252
▁ironia	-9253
▁johnny	-9254
▁juntem	-9255
▁lentes	-9256
▁modulo	-9257
▁museus	-9258
▁nascem	-9259
▁neglig	-9260
▁obtive	-9261
▁orelha	-9262
▁permit	-9263
▁persua	-9264
▁pontes	-9265
▁postos	-9266
▁pratic	-9267
▁predio	-9268
▁prepar	-9269
▁pretos	-9270
▁proven	-9271
▁queijo	-9272
▁quilos	-9273
▁reator	-9274
▁recife	-9275
▁remoto	-9276
▁repeti	-9277
▁reprim	-9278
▁residu	-9279
▁revela	-9280
▁sector	-9281
▁sessao	-9282
▁slogan	-9283
▁surgem	-9284
▁sydney	-9285
▁tornem	-9286
▁transg	-9287
▁trinta	-9288
▁trocas	-9289
▁uganda	-9290
▁viajei	-9291
carregar	-9292
ificados	-9293
ologista	-9294
▁agencia	-9295
▁aldeias	-9296
▁anestes	-9297
▁canadia	-9298
▁caracte	-9299
▁cereais	-9300
▁confusa	-9301
▁consiga	-9302
▁criadas	-9303
▁cumprir	-9304
▁deixava	-9305
▁desenro	-9306
▁encaixa	-9307
▁equipas	-9308
▁escalas	-9309
▁espanha	-9310
▁esperto	-9311
▁esquina	-9312
▁estadio	-9313
▁estigma	-9314
▁europeu	-9315
▁excecao	-9316
▁faciais	-9317
▁falemos	-9318
▁faremos	-9319
▁friccao	-9320
▁galinha	-9321
▁improva	-9322
▁incorpo	-9323
▁inferno	-9324
▁liberia	-9325
▁liberta	-9326
▁liquida	-9327
▁manifes	-9328
▁mantido	-9329
▁moldura	-9330
▁negacao	-9331
▁ocorrem	-9332
▁odisseu	-9333
▁origens	-9334
▁outubro	-9335
▁paixoes	-9336
▁passaro	-9337
▁pedidos	-9338
▁perpetu	-9339
▁protese	-9340
▁provoca	-9341
▁psicopa	-9342
▁reaccao	-9343
▁regulam	-9344
▁secreta	-9345
▁selecao	-9346
▁sotaque	-9347
▁superpo	-9348
▁tedtalk	-9349
▁tunisia	-9350
▁ucrania	-9351
▁urgente	-9352
▁virtude	-9353
bilitacao	-9354
tidamente	-9355
▁adequado	-9356
▁adquirir	-9357
▁asiatico	-9358
▁avancado	-9359
▁cachorro	-9360
▁cantores	-9361
▁carrinha	-9362
▁catedral	-9363
▁cenarios	-9364
▁clinicas	-9365
▁cochrane	-9366
▁coleccao	-9367
▁comissao	-9368
▁consomem	-9369
▁conspira	-9370
▁contente	-9371
▁criticos	-9372
▁decorrer	-9373
▁dependem	-9374
▁director	-9375
▁elevados	-9376
▁encaixar	-9377
▁ensinada	-9378
▁escritas	-9379
▁especula	-9380
▁explodir	-9381
▁expostos	-9382
▁feminino	-9383
▁ficarmos	-9384
▁guitarra	-9385
▁harmonia	-9386
▁heforshe	-9387
▁holandes	-9388
▁ilustrar	-9389
▁impactos	-9390
▁imprevis	-9391
▁inconsci	-9392
▁inespera	-9393
▁instinto	-9394
▁jennifer	-9395
▁juntaram	-9396
▁missouri	-9397
▁mosquito	-9398
▁nascemos	-9399
▁oposicao	-9400
▁pacifico	-9401
▁parasita	-9402
▁passarem	-9403
▁pensando	-9404
▁perigosa	-9405
▁precisas	-9406
▁publicou	-9407
▁quisemos	-9408
▁racional	-9409
▁sectores	-9410
▁selvagem	-9411
▁tendemos	-9412
▁ushahidi	-9413
▁agricolas	-9414
▁amplitude	-9415
▁antartida	-9416
▁aplicamos	-9417
▁armadilha	-9418
▁barbearia	-9419
▁biologico	-9420
▁chimpanze	-9421
▁descobrem	-9422
▁distincao	-9423
▁enfrentam	-9424
▁esquecemo	-9425
▁glaciares	-9426
▁identicos	-9427
▁inquerito	-9428
▁inspirado	-9429
▁mecanicas	-9430
▁mergulhar	-9431
▁obtivemos	-9432
▁positivas	-9433
▁produzido	-9434
▁proibicao	-9435
▁projecoes	-9436
▁prosperar	-9437
▁publicado	-9438
▁resolvido	-9439
▁retiramos	-9440
▁revelacao	-9441
▁sepultura	-9442
▁sucedidos	-9443
▁apaixonado	-9444
▁apercebemo	-9445
▁apropriado	-9446
▁autoridade	-9447
▁biologicos	-9448
▁chimpanzes	-9449
▁comerciais	-9450
▁composicao	-9451
▁diminuicao	-9452
▁electricos	-9453
▁encontrava	-9454
▁espetaculo	-9455
▁filadelfia	-9456
▁isolamento	-9457
▁manutencao	-9458
▁neandertal	-9459
▁objectivos	-9460
▁passageiro	-9461
▁produtores	-9462
▁protegidas	-9463
▁prototipos	-9464
▁qualidades	-9465
▁quotidiana	-9466
▁sanguineos	-9467
▁seriamente	-9468
▁significam	-9469
▁solucionar	-9470
▁vulneravel	-9471
▁apercebemos	-9472
▁astronautas	-9473
▁autoridades	-9474
▁construindo	-9475
▁contentores	-9476
▁desapareceu	-9477
▁distribuido	-9478
▁fantasticos	-9479
▁frigorifico	-9480
▁funcionario	-9481
▁habilidades	-9482
▁humanitaria	-9483
▁informatico	-9484
▁partilhados	-9485
▁proporciona	-9486
▁sexualmente	-9487
▁surpreender	-9488
▁tipicamente	-9489
▁transformam	-9490
▁conferencias	-9491
▁confortaveis	-9492
▁consideracao	-9493
▁consideramos	-9494
▁costumavamos	-9495
▁diagnosticos	-9496
▁empreendedor	-9497
▁gradualmente	-9498
▁sinceramente	-9499
▁computacional	-9500
▁conservadores	-9501
▁desenvolvidos	-9502
▁gratuitamente	-9503
▁comportamental	-9504
▁desflorestacao	-9505
▁probabilidades	-9506
▁unidimensional	-9507
▁definitivamente	-9508
▁relacionamentos	-9509
gn	-9510
we	-9511
ari	-9512
ban	-9513
div	-9514
ini	-9515
isy	-9516
ity	-9517
jou	-9518
mel	-9519
oft	-9520
ope	-9521
pal	-9522
rum	-9523
sea	-9524
tio	-9525
und	-9526
vaz	-9527
▁dh	-9528
▁ko	-9529
▁mr	-9530
▁nl	-9531
aras	-9532
arca	-9533
bico	-9534
cade	-9535
dens	-9536
dequ	-9537
diar	-9538
dros	-9539
fada	-9540
item	-9541
itou	-9542
ivar	-9543
ling	-9544
pleg	-9545
poem	-9546
rnas	-9547
taru	-9548
tric	-9549
vais	-9550
▁aux	-9551
▁bea	-9552
▁emi	-9553
▁enz	-9554
▁eta	-9555
▁fom	-9556
▁hei	-9557
▁hip	-9558
▁hiv	-9559
▁ice	-9560
▁jim	-9561
▁kar	-9562
▁lex	-9563
▁lis	-9564
▁lol	-9565
▁neo	-9566
▁pil	-9567
▁rol	-9568
▁ska	-9569
▁voy	-9570
▁wes	-9571
bular	-9572
burgo	-9573
corps	-9574
enter	-9575
gulos	-9576
iosas	-9577
macia	-9578
piter	-9579
rasse	-9580
rocra	-9581
tanea	-9582
tomas	-9583
toras	-9584
ulgar	-9585
unami	-9586
vidou	-9587
watts	-9588
▁anel	-9589
▁ator	-9590
▁atos	-9591
▁atre	-9592
▁bata	-9593
▁bell	-9594
▁bime	-9595
▁cala	-9596
▁carp	-9597
▁cita	-9598
▁copo	-9599
▁doze	-9600
▁fale	-9601
▁figu	-9602
▁film	-9603
▁fins	-9604
▁inib	-9605
▁inje	-9606
▁invo	-9607
▁jeff	-9608
▁late	-9609
▁memo	-9610
▁ongs	-9611
▁pren	-9612
▁raro	-9613
▁reen	-9614
▁rock	-9615
▁sour	-9616
▁suba	-9617
▁tail	-9618
▁tita	-9619
▁wire	-9620
▁yale	-9621
dencao	-9622
diosos	-9623
fiquem	-9624
genese	-9625
icatas	-9626
inente	-9627
itando	-9628
lacion	-9629
pamina	-9630
ressos	-9631
tagens	-9632
versao	-9633
▁abril	-9634
▁acamp	-9635
▁aonde	-9636
▁arbus	-9637
▁arcos	-9638
▁ascen	-9639
▁bateu	-9640
▁bruno	-9641
▁cativ	-9642
▁cigar	-9643
▁cobra	-9644
▁coreo	-9645
▁corta	-9646
▁daisy	-9647
▁davam	-9648
▁decom	-9649
▁desil	-9650
▁diabe	-9651
▁diego	-9652
▁diger	-9653
▁esqui	-9654
▁faiza	-9655
▁farao	-9656
▁filan	-9657
▁folha	-9658
▁guine	-9659
▁insig	-9660
▁judeu	-9661
▁julgo	-9662
▁justa	-9663
▁laser	-9664
▁lidam	-9665
▁ninho	-9666
▁obede	-9667
▁oprim	-9668
▁perse	-9669
▁pleno	-9670
▁polim	-9671
▁posse	-9672
▁posto	-9673
▁resso	-9674
▁roubo	-9675
▁salao	-9676
▁skype	-9677
▁smith	-9678
▁suave	-9679
▁tigre	-9680
▁tomou	-9681
▁ursos	-9682
▁versa	-9683
▁vinte	-9684
▁volun	-9685
▁zimba	-9686
beracao	-9687
jacente	-9688
ologica	-9689
tissimo	-9690
▁abismo	-9691
▁adoram	-9692
▁alarme	-9693
▁batalh	-9694
▁bombar	-9695
▁caneta	-9696
▁causou	-9697
▁chefes	-9698
▁cheios	-9699
▁coelho	-9700
▁compar	-9701
▁consti	-9702
▁conter	-9703
▁convic	-9704
▁copias	-9705
▁correm	-9706
▁corria	-9707
▁cosmos	-9708
▁costum	-9709
▁cranio	-9710
▁decimo	-9711
▁define	-9712
▁deniso	-9713
▁depara	-9714
▁destin	-9715
▁deuses	-9716
▁disfar	-9717
▁emails	-9718
▁encaix	-9719
▁enquad	-9720
▁esfera	-9721
▁espess	-9722
▁existi	-9723
▁falhou	-9724
▁filtro	-9725
▁fraque	-9726
▁gelado	-9727
▁higien	-9728
▁hostil	-9729
▁idades	-9730
▁inscre	-9731
▁jardin	-9732
▁joshua	-9733
▁juntou	-9734
▁justin	-9735
▁lamina	-9736
▁mantiv	-9737
▁nodulo	-9738
▁pirate	-9739
▁piscar	-9740
▁placas	-9741
▁propul	-9742
▁pulmao	-9743
▁recebo	-9744
▁reclam	-9745
▁reside	-9746
▁rezero	-9747
▁rotina	-9748
▁sabado	-9749
▁subtis	-9750
▁tentem	-9751
▁tintas	-9752
▁vindas	-9753
▁vivian	-9754
formance	-9755
idamente	-9756
inheiros	-9757
terraneo	-9758
▁abrimos	-9759
▁absurdo	-9760
▁aceitou	-9761
▁alargar	-9762
▁arrepen	-9763
▁asfalto	-9764
▁atrasar	-9765
▁baratas	-9766
▁bimetal	-9767
▁bonitas	-9768
▁bonitos	-9769
▁burocra	-9770
▁cancros	-9771
▁colunas	-9772
▁coorden	-9773
▁criarem	-9774
▁cristal	-9775
▁desejar	-9776
▁dominar	-9777
▁egoista	-9778
▁engenho	-9779
▁escadas	-9780
▁escanda	-9781
▁express	-9782
▁falarem	-9783
▁falavam	-9784
▁futuras	-9785
▁galeria	-9786
▁garrafa	-9787
▁hormona	-9788
▁iniciei	-9789
▁iriamos	-9790
▁jupiter	-9791
▁licenca	-9792
▁limitar	-9793
▁manteve	-9794
▁margens	-9795
▁mestres	-9796
▁mestria	-9797
▁passeio	-9798
▁passiva	-9799
▁percebo	-9800
▁peticao	-9801
▁piscina	-9802
▁precoce	-9803
▁procras	-9804
▁puderem	-9805
▁quadros	-9806
▁quintas	-9807
▁rapidas	-9808
▁recordo	-9809
▁redefin	-9810
▁reduzem	-9811
▁regioes	-9812
▁reparei	-9813
▁resumir	-9814
▁retrato	-9815
▁revisao	-9816
▁seducao	-9817
▁similar	-9818
▁substan	-9819
▁sugeriu	-9820
▁tartaru	-9821
▁tentado	-9822
▁trafico	-9823
▁tragico	-9824
▁transpl	-9825
▁tsunami	-9826
▁vinculo	-9827
▁absoluta	-9828
▁aconselh	-9829
▁aplicada	-9830
▁atraente	-9831
▁calorias	-9832
▁capturar	-9833
▁caridade	-9834
▁carnegie	-9835
▁carteira	-9836
▁celebrar	-9837
▁colocamo	-9838
▁colonias	-9839
▁coloquei	-9840
▁comecava	-9841
▁consigam	-9842
▁contrair	-9843
▁cooperar	-9844
▁corredor	-9845
▁criarmos	-9846
▁curiosos	-9847
▁definido	-9848
▁dissesse	-9849
▁domingos	-9850
▁dopamina	-9851
▁escravos	-9852
▁espanhol	-9853
▁estudado	-9854
▁estupida	-9855
▁fantasia	-9856
▁farmacos	-9857
▁fechados	-9858
▁fizessem	-9859
▁foguetao	-9860
▁graffiti	-9861
▁habitats	-9862
▁hardware	-9863
▁importam	-9864
▁importar	-9865
▁iniciais	-9866
▁inovador	-9867
▁inventor	-9868
▁invulgar	-9869
▁islamico	-9870
▁lealdade	-9871
▁liberais	-9872
▁medicoes	-9873
▁migracao	-9874
▁mohammed	-9875
▁mosquite	-9876
▁musicais	-9877
▁namorado	-9878
▁naquelas	-9879
▁nutricao	-9880
▁omnipres	-9881
▁organica	-9882
▁oriental	-9883
▁otimismo	-9884
▁otimista	-9885
▁percebam	-9886
▁periodos	-9887
▁policias	-9888
▁posicion	-9889
▁precisos	-9890
▁previsto	-9891
▁privadas	-9892
▁procurem	-9893
▁quisesse	-9894
▁rastreio	-9895
▁recebido	-9896
▁redencao	-9897
▁respondi	-9898
▁sentiram	-9899
▁tentarem	-9900
▁testamos	-9901
▁tremenda	-9902
▁urgencia	-9903
▁vendedor	-9904
▁veriamos	-9905
▁verifica	-9906
▁voltarem	-9907
▁abundante	-9908
▁afectadas	-9909
▁alimentam	-9910
▁andamento	-9911
▁argentina	-9912
▁arredores	-9913
▁atlantico	-9914
▁cacadores	-9915
▁campanhas	-9916
▁chocolate	-9917
▁correntes	-9918
▁demasiada	-9919
▁desastres	-9920
▁dissessem	-9921
▁envolvida	-9922
▁escolares	-9923
▁escritora	-9924
▁exigencia	-9925
▁existente	-9926
▁existisse	-9927
▁explosoes	-9928
▁genocidio	-9929
▁gramatica	-9930
▁habitacao	-9931
▁historica	-9932
▁homicidio	-9933
▁identific	-9934
▁incidente	-9935
▁indonesia	-9936
▁iniciamos	-9937
▁manifesta	-9938
▁microsoft	-9939
▁orgulhosa	-9940
▁parecidas	-9941
▁potenciar	-9942
▁pronuncia	-9943
▁repararam	-9944
▁similares	-9945
▁simpatico	-9946
▁substitui	-9947
▁surpresas	-9948
▁terminado	-9949
▁tiroteios	-9950
▁treinador	-9951
▁utilizada	-9952
▁aceleracao	-9953
▁aprenderem	-9954
▁apresentou	-9955
▁assistente	-9956
▁automatico	-9957
▁avaliacoes	-9958
▁casamentos	-9959
▁certificar	-9960
▁conclusoes	-9961
▁conectomas	-9962
▁diplomacia	-9963
▁disposicao	-9964
▁distribuir	-9965
▁empenhados	-9966
▁empolgante	-9967
▁engenheiro	-9968
▁esperancas	-9969
▁esquecemos	-9970
▁excelencia	-9971
▁exigencias	-9972
▁funcionava	-9973
▁governacao	-9974
▁horizontal	-9975
▁inesperado	-9976
▁interacoes	-9977
▁interessar	-9978
▁intrigante	-9979
▁introducao	-9980
▁littlebits	-9981
▁mantiveram	-9982
▁pensavamos	-9983
▁progressos	-9984
▁publicamos	-9985
▁realidades	-9986
▁realizacao	-9987
▁relatorios	-9988
▁resistente	-9989
▁sequenciar	-9990
▁silenciosa	-9991
▁storycorps	-9992
▁tentativas	-9993
▁traumatico	-9994
▁basquetebol	-9995
▁centimetros	-9996
▁codificador	-9997
▁conversamos	-9998
▁convincente	-9999
▁democratica	-10000
▁entrevistas	-10001
▁funcionaria	-10002
▁homossexual	-10003
▁honestidade	-10004
▁humanitario	-10005
▁interruptor	-10006
▁negligencia	-10007
▁performance	-10008
▁polarizacao	-10009
▁telefonicas	-10010
▁testemunhar	-10011
▁trabalharam	-10012
▁agrupamentos	-10013
▁comunicacoes	-10014
▁condicionado	-10015
▁conseguissem	-10016
▁contribuicao	-10017
▁desenvolvida	-10018
▁equipamentos	-10019
▁experimental	-10020
▁neurociencia	-10021
▁reconstrucao	-10022
▁reverberacao	-10023
▁temperaturas	-10024
▁classificacao	-10025
▁conseguiremos	-10026
▁entusiasmados	-10027
▁extrovertidos	-10028
▁independentes	-10029
▁institucional	-10030
▁procedimentos	-10031
▁sensibilidade	-10032
▁conseguiriamos	-10033
▁familiarizados	-10034
uf	-10035
yo	-10036
ang	-10037
azz	-10038
cir	-10039
duk	-10040
hat	-10041
hen	-10042
iem	-10043
int	-10044
iou	-10045
kin	-10046
ose	-10047
pir	-10048
rul	-10049
use	-10050
way	-10051
▁jr	-10052
▁up	-10053
▁yr	-10054
acar	-10055
ager	-10056
anim	-10057
bbie	-10058
bera	-10059
cats	-10060
ciou	-10061
cton	-10062
dman	-10063
dure	-10064
ecos	-10065
eite	-10066
ensa	-10067
eric	-10068
esas	-10069
essa	-10070
etta	-10071
ices	-10072
ieis	-10073
iosa	-10074
iria	-10075
jada	-10076
jevo	-10077
king	-10078
leto	-10079
lica	-10080
peis	-10081
phen	-10082
pias	-10083
riar	-10084
riga	-10085
riza	-10086
than	-10087
tona	-10088
ulam	-10089
well	-10090
▁bag	-10091
▁bis	-10092
▁ceo	-10093
▁dri	-10094
▁enc	-10095
▁ere	-10096
▁eus	-10097
▁fda	-10098
▁flo	-10099
▁fri	-10100
▁gch	-10101
▁haz	-10102
▁hea	-10103
▁hil	-10104
▁ida	-10105
▁kin	-10106
▁lap	-10107
▁lee	-10108
▁nam	-10109
▁ode	-10110
▁out	-10111
▁pat	-10112
▁pix	-10113
▁rev	-10114
▁ron	-10115
▁spe	-10116
▁sra	-10117
▁sum	-10118
▁tos	-10119
▁yor	-10120
buntu	-10121
cidas	-10122
colmo	-10123
dasse	-10124
dicos	-10125
divel	-10126
estra	-10127
gando	-10128
iliar	-10129
ingar	-10130
itado	-10131
josas	-10132
lados	-10133
pacao	-10134
pical	-10135
rendo	-10136
somas	-10137
taneo	-10138
tares	-10139
uasao	-10140
vando	-10141
volta	-10142
wanus	-10143
zania	-10144
▁aban	-10145
▁alia	-10146
▁ando	-10147
▁auda	-10148
▁bush	-10149
▁cash	-10150
▁cata	-10151
▁cubo	-10152
▁dali	-10153
▁ergu	-10154
▁imor	-10155
▁juri	-10156
▁king	-10157
▁lobo	-10158
▁marc	-10159
▁mare	-10160
▁mike	-10161
▁mira	-10162
▁nick	-10163
▁ocde	-10164
▁ovos	-10165
▁pole	-10166
▁port	-10167
▁quie	-10168
▁rara	-10169
▁redu	-10170
▁relu	-10171
▁rodo	-10172
▁rumo	-10173
▁sexy	-10174
▁shir	-10175
▁sole	-10176
▁stux	-10177
▁sufo	-10178
▁urso	-10179
▁vaga	-10180
▁veja	-10181
ciosas	-10182
deiras	-10183
gencia	-10184
izavel	-10185
landia	-10186
lywood	-10187
partic	-10188
postos	-10189
rassem	-10190
reiros	-10191
tidoes	-10192
tizado	-10193
tzmann	-10194
umento	-10195
ustria	-10196
vistar	-10197
▁adeus	-10198
▁amava	-10199
▁anual	-10200
▁barro	-10201
▁besou	-10202
▁bronx	-10203
▁bruto	-10204
▁caber	-10205
▁cerne	-10206
▁cobre	-10207
▁conce	-10208
▁dadas	-10209
▁demon	-10210
▁derro	-10211
▁desvi	-10212
▁detes	-10213
▁duras	-10214
▁enfim	-10215
▁fenix	-10216
▁feste	-10217
▁geram	-10218
▁girar	-10219
▁graos	-10220
▁grata	-10221
▁harry	-10222
▁hebra	-10223
▁heroi	-10224
▁impru	-10225
▁inger	-10226
▁insis	-10227
▁lerem	-10228
▁meias	-10229
▁merda	-10230
▁necro	-10231
▁numer	-10232
▁oucam	-10233
▁parei	-10234
▁picos	-10235
▁pinta	-10236
▁preta	-10237
▁ramos	-10238
▁reper	-10239
▁reuni	-10240
▁roger	-10241
▁safar	-10242
▁seman	-10243
▁suica	-10244
▁tirou	-10245
▁tribo	-10246
▁trigo	-10247
▁triun	-10248
▁tubos	-10249
▁usamo	-10250
▁valem	-10251
▁valer	-10252
▁viaja	-10253
▁vigor	-10254
▁virou	-10255
▁xviii	-10256
dutores	-10257
toriais	-10258
▁adorei	-10259
▁amamos	-10260
▁amendo	-10261
▁aponta	-10262
▁aposta	-10263
▁artico	-10264
▁astero	-10265
▁barulh	-10266
▁bencao	-10267
▁campus	-10268
▁cancer	-10269
▁cardio	-10270
▁casaco	-10271
▁chapeu	-10272
▁chover	-10273
▁consta	-10274
▁curtas	-10275
▁dental	-10276
▁desmon	-10277
▁dignos	-10278
▁discre	-10279
▁disfun	-10280
▁edicao	-10281
▁eletro	-10282
▁embaix	-10283
▁emblem	-10284
▁espada	-10285
▁exilio	-10286
▁exista	-10287
▁extras	-10288
▁factor	-10289
▁falado	-10290
▁feiras	-10291
▁festas	-10292
▁figado	-10293
▁fluido	-10294
▁gaiola	-10295
▁gandhi	-10296
▁ganhei	-10297
▁gordos	-10298
▁gritos	-10299
▁holmes	-10300
▁impera	-10301
▁implan	-10302
▁infeta	-10303
▁larvas	-10304
▁lecion	-10305
▁loucas	-10306
▁mandei	-10307
▁manhas	-10308
▁marduk	-10309
▁minima	-10310
▁moldar	-10311
▁nalgum	-10312
▁oculos	-10313
▁ombros	-10314
▁oposta	-10315
▁papeis	-10316
▁peguem	-10317
▁perdao	-10318
▁pesade	-10319
▁pesado	-10320
▁plante	-10321
▁poeira	-10322
▁primas	-10323
▁propus	-10324
▁provou	-10325
▁proxim	-10326
▁quanti	-10327
▁receio	-10328
▁recuar	-10329
▁restri	-10330
▁rodeia	-10331
▁salvou	-10332
▁seguiu	-10333
▁series	-10334
▁sintam	-10335
▁source	-10336
▁suspen	-10337
▁teerao	-10338
▁templo	-10339
▁travar	-10340
▁trazem	-10341
▁tweets	-10342
▁ubuntu	-10343
▁valida	-10344
▁vendem	-10345
▁vestir	-10346
cionados	-10347
entistas	-10348
▁abrigos	-10349
▁acordos	-10350
▁admirar	-10351
▁ajustar	-10352
▁ambicao	-10353
▁amizade	-10354
▁andarem	-10355
▁andares	-10356
▁angulos	-10357
▁antropo	-10358
▁apanhei	-10359
▁atlanta	-10360
▁autismo	-10361
▁autocon	-10362
▁barriga	-10363
▁causado	-10364
▁censura	-10365
▁colecao	-10366
▁comando	-10367
▁cometer	-10368
▁detecao	-10369
▁directo	-10370
▁disparo	-10371
▁educada	-10372
▁entende	-10373
▁enviado	-10374
▁enzimas	-10375
▁estavel	-10376
▁exercer	-10377
▁federal	-10378
▁ficavam	-10379
▁flutuar	-10380
▁forcado	-10381
▁governa	-10382
▁gowanus	-10383
▁gravada	-10384
▁helicop	-10385
▁imagino	-10386
▁impulso	-10387
▁infecao	-10388
▁inorgan	-10389
▁interno	-10390
▁intrins	-10391
▁isolado	-10392
▁maridos	-10393
▁medimos	-10394
▁menores	-10395
▁milenio	-10396
▁ocasiao	-10397
▁oracoes	-10398
▁persegu	-10399
▁prontas	-10400
▁prosseg	-10401
▁quantia	-10402
▁quintal	-10403
▁recolha	-10404
▁recorde	-10405
▁referir	-10406
▁reflete	-10407
▁relogio	-10408
▁reorgan	-10409
▁saberem	-10410
▁sentimo	-10411
▁stephen	-10412
▁tanques	-10413
▁trazido	-10414
▁vestido	-10415
▁visitei	-10416
▁voyager	-10417
▁afetadas	-10418
▁agradeco	-10419
▁aparecia	-10420
▁apreciar	-10421
▁ativismo	-10422
▁batalhas	-10423
▁bombarde	-10424
▁carpinte	-10425
▁castanha	-10426
▁conceber	-10427
▁conduziu	-10428
▁conforto	-10429
▁constroi	-10430
▁consumir	-10431
▁corremos	-10432
▁deixadas	-10433
▁deixando	-10434
▁descrevi	-10435
▁desempre	-10436
▁desertos	-10437
▁destacar	-10438
▁dividida	-10439
▁elegante	-10440
▁embarcar	-10441
▁encolher	-10442
▁entidade	-10443
▁entregar	-10444
▁envolvem	-10445
▁escolhem	-10446
▁espelhos	-10447
▁espertos	-10448
▁exatidao	-10449
▁externos	-10450
▁fabricar	-10451
▁falarmos	-10452
▁falecido	-10453
▁fertiliz	-10454
▁ganharam	-10455
▁gratuito	-10456
▁honduras	-10457
▁honestos	-10458
▁horarios	-10459
▁imitador	-10460
▁inclusao	-10461
▁informal	-10462
▁inteiras	-10463
▁interval	-10464
▁lampadas	-10465
▁marginal	-10466
▁membrana	-10467
▁mineiros	-10468
▁municoes	-10469
▁narracao	-10470
▁nervosos	-10471
▁notaveis	-10472
▁ocupados	-10473
▁palestin	-10474
▁panorama	-10475
▁percorre	-10476
▁policial	-10477
▁preferem	-10478
▁premissa	-10479
▁primaria	-10480
▁projecao	-10481
▁psicosso	-10482
▁recessao	-10483
▁recordar	-10484
▁recupera	-10485
▁reflexao	-10486
▁reformar	-10487
▁repensar	-10488
▁sarajevo	-10489
▁seguindo	-10490
▁seguiram	-10491
▁seleccao	-10492
▁sozinhas	-10493
▁suicidas	-10494
▁tanzania	-10495
▁treinado	-10496
▁tremendo	-10497
▁tristeza	-10498
▁tropical	-10499
▁vietname	-10500
▁aceitavel	-10501
▁acidental	-10502
▁adaptacao	-10503
▁admiracao	-10504
▁aprendido	-10505
▁apresento	-10506
▁argumenta	-10507
▁artistica	-10508
▁avancando	-10509
▁aventuras	-10510
▁bastantes	-10511
▁beneficia	-10512
▁boltzmann	-10513
▁chegarmos	-10514
▁cidadania	-10515
▁criterios	-10516
▁desejamos	-10517
▁emergente	-10518
▁encontras	-10519
▁enganados	-10520
▁escolhido	-10521
▁espreitar	-10522
▁estocolmo	-10523
▁evoluiram	-10524
▁flexiveis	-10525
▁hollywood	-10526
▁inovadora	-10527
▁inventado	-10528
▁investiga	-10529
▁iranianos	-10530
▁limitadas	-10531
▁logistica	-10532
▁magnetica	-10533
▁magnifico	-10534
▁mecanicos	-10535
▁metropoli	-10536
▁milimetro	-10537
▁navegador	-10538
▁paisagens	-10539
▁paralisia	-10540
▁persuadir	-10541
▁pesquisas	-10542
▁quisessem	-10543
▁separados	-10544
▁suricatas	-10545
▁valorizar	-10546
▁violentas	-10547
▁agricultor	-10548
▁amplamente	-10549
▁assinatura	-10550
▁assistimos	-10551
▁bailarinos	-10552
▁brevemente	-10553
▁circulacao	-10554
▁compreendi	-10555
▁confiantes	-10556
▁consigamos	-10557
▁contextual	-10558
▁corredores	-10559
▁cultivamos	-10560
▁demonstram	-10561
▁desenvolvi	-10562
▁dicionario	-10563
▁disponibil	-10564
▁distancias	-10565
▁escrevemos	-10566
▁estrutural	-10567
▁fabricante	-10568
▁flutuacoes	-10569
▁fotografar	-10570
▁habitantes	-10571
▁humilhacao	-10572
▁implacavel	-10573
▁improvavel	-10574
▁inclinacao	-10575
▁inspirados	-10576
▁intangivel	-10577
▁livremente	-10578
▁maliciosos	-10579
▁maravilhas	-10580
▁nanopartic	-10581
▁pesticidas	-10582
▁religiosos	-10583
▁reporteres	-10584
▁smartphone	-10585
▁subsariana	-10586
▁temporaria	-10587
▁terrestres	-10588
▁tolerancia	-10589
▁voluntaria	-10590
▁acampamento	-10591
▁adicionamos	-10592
▁artificiais	-10593
▁comprometer	-10594
▁conseguirei	-10595
▁consistente	-10596
▁conspiracao	-10597
▁construcoes	-10598
▁continuando	-10599
▁controversa	-10600
▁democratico	-10601
▁emprestimos	-10602
▁encontravam	-10603
▁entrevistar	-10604
▁financeiras	-10605
▁funcionavam	-10606
▁iniciativas	-10607
▁interessada	-10608
▁interpretar	-10609
▁negociacoes	-10610
▁perspetivas	-10611
▁polinizacao	-10612
▁presidentes	-10613
▁superficial	-10614
▁trabalharem	-10615
▁verificamos	-10616
▁apartamentos	-10617
▁conseguiamos	-10618
▁curiosamente	-10619
▁diagnosticar	-10620
▁encontrarmos	-10621
▁problematico	-10622
▁radicalmente	-10623
▁ramificacoes	-10624
▁reabilitacao	-10625
▁regularmente	-10626
▁representado	-10627
▁supermercado	-10628
▁abastecimento	-10629
▁autenticidade	-10630
▁originalmente	-10631
▁personalizada	-10632
▁politicamente	-10633
▁reconciliacao	-10634
▁aproveitamento	-10635
▁contrariamente	-10636
▁relacionamento	-10637
nu	-10638
oc	-10639
ue	-10640
byl	-10641
cky	-10642
dil	-10643
eja	-10644
eti	-10645
eto	-10646
fab	-10647
hes	-10648
ign	-10649
ild	-10650
ily	-10651
ius	-10652
mer	-10653
nie	-10654
nis	-10655
ost	-10656
pse	-10657
sur	-10658
tea	-10659
ted	-10660
uda	-10661
urg	-10662
uss	-10663
xos	-10664
▁aa	-10665
▁ax	-10666
▁bb	-10667
▁cp	-10668
▁dm	-10669
▁jb	-10670
▁qa	-10671
▁rv	-10672
▁tk	-10673
▁ya	-10674
▁yo	-10675
alin	-10676
arda	-10677
bens	-10678
brei	-10679
camo	-10680
chos	-10681
ence	-10682
iles	-10683
izem	-10684
less	-10685
meia	-10686
nedy	-10687
plar	-10688
pler	-10689
plex	-10690
quez	-10691
sais	-10692
usor	-10693
wart	-10694
▁boy	-10695
▁cis	-10696
▁dir	-10697
▁ear	-10698
▁elo	-10699
▁evo	-10700
▁exo	-10701
▁hec	-10702
▁hud	-10703
▁hun	-10704
▁ign	-10705
▁leo	-10706
▁lix	-10707
▁off	-10708
▁oms	-10709
▁pap	-10710
▁pic	-10711
▁piz	-10712
▁roe	-10713
▁sug	-10714
▁tah	-10715
▁wil	-10716
andos	-10717
deiro	-10718
domin	-10719
elhar	-10720
endar	-10721
esimo	-10722
filia	-10723
getal	-10724
givas	-10725
grafo	-10726
iario	-10727
inoac	-10728
jeita	-10729
kespe	-10730
nadas	-10731
nific	-10732
nobyl	-10733
polis	-10734
rosao	-10735
talho	-10736
tinha	-10737
veita	-10738
zinha	-10739
▁actu	-10740
▁alan	-10741
▁alon	-10742
▁amem	-10743
▁anna	-10744
▁apol	-10745
▁bali	-10746
▁beat	-10747
▁berk	-10748
▁cabe	-10749
▁cicl	-10750
▁deno	-10751
▁dick	-10752
▁dona	-10753
▁embu	-10754
▁fich	-10755
▁foca	-10756
▁fuga	-10757
▁gere	-10758
▁hack	-10759
▁holo	-10760
▁imer	-10761
▁inau	-10762
▁josh	-10763
▁leio	-10764
▁moto	-10765
▁news	-10766
▁octa	-10767
▁onco	-10768
▁opep	-10769
▁orto	-10770
▁phil	-10771
▁poco	-10772
▁pous	-10773
▁puro	-10774
▁recl	-10775
▁revi	-10776
▁ross	-10777
▁sele	-10778
▁seta	-10779
▁shar	-10780
▁sofa	-10781
▁taca	-10782
▁task	-10783
▁turk	-10784
▁unic	-10785
▁voca	-10786
▁zoom	-10787
baroes	-10788
chetes	-10789
darias	-10790
ericor	-10791
essoes	-10792
idavel	-10793
mantes	-10794
necess	-10795
radora	-10796
restre	-10797
teirao	-10798
▁accen	-10799
▁acost	-10800
▁adorm	-10801
▁alber	-10802
▁ambig	-10803
▁amplo	-10804
▁anali	-10805
▁anjos	-10806
▁antic	-10807
▁aplic	-10808
▁arsen	-10809
▁artic	-10810
▁balan	-10811
▁bambo	-10812
▁bizar	-10813
▁borda	-10814
▁cabel	-10815
▁carru	-10816
▁cloud	-10817
▁corda	-10818
▁crias	-10819
▁despo	-10820
▁difun	-10821
▁diges	-10822
▁donna	-10823
▁duram	-10824
▁ervas	-10825
▁escor	-10826
▁estag	-10827
▁etapa	-10828
▁faixa	-10829
▁fardo	-10830
▁fatia	-10831
▁filas	-10832
▁fisio	-10833
▁foste	-10834
▁gafan	-10835
▁golfe	-10836
▁intri	-10837
▁irrig	-10838
▁laran	-10839
▁leiam	-10840
▁leoes	-10841
▁leves	-10842
▁linfa	-10843
▁macas	-10844
▁maome	-10845
▁milha	-10846
▁mistu	-10847
▁nervo	-10848
▁noiva	-10849
▁notar	-10850
▁notei	-10851
▁ossea	-10852
▁peter	-10853
▁pomos	-10854
▁popul	-10855
▁pouso	-10856
▁proli	-10857
▁recei	-10858
▁recre	-10859
▁renas	-10860
▁resga	-10861
▁tomei	-10862
▁tomem	-10863
▁vinci	-10864
▁viria	-10865
▁vivam	-10866
▁volto	-10867
cricoes	-10868
dencial	-10869
entares	-10870
hamento	-10871
ificada	-10872
memente	-10873
questra	-10874
ridades	-10875
riedade	-10876
tangulo	-10877
tilacao	-10878
trospec	-10879
▁aceito	-10880
▁adorar	-10881
▁afasta	-10882
▁afecta	-10883
▁agarra	-10884
▁ajudem	-10885
▁alivio	-10886
▁aristo	-10887
▁atleta	-10888
▁atores	-10889
▁bandas	-10890
▁bolsos	-10891
▁bonica	-10892
▁causam	-10893
▁cessar	-10894
▁chamem	-10895
▁claros	-10896
▁colher	-10897
▁concep	-10898
▁cromos	-10899
▁deriva	-10900
▁descub	-10901
▁despre	-10902
▁direta	-10903
▁dissem	-10904
▁divers	-10905
▁divide	-10906
▁doador	-10907
▁elevar	-10908
▁escuta	-10909
▁esquad	-10910
▁esquis	-10911
▁estica	-10912
▁estufa	-10913
▁exigir	-10914
▁fazemo	-10915
▁festiv	-10916
▁fortun	-10917
▁fosfor	-10918
▁fraude	-10919
▁hannah	-10920
▁hudson	-10921
▁imitar	-10922
▁isolar	-10923
▁kepler	-10924
▁lesoes	-10925
▁longos	-10926
▁manufa	-10927
▁maslow	-10928
▁matriz	-10929
▁neutro	-10930
▁newton	-10931
▁ordens	-10932
▁ouvida	-10933
▁piadas	-10934
▁plasma	-10935
▁portal	-10936
▁poupam	-10937
▁pratel	-10938
▁refrig	-10939
▁retira	-10940
▁robert	-10941
▁saltos	-10942
▁sincer	-10943
▁solido	-10944
▁sonora	-10945
▁sussur	-10946
▁tabela	-10947
▁tremer	-10948
▁vazios	-10949
▁vissem	-10950
▁vocais	-10951
logistas	-10952
▁aceitei	-10953
▁acertar	-10954
▁acolher	-10955
▁adaptar	-10956
▁afetado	-10957
▁aliados	-10958
▁aminoac	-10959
▁animada	-10960
▁apostar	-10961
▁aquecer	-10962
▁armados	-10963
▁armazem	-10964
▁assinar	-10965
▁audicao	-10966
▁austria	-10967
▁baralho	-10968
▁bilhoes	-10969
▁bocados	-10970
▁cascata	-10971
▁chegado	-10972
▁cintura	-10973
▁coberta	-10974
▁colidir	-10975
▁colisao	-10976
▁comanda	-10977
▁compass	-10978
▁comprou	-10979
▁corpora	-10980
▁correta	-10981
▁costume	-10982
▁crescia	-10983
▁cronica	-10984
▁curador	-10985
▁deparei	-10986
▁desajus	-10987
▁descodi	-10988
▁desejam	-10989
▁diarias	-10990
▁diarios	-10991
▁emblema	-10992
▁escolhe	-10993
▁espetro	-10994
▁espinal	-10995
▁esqueci	-10996
▁estagio	-10997
▁estilos	-10998
▁estudou	-10999
▁fabrico	-11000
▁falaram	-11001
▁favelas	-11002
▁fechada	-11003
▁feridas	-11004
▁florida	-11005
▁fugiram	-11006
▁honesta	-11007
▁honesto	-11008
▁imortal	-11009
▁inadequ	-11010
▁inserir	-11011
▁invasao	-11012
▁kennedy	-11013
▁lancado	-11014
▁levando	-11015
▁lidamos	-11016
▁ligamos	-11017
▁ligarem	-11018
▁lolcats	-11019
▁lutamos	-11020
▁maxilar	-11021
▁medicas	-11022
▁miniatu	-11023
▁minoria	-11024
▁mudaria	-11025
▁nodulos	-11026
▁orelhas	-11027
▁origami	-11028
▁peritos	-11029
▁perplex	-11030
▁princes	-11031
▁queimar	-11032
▁racismo	-11033
▁recifes	-11034
▁reflexo	-11035
▁revelou	-11036
▁rosetta	-11037
▁saberao	-11038
▁sanitas	-11039
▁sexting	-11040
▁sorriso	-11041
▁stewart	-11042
▁stuxnet	-11043
▁templos	-11044
▁textura	-11045
▁tirando	-11046
▁tomaram	-11047
▁tomates	-11048
▁topicos	-11049
▁vegetal	-11050
▁zangado	-11051
▁zimbabu	-11052
bilizacao	-11053
ficamente	-11054
ivelmente	-11055
▁acustica	-11056
▁adoraram	-11057
▁alterado	-11058
▁anunciou	-11059
▁apoiamos	-11060
▁aprendam	-11061
▁arrancar	-11062
▁arterial	-11063
▁atitudes	-11064
▁atrasado	-11065
▁autistas	-11066
▁autonomo	-11067
▁autorais	-11068
▁catolica	-11069
▁cinzenta	-11070
▁coloquem	-11071
▁comboios	-11072
▁comunica	-11073
▁conduzem	-11074
▁converte	-11075
▁coracoes	-11076
▁cortaram	-11077
▁crescido	-11078
▁deixados	-11079
▁deixarem	-11080
▁descobre	-11081
▁descrito	-11082
▁desenhei	-11083
▁destruiu	-11084
▁devolver	-11085
▁diabetes	-11086
▁direcoes	-11087
▁disparar	-11088
▁eletroes	-11089
▁ensinado	-11090
▁escrevia	-11091
▁esmagado	-11092
▁espingar	-11093
▁estatais	-11094
▁exprimir	-11095
▁falantes	-11096
▁ganharem	-11097
▁generosa	-11098
▁governar	-11099
▁gravidez	-11100
▁imaginei	-11101
▁impulsos	-11102
▁infantis	-11103
▁infinita	-11104
▁juntarem	-11105
▁levantam	-11106
▁limitada	-11107
▁mantemos	-11108
▁melhoram	-11109
▁mentiros	-11110
▁mestrado	-11111
▁milenios	-11112
▁musculos	-11113
▁neurocir	-11114
▁objetiva	-11115
▁obsessao	-11116
▁parecida	-11117
▁porcaria	-11118
▁possibil	-11119
▁prejudic	-11120
▁pretende	-11121
▁propinas	-11122
▁reduzida	-11123
▁replicar	-11124
▁reproduz	-11125
▁residuos	-11126
▁resultar	-11127
▁reunimos	-11128
▁salarial	-11129
▁salarios	-11130
▁seguidos	-11131
▁shakespe	-11132
▁solteira	-11133
▁sucedido	-11134
▁sujeitos	-11135
▁suspeita	-11136
▁suspenso	-11137
▁tratados	-11138
▁tubaroes	-11139
▁vendidos	-11140
▁virginia	-11141
▁virtuais	-11142
▁visiveis	-11143
▁voltaria	-11144
▁voltemos	-11145
▁accenture	-11146
▁acordamos	-11147
▁anfitriao	-11148
▁atravessa	-11149
▁atributos	-11150
▁autentico	-11151
▁autoestra	-11152
▁autonomia	-11153
▁avancados	-11154
▁bombeiros	-11155
▁chernobyl	-11156
▁cinzentos	-11157
▁colheitas	-11158
▁colocadas	-11159
▁colocarem	-11160
▁comecarem	-11161
▁comportar	-11162
▁comunicam	-11163
▁concertos	-11164
▁concursos	-11165
▁controlam	-11166
▁converter	-11167
▁crescemos	-11168
▁cresceram	-11169
▁deixarmos	-11170
▁desculpas	-11171
▁desfrutar	-11172
▁desnecess	-11173
▁despertar	-11174
▁destrocos	-11175
▁destruido	-11176
▁detalhada	-11177
▁disturbio	-11178
▁electrica	-11179
▁electrico	-11180
▁estejamos	-11181
▁existirem	-11182
▁favoritos	-11183
▁financiar	-11184
▁flutuacao	-11185
▁habituais	-11186
▁importava	-11187
▁impressos	-11188
▁inclusiva	-11189
▁inclusive	-11190
▁indigenas	-11191
▁instrucao	-11192
▁investido	-11193
▁irrigacao	-11194
▁limitacao	-11195
▁limitados	-11196
▁localizar	-11197
▁mantenham	-11198
▁masculino	-11199
▁memorizar	-11200
▁mexicanos	-11201
▁misericor	-11202
▁movimenta	-11203
▁organicos	-11204
▁parcerias	-11205
▁participa	-11206
▁percebido	-11207
▁perigosas	-11208
▁pioneiros	-11209
▁preparado	-11210
▁preservar	-11211
▁propulsao	-11212
▁protestos	-11213
▁registado	-11214
▁religioso	-11215
▁selvagens	-11216
▁sensiveis	-11217
▁sovietica	-11218
▁tailandia	-11219
▁trabalhou	-11220
cionalmente	-11221
▁abordagens	-11222
▁academicos	-11223
▁altruistas	-11224
▁ambulancia	-11225
▁aparecerem	-11226
▁aprofundar	-11227
▁arquitetos	-11228
▁associados	-11229
▁catastrofe	-11230
▁chegaremos	-11231
▁cognitivos	-11232
▁colocarmos	-11233
▁compressao	-11234
▁conquistas	-11235
▁convidados	-11236
▁desperdica	-11237
▁diferencia	-11238
▁divulgacao	-11239
▁empresaria	-11240
▁envolvente	-11241
▁hierarquia	-11242
▁historicos	-11243
▁inesperada	-11244
▁interativo	-11245
▁inventores	-11246
▁jornalismo	-11247
▁justificar	-11248
▁organizado	-11249
▁permitindo	-11250
▁permitiram	-11251
▁procurando	-11252
▁produzimos	-11253
▁prosseguir	-11254
▁publicados	-11255
▁quarteirao	-11256
▁relevantes	-11257
▁resolvidos	-11258
▁satisfacao	-11259
▁significou	-11260
▁silencioso	-11261
▁simpaticos	-11262
▁subjacente	-11263
▁surpreende	-11264
▁taskrabbit	-11265
▁testemunha	-11266
▁testemunho	-11267
▁transferir	-11268
▁tripulacao	-11269
▁acolhimento	-11270
▁aconteceram	-11271
▁aminoacidos	-11272
▁associacoes	-11273
▁companheiro	-11274
▁competencia	-11275
▁comunitario	-11276
▁danificados	-11277
▁descrevemos	-11278
▁electronica	-11279
▁eletronicas	-11280
▁especificos	-11281
▁espectaculo	-11282
▁frequencias	-11283
▁integridade	-11284
▁interseccao	-11285
▁longevidade	-11286
▁maioritaria	-11287
▁minimamente	-11288
▁observarmos	-11289
▁organizadas	-11290
▁passageiros	-11291
▁pornografia	-11292
▁possibilita	-11293
▁processador	-11294
▁programador	-11295
▁providencia	-11296
▁responderam	-11297
▁smartphones	-11298
▁socialmente	-11299
▁tecnologico	-11300
▁trabalhando	-11301
▁aparecimento	-11302
▁celebridades	-11303
▁coincidencia	-11304
▁concentracao	-11305
▁concorrentes	-11306
▁consideradas	-11307
▁controversia	-11308
▁conveniencia	-11309
▁corretamente	-11310
▁estrangeiros	-11311
▁experimentei	-11312
▁exponenciais	-11313
▁farmaceutica	-11314
▁fragmentacao	-11315
▁interligados	-11316
▁ironicamente	-11317
▁maravilhosos	-11318
▁mundialmente	-11319
▁necessitamos	-11320
▁passivamente	-11321
▁substituicao	-11322
▁supostamente	-11323
▁armazenamento	-11324
▁contabilidade	-11325
▁contemporanea	-11326
▁diagnosticado	-11327
▁discriminacao	-11328
▁drasticamente	-11329
▁flexibilidade	-11330
▁fluorescencia	-11331
▁solidariedade	-11332
▁meteorologicos	-11333
▁personalizados	-11334
▁conscientemente	-11335
▁extraterrestres	-11336
▁impressionantes	-11337
▁simultaneamente	-11338
bm	-11339
ek	-11340
py	-11341
su	-11342
wi	-11343
ani	-11344
box	-11345
chi	-11346
cod	-11347
hhh	-11348
hop	-11349
jes	-11350
lea	-11351
lus	-11352
old	-11353
one	-11354
ong	-11355
ori	-11356
ots	-11357
poe	-11358
ray	-11359
vir	-11360
xit	-11361
▁ms	-11362
▁nt	-11363
▁wo	-11364
▁ze	-11365
cora	-11366
dins	-11367
ecar	-11368
eley	-11369
eres	-11370
fero	-11371
fing	-11372
giam	-11373
hava	-11374
icha	-11375
idal	-11376
idar	-11377
idou	-11378
igda	-11379
imee	-11380
into	-11381
ivin	-11382
izei	-11383
lock	-11384
mper	-11385
oton	-11386
pool	-11387
rano	-11388
rasa	-11389
reme	-11390
rico	-11391
ster	-11392
talm	-11393
tics	-11394
umbo	-11395
velo	-11396
▁bir	-11397
▁blu	-11398
▁cat	-11399
▁ces	-11400
▁chi	-11401
▁cim	-11402
▁eas	-11403
▁fus	-11404
▁gay	-11405
▁has	-11406
▁him	-11407
▁hop	-11408
▁ian	-11409
▁ibm	-11410
▁ilu	-11411
▁ima	-11412
▁ipo	-11413
▁kib	-11414
▁led	-11415
▁noc	-11416
▁ovo	-11417
▁pio	-11418
▁rng	-11419
▁sop	-11420
▁uou	-11421
▁war	-11422
▁win	-11423
▁yea	-11424
alina	-11425
berry	-11426
cunha	-11427
damos	-11428
desse	-11429
dezas	-11430
dinam	-11431
elada	-11432
endic	-11433
estre	-11434
etria	-11435
ganca	-11436
ganta	-11437
giado	-11438
ianos	-11439
icina	-11440
icula	-11441
inhem	-11442
itney	-11443
madas	-11444
molec	-11445
ncial	-11446
omica	-11447
pando	-11448
piram	-11449
ragem	-11450
ridas	-11451
tagon	-11452
talas	-11453
tilar	-11454
tinal	-11455
tonio	-11456
topia	-11457
uliar	-11458
ulose	-11459
▁abol	-11460
▁bala	-11461
▁bear	-11462
▁bert	-11463
▁bolo	-11464
▁bris	-11465
▁chaz	-11466
▁clay	-11467
▁cock	-11468
▁coun	-11469
▁deca	-11470
▁diri	-11471
▁doaa	-11472
▁doar	-11473
▁efem	-11474
▁eman	-11475
▁enfa	-11476
▁eras	-11477
▁esbo	-11478
▁espl	-11479
▁fero	-11480
▁fixa	-11481
▁frac	-11482
▁glor	-11483
▁golf	-11484
▁gota	-11485
▁ipad	-11486
▁kril	-11487
▁lema	-11488
▁lisa	-11489
▁luas	-11490
▁mada	-11491
▁matt	-11492
▁meme	-11493
▁ocup	-11494
▁oita	-11495
▁olhe	-11496
▁pati	-11497
▁peru	-11498
▁pigm	-11499
▁post	-11500
▁puxa	-11501
▁reim	-11502
▁reme	-11503
▁rins	-11504
▁roma	-11505
▁sent	-11506
▁seti	-11507
▁sher	-11508
▁show	-11509
▁sudo	-11510
▁tron	-11511
▁vice	-11512
▁vita	-11513
▁wave	-11514
ecemos	-11515
econom	-11516
estima	-11517
formas	-11518
gentes	-11519
hinhas	-11520
iarios	-11521
icadas	-11522
iciosa	-11523
ificou	-11524
imonio	-11525
inamos	-11526
jeicao	-11527
rinhos	-11528
tencia	-11529
ticoes	-11530
tissem	-11531
tituir	-11532
umeras	-11533
▁adren	-11534
▁afirm	-11535
▁aimee	-11536
▁ajude	-11537
▁alice	-11538
▁amada	-11539
▁andou	-11540
▁arder	-11541
▁arqui	-11542
▁arrum	-11543
▁barba	-11544
▁beach	-11545
▁bocas	-11546
▁bossa	-11547
▁camar	-11548
▁campa	-11549
▁cauda	-11550
▁ceder	-11551
▁cenas	-11552
▁centa	-11553
▁cerim	-11554
▁cinto	-11555
▁click	-11556
▁cobar	-11557
▁cobri	-11558
▁copen	-11559
▁cujos	-11560
▁decif	-11561
▁densa	-11562
▁desac	-11563
▁doces	-11564
▁drive	-11565
▁drone	-11566
▁earth	-11567
▁encer	-11568
▁engol	-11569
▁entro	-11570
▁escas	-11571
▁eufor	-11572
▁excec	-11573
▁fatal	-11574
▁fecho	-11575
▁filip	-11576
▁fixes	-11577
▁folhe	-11578
▁freud	-11579
▁frios	-11580
▁grego	-11581
▁hidra	-11582
▁hiros	-11583
▁icone	-11584
▁inqui	-11585
▁intra	-11586
▁iorqu	-11587
▁jeito	-11588
▁leram	-11589
▁levem	-11590
▁lutas	-11591
▁magoa	-11592
▁mando	-11593
▁masti	-11594
▁minar	-11595
▁modal	-11596
▁modes	-11597
▁munda	-11598
▁nobre	-11599
▁palia	-11600
▁param	-11601
▁pasta	-11602
▁pavim	-11603
▁pegou	-11604
▁perdo	-11605
▁pesar	-11606
▁picar	-11607
▁pizza	-11608
▁pondo	-11609
▁poste	-11610
▁poupa	-11611
▁quinh	-11612
▁rasto	-11613
▁reque	-11614
▁robus	-11615
▁rolar	-11616
▁sabao	-11617
▁saiam	-11618
▁saiba	-11619
▁scott	-11620
▁sinta	-11621
▁skate	-11622
▁sobem	-11623
▁solta	-11624
▁sudao	-11625
▁susce	-11626
▁susci	-11627
▁tetra	-11628
▁tirem	-11629
▁trade	-11630
▁veias	-11631
▁venez	-11632
▁vinda	-11633
▁virei	-11634
▁visce	-11635
▁watts	-11636
cionado	-11637
depress	-11638
discipl	-11639
fluidos	-11640
ificado	-11641
ividade	-11642
lamacao	-11643
ressoes	-11644
ticismo	-11645
tizadas	-11646
▁adicao	-11647
▁adotar	-11648
▁afetam	-11649
▁amigda	-11650
▁assime	-11651
▁autode	-11652
▁avaria	-11653
▁avesso	-11654
▁barril	-11655
▁biomas	-11656
▁blogue	-11657
▁bolhas	-11658
▁borbol	-11659
▁bosnia	-11660
▁brexit	-11661
▁bronze	-11662
▁bubble	-11663
▁cabana	-11664
▁cabine	-11665
▁camera	-11666
▁clubes	-11667
▁colate	-11668
▁coloco	-11669
▁comece	-11670
▁comemo	-11671
▁consis	-11672
▁criava	-11673
▁crocod	-11674
▁cursor	-11675
▁dancas	-11676
▁dantes	-11677
▁desmor	-11678
▁dilema	-11679
▁dislex	-11680
▁doacao	-11681
▁duzias	-11682
▁egipto	-11683
▁elogio	-11684
▁embrul	-11685
▁enviei	-11686
▁escapa	-11687
▁estilh	-11688
▁evolui	-11689
▁expans	-11690
▁faltam	-11691
▁fiavel	-11692
▁formal	-11693
▁fracao	-11694
▁furios	-11695
▁gentil	-11696
▁gostem	-11697
▁hormon	-11698
▁hubble	-11699
▁ideais	-11700
▁ignora	-11701
▁imanes	-11702
▁indire	-11703
▁julgar	-11704
▁julian	-11705
▁kibera	-11706
▁lactea	-11707
▁largar	-11708
▁largas	-11709
▁legais	-11710
▁levava	-11711
▁lexico	-11712
▁mandam	-11713
▁massac	-11714
▁mastro	-11715
▁medido	-11716
▁mentem	-11717
▁mesqui	-11718
▁moinho	-11719
▁moscas	-11720
▁mostro	-11721
▁mounta	-11722
▁multin	-11723
▁narcis	-11724
▁obvias	-11725
▁oferta	-11726
▁oftalm	-11727
▁olhava	-11728
▁operam	-11729
▁palmas	-11730
▁passas	-11731
▁passem	-11732
▁photos	-11733
▁pintou	-11734
▁precip	-11735
▁provin	-11736
▁rachel	-11737
▁reagem	-11738
▁regula	-11739
▁relemb	-11740
▁remove	-11741
▁render	-11742
▁repete	-11743
▁ritmos	-11744
▁rochas	-11745
▁ruidos	-11746
▁russos	-11747
▁saimos	-11748
▁salvam	-11749
▁savana	-11750
▁sermao	-11751
▁simula	-11752
▁sofreu	-11753
▁tahrir	-11754
▁tambor	-11755
▁tocava	-11756
▁tomate	-11757
▁tratam	-11758
▁turing	-11759
▁veroes	-11760
▁viemos	-11761
▁vislum	-11762
▁visoes	-11763
▁vizinh	-11764
▁voltas	-11765
graficos	-11766
ionistas	-11767
ntemente	-11768
pensavel	-11769
ravatura	-11770
vimentos	-11771
▁achavam	-11772
▁agulhas	-11773
▁alcunha	-11774
▁alemaes	-11775
▁alexand	-11776
▁algodao	-11777
▁alteram	-11778
▁alucina	-11779
▁andavam	-11780
▁anonima	-11781
▁apendic	-11782
▁aptidao	-11783
▁arbitra	-11784
▁arranja	-11785
▁assenta	-11786
▁assinal	-11787
▁atomica	-11788
▁autoriz	-11789
▁balanca	-11790
▁bondade	-11791
▁cadaver	-11792
▁calcula	-11793
▁carrega	-11794
▁cavalos	-11795
▁charlie	-11796
▁chegava	-11797
▁choques	-11798
▁ciberne	-11799
▁cigarro	-11800
▁comeram	-11801
▁complem	-11802
▁constra	-11803
▁contado	-11804
▁coreano	-11805
▁cortado	-11806
▁cortina	-11807
▁creches	-11808
▁debates	-11809
▁decidem	-11810
▁dedicar	-11811
▁desconf	-11812
▁devesse	-11813
▁diferem	-11814
▁directa	-11815
▁dizerem	-11816
▁elimina	-11817
▁encarre	-11818
▁encoraj	-11819
▁escuros	-11820
▁escutem	-11821
▁esperei	-11822
▁esquema	-11823
▁estando	-11824
▁estatal	-11825
▁estereo	-11826
▁estranh	-11827
▁executa	-11828
▁fascina	-11829
▁figuras	-11830
▁filtrar	-11831
▁formado	-11832
▁fraccao	-11833
▁fraldas	-11834
▁garante	-11835
▁habitos	-11836
▁hackers	-11837
▁heranca	-11838
▁humilde	-11839
▁igrejas	-11840
▁indices	-11841
▁indifer	-11842
▁ironico	-11843
▁isolada	-11844
▁jackson	-11845
▁jardins	-11846
▁judaica	-11847
▁julgava	-11848
▁lacunas	-11849
▁martelo	-11850
▁meninos	-11851
▁missoes	-11852
▁mochila	-11853
▁mortais	-11854
▁mutacao	-11855
▁noturno	-11856
▁nucleos	-11857
▁ocupado	-11858
▁opostos	-11859
▁permita	-11860
▁permiti	-11861
▁pesados	-11862
▁petalas	-11863
▁pilares	-11864
▁posters	-11865
▁potente	-11866
▁privile	-11867
▁queixar	-11868
▁quentes	-11869
▁rapidez	-11870
▁replica	-11871
▁reprimi	-11872
▁rituais	-11873
▁seroton	-11874
▁tempora	-11875
▁tiraram	-11876
▁tomadas	-11877
▁tomarem	-11878
▁tratada	-11879
▁tribais	-11880
▁unicorn	-11881
▁urbanas	-11882
▁vendida	-11883
▁viverem	-11884
▁votaram	-11885
▁walmart	-11886
icultores	-11887
ioterapia	-11888
▁abandono	-11889
▁acordado	-11890
▁acostuma	-11891
▁adoraria	-11892
▁afetados	-11893
▁agitando	-11894
▁alavanca	-11895
▁animados	-11896
▁aplaudir	-11897
▁aplicado	-11898
▁aprendeu	-11899
▁arbustos	-11900
▁arquivos	-11901
▁arriscar	-11902
▁associar	-11903
▁astrofis	-11904
▁atribuir	-11905
▁berkeley	-11906
▁biomolec	-11907
▁castanho	-11908
▁chegando	-11909
▁cinzento	-11910
▁colocada	-11911
▁comandos	-11912
▁combinam	-11913
▁conhecam	-11914
▁contabil	-11915
▁contagio	-11916
▁convence	-11917
▁convidar	-11918
▁declinio	-11919
▁demonios	-11920
▁denuncia	-11921
▁derrubar	-11922
▁deslocar	-11923
▁dessalin	-11924
▁distribu	-11925
▁distrito	-11926
▁elastica	-11927
▁elevadas	-11928
▁empurrar	-11929
▁entregue	-11930
▁enviarem	-11931
▁escrevam	-11932
▁espalhou	-11933
▁etiqueta	-11934
▁executar	-11935
▁expostas	-11936
▁fabulosa	-11937
▁fantasma	-11938
▁festival	-11939
▁financas	-11940
▁forcados	-11941
▁garantia	-11942
▁garganta	-11943
▁gostavam	-11944
▁hibridos	-11945
▁imaginam	-11946
▁incendio	-11947
▁infeccao	-11948
▁inimigos	-11949
▁instavel	-11950
▁internos	-11951
▁inumeras	-11952
▁legitimo	-11953
▁leitores	-11954
▁levantei	-11955
▁libertam	-11956
▁manterem	-11957
▁mecanico	-11958
▁minorias	-11959
▁misturar	-11960
▁morrerem	-11961
▁nascidos	-11962
▁neurolog	-11963
▁obcecada	-11964
▁obedecer	-11965
▁observei	-11966
▁ocorrido	-11967
▁olhadela	-11968
▁organico	-11969
▁partimos	-11970
▁passando	-11971
▁peculiar	-11972
▁pesadelo	-11973
▁prazeres	-11974
▁precioso	-11975
▁principe	-11976
▁realista	-11977
▁refletir	-11978
▁reparado	-11979
▁repercus	-11980
▁reservas	-11981
▁retirado	-11982
▁ridiculo	-11983
▁salvador	-11984
▁sauditas	-11985
▁seriamos	-11986
▁servidor	-11987
▁singular	-11988
▁souberem	-11989
▁suspeito	-11990
▁temporal	-11991
▁tentacao	-11992
▁tonelada	-11993
▁tranquil	-11994
▁tratamos	-11995
▁travagem	-11996
▁valiosas	-11997
▁variavel	-11998
▁viajamos	-11999
▁vibracao	-12000
▁vinganca	-12001
▁violento	-12002
▁virtudes	-12003
▁viviamos	-12004
▁websites	-12005
▁williams	-12006
▁wireless	-12007
▁zelandia	-12008
▁zimbabue	-12009
▁aceitacao	-12010
▁aceitamos	-12011
▁acordados	-12012
▁activados	-12013
▁adaptavel	-12014
▁aleatorio	-12015
▁apercebem	-12016
▁aproveita	-12017
▁armazenar	-12018
▁arriscada	-12019
▁aumentada	-12020
▁capacitar	-12021
▁carruagem	-12022
▁colectiva	-12023
▁combinado	-12024
▁comecavam	-12025
▁comparada	-12026
▁concordam	-12027
▁confiamos	-12028
▁confissao	-12029
▁congelado	-12030
▁conselhos	-12031
▁construiu	-12032
▁contratos	-12033
▁controlos	-12034
▁denisovan	-12035
▁descansar	-12036
▁descontra	-12037
▁desencade	-12038
▁desenhada	-12039
▁distingue	-12040
▁dramatico	-12041
▁espessura	-12042
▁estimacao	-12043
▁excedente	-12044
▁fenomenal	-12045
▁foguetoes	-12046
▁generosos	-12047
▁geometria	-12048
▁glandulas	-12049
▁guardados	-12050
▁habitavel	-12051
▁historial	-12052
▁humildade	-12053
▁ideologia	-12054
▁inseguras	-12055
▁irritante	-12056
▁libertado	-12057
▁manchetes	-12058
▁maximizar	-12059
▁melhorias	-12060
▁mobilizar	-12061
▁negativas	-12062
▁negativos	-12063
▁parecemos	-12064
▁percecoes	-12065
▁portateis	-12066
▁potencias	-12067
▁preferiam	-12068
▁prejudica	-12069
▁prevencao	-12070
▁princeton	-12071
▁procurava	-12072
▁profundos	-12073
▁protocolo	-12074
▁questiona	-12075
▁recomenda	-12076
▁recomendo	-12077
▁reduzindo	-12078
▁religiosa	-12079
▁repetidas	-12080
▁respeitos	-12081
▁restantes	-12082
▁retangulo	-12083
▁salientar	-12084
▁separadas	-12085
▁sobrevive	-12086
▁telefonar	-12087
▁treinados	-12088
▁utilizado	-12089
▁vestigios	-12090
▁aborrecido	-12091
▁abrangente	-12092
▁adicionais	-12093
▁adrenalina	-12094
▁analisamos	-12095
▁angariamos	-12096
▁brinquedos	-12097
▁celebracao	-12098
▁centimetro	-12099
▁cicatrizes	-12100
▁contribuem	-12101
▁controlada	-12102
▁controlado	-12103
▁convidamos	-12104
▁desenhamos	-12105
▁desenrolar	-12106
▁detergente	-12107
▁ecologicos	-12108
▁economizar	-12109
▁empresario	-12110
▁envolvidas	-12111
▁espingarda	-12112
▁estariamos	-12113
▁excecional	-12114
▁ferimentos	-12115
▁fortemente	-12116
▁infeciosas	-12117
▁insignific	-12118
▁inspirador	-12119
▁interfaces	-12120
▁interiores	-12121
▁inventamos	-12122
▁largamente	-12123
▁levantaram	-12124
▁movimentar	-12125
▁muitissimo	-12126
▁narrativas	-12127
▁necessitam	-12128
▁operatorio	-12129
▁pagamentos	-12130
▁patrimonio	-12131
▁perguntava	-12132
▁pescadores	-12133
▁potenciais	-12134
▁preocupada	-12135
▁procrastin	-12136
▁propagacao	-12137
▁requisitos	-12138
▁reutilizar	-12139
▁simultaneo	-12140
▁superpoder	-12141
▁tartarugas	-12142
▁telefonica	-12143
▁transporta	-12144
▁universais	-12145
▁vendedores	-12146
▁ventilacao	-12147
dimensionais	-12148
▁acompanhado	-12149
▁acontecesse	-12150
▁antidepress	-12151
▁apresentada	-12152
▁aproximacao	-12153
▁arqueologos	-12154
▁assistentes	-12155
▁atentamente	-12156
▁capacitacao	-12157
▁classificar	-12158
▁comunicamos	-12159
▁concretizar	-12160
▁conservador	-12161
▁considerada	-12162
▁construirem	-12163
▁democracias	-12164
▁dependencia	-12165
▁desperdicar	-12166
▁dinossauros	-12167
▁educacional	-12168
▁eletronicos	-12169
▁empresarial	-12170
▁entendermos	-12171
▁escravatura	-12172
▁existencial	-12173
▁experimenta	-12174
▁extremidade	-12175
▁fascinantes	-12176
▁helicoptero	-12177
▁instantanea	-12178
▁microbianas	-12179
▁organizados	-12180
▁plataformas	-12181
▁preconceito	-12182
▁programados	-12183
▁proximidade	-12184
▁quisessemos	-12185
▁respondemos	-12186
▁seleccionar	-12187
▁shakespeare	-12188
▁sofisticada	-12189
▁testemunhas	-12190
▁trabalhavam	-12191
▁tunelamento	-12192
▁complicacoes	-12193
▁demonstramos	-12194
▁determinacao	-12195
▁espectacular	-12196
▁hamburgueres	-12197
▁imortalidade	-12198
▁interessadas	-12199
▁introduzidos	-12200
▁perspectivas	-12201
▁planificacao	-12202
▁preferencias	-12203
▁prostituicao	-12204
▁publicamente	-12205
▁questionario	-12206
▁regulamentos	-12207
▁revolucionar	-12208
▁simplicidade	-12209
▁sofisticados	-12210
▁transformado	-12211
▁compreensivel	-12212
▁desagradaveis	-12213
▁gravitacional	-12214
▁impressionado	-12215
▁infinitamente	-12216
▁introvertidos	-12217
▁perigosamente	-12218
▁supermercados	-12219
▁transformamos	-12220
▁transformando	-12221
▁universitaria	-12222
▁aconselhamento	-12223
▁caracteristico	-12224
▁conseguissemos	-12225
▁especializados	-12226
▁significativas	-12227
▁neurocientistas	-12228
gl	-12229
hn	-12230
ku	-12231
wd	-12232
alo	-12233
aza	-12234
bay	-12235
ble	-12236
eil	-12237
eon	-12238
ete	-12239
flu	-12240
gur	-12241
hoo	-12242
iri	-12243
ise	-12244
ist	-12245
ize	-12246
kea	-12247
kel	-12248
lem	-12249
nan	-12250
rez	-12251
sey	-12252
xas	-12253
yma	-12254
▁bp	-12255
▁cd	-12256
▁hm	-12257
adha	-12258
alha	-12259
arak	-12260
brir	-12261
ciei	-12262
corn	-12263
cron	-12264
deza	-12265
dito	-12266
eado	-12267
edas	-12268
emas	-12269
enal	-12270
eron	-12271
ffer	-12272
gers	-12273
gras	-12274
hima	-12275
icia	-12276
icil	-12277
itao	-12278
itud	-12279
lada	-12280
lash	-12281
lhos	-12282
lins	-12283
load	-12284
maco	-12285
mite	-12286
orem	-12287
oros	-12288
pete	-12289
phic	-12290
pite	-12291
quen	-12292
rase	-12293
roma	-12294
thur	-12295
town	-12296
umas	-12297
umes	-12298
verm	-12299
▁amy	-12300
▁asn	-12301
▁ave	-12302
▁bbc	-12303
▁bud	-12304
▁cle	-12305
▁dna	-12306
▁dru	-12307
▁fox	-12308
▁haw	-12309
▁inu	-12310
▁kms	-12311
▁loc	-12312
▁mam	-12313
▁mee	-12314
▁mod	-12315
▁mub	-12316
▁nik	-12317
▁ond	-12318
▁orf	-12319
▁pne	-12320
▁pru	-12321
▁pse	-12322
▁rim	-12323
▁rob	-12324
▁set	-12325
▁sis	-12326
▁vel	-12327
▁vor	-12328
▁wag	-12329
▁wol	-12330
belas	-12331
bique	-12332
borou	-12333
carga	-12334
copia	-12335
dacao	-12336
ecido	-12337
enofo	-12338
ering	-12339
fique	-12340
fonia	-12341
gimos	-12342
guson	-12343
heira	-12344
ianas	-12345
icias	-12346
inoso	-12347
ipcar	-12348
irobi	-12349
juana	-12350
mania	-12351
meias	-12352
ologo	-12353
ponho	-12354
racha	-12355
rarem	-12356
ravel	-12357
rindo	-12358
satis	-12359
tanas	-12360
tenta	-12361
tezas	-12362
trais	-12363
trong	-12364
tucky	-12365
uncao	-12366
ustia	-12367
vania	-12368
vante	-12369
vidar	-12370
▁abal	-12371
▁agem	-12372
▁agru	-12373
▁alum	-12374
▁amam	-12375
▁ango	-12376
▁anor	-12377
▁ariz	-12378
▁cela	-12379
▁cera	-12380
▁clon	-12381
▁cros	-12382
▁dave	-12383
▁dedi	-12384
▁dren	-12385
▁ebay	-12386
▁elon	-12387
▁emig	-12388
▁empo	-12389
▁ente	-12390
▁erva	-12391
▁estr	-12392
▁fais	-12393
▁feia	-12394
▁fino	-12395
▁fixo	-12396
▁ford	-12397
▁gela	-12398
▁genu	-12399
▁head	-12400
▁herb	-12401
▁hong	-12402
▁ikea	-12403
▁ilim	-12404
▁inum	-12405
▁inva	-12406
▁jazz	-12407
▁leoa	-12408
▁lord	-12409
▁mano	-12410
▁meda	-12411
▁mina	-12412
▁moni	-12413
▁mooc	-12414
▁muco	-12415
▁nevo	-12416
▁odia	-12417
▁oico	-12418
▁paus	-12419
▁peer	-12420
▁pref	-12421
▁prov	-12422
▁rain	-12423
▁refl	-12424
▁reis	-12425
▁russ	-12426
▁sede	-12427
▁swan	-12428
▁taxi	-12429
▁tern	-12430
▁teso	-12431
▁tomb	-12432
▁tuas	-12433
▁tutu	-12434
▁vela	-12435
▁wide	-12436
adhafi	-12437
cadora	-12438
cassez	-12439
copios	-12440
dessem	-12441
dutora	-12442
ecacao	-12443
ecidos	-12444
ensivo	-12445
entada	-12446
eracia	-12447
guemos	-12448
gueses	-12449
icaram	-12450
inario	-12451
issima	-12452
itimas	-12453
logias	-12454
pacoes	-12455
piente	-12456
terdao	-12457
terona	-12458
ticais	-12459
tricos	-12460
▁aerea	-12461
▁alega	-12462
▁anedo	-12463
▁apeti	-12464
▁asilo	-12465
▁banjo	-12466
▁bilhe	-12467
▁bonus	-12468
▁broad	-12469
▁cacar	-12470
▁cafes	-12471
▁calma	-12472
▁cansa	-12473
▁cargo	-12474
▁censu	-12475
▁chate	-12476
▁coach	-12477
▁coste	-12478
▁crowd	-12479
▁cruza	-12480
▁cujas	-12481
▁damas	-12482
▁dedic	-12483
▁derem	-12484
▁desar	-12485
▁desej	-12486
▁deson	-12487
▁dissi	-12488
▁divor	-12489
▁duche	-12490
▁eleva	-12491
▁elite	-12492
▁elvis	-12493
▁encam	-12494
▁encos	-12495
▁estri	-12496
▁ether	-12497
▁fanto	-12498
▁fazes	-12499
▁febre	-12500
▁fieis	-12501
▁frene	-12502
▁galil	-12503
▁idoso	-12504
▁indis	-12505
▁irman	-12506
▁irmos	-12507
▁isaac	-12508
▁jones	-12509
▁lapis	-12510
▁lares	-12511
▁largo	-12512
▁lente	-12513
▁leque	-12514
▁ligou	-12515
▁links	-12516
▁lutam	-12517
▁mania	-12518
▁matam	-12519
▁migra	-12520
▁milag	-12521
▁milho	-12522
▁mitos	-12523
▁mocam	-12524
▁mudem	-12525
▁naves	-12526
▁negar	-12527
▁nicho	-12528
▁oicam	-12529
▁optar	-12530
▁palma	-12531
▁papas	-12532
▁papua	-12533
▁peers	-12534
▁pombo	-12535
▁porte	-12536
▁preca	-12537
▁previ	-12538
▁primi	-12539
▁qaeda	-12540
▁queix	-12541
▁radar	-12542
▁raros	-12543
▁remon	-12544
▁renda	-12545
▁resis	-12546
▁reter	-12547
▁rotas	-12548
▁russa	-12549
▁salta	-12550
▁separ	-12551
▁shirt	-12552
▁simon	-12553
▁soava	-12554
▁state	-12555
▁subor	-12556
▁subur	-12557
▁suina	-12558
▁talib	-12559
▁traze	-12560
▁treta	-12561
▁tripl	-12562
▁trump	-12563
▁unhas	-12564
▁utero	-12565
▁vacas	-12566
▁vendo	-12567
▁venti	-12568
▁vigar	-12569
▁virao	-12570
▁woody	-12571
bulario	-12572
essante	-12573
feicoes	-12574
grafias	-12575
gueiras	-12576
icadeza	-12577
icilina	-12578
iciosas	-12579
isticos	-12580
quistar	-12581
sexuais	-12582
teiroes	-12583
terapia	-12584
tosfera	-12585
▁acasal	-12586
▁adapta	-12587
▁adulto	-12588
▁albert	-12589
▁alquim	-12590
▁analog	-12591
▁antece	-12592
▁antiqu	-12593
▁arthur	-12594
▁assomb	-12595
▁ativar	-12596
▁auscul	-12597
▁avanca	-12598
▁berlim	-12599
▁biblia	-12600
▁bienal	-12601
▁bolsas	-12602
▁calado	-12603
▁camisa	-12604
▁cantor	-12605
▁cargos	-12606
▁carter	-12607
▁cemite	-12608
▁chamas	-12609
▁chaves	-12610
▁cheryl	-12611
▁ciclos	-12612
▁clarao	-12613
▁colera	-12614
▁colomb	-12615
▁connec	-12616
▁contei	-12617
▁crises	-12618
▁cristo	-12619
▁desceu	-12620
▁despes	-12621
▁dirigi	-12622
▁discos	-12623
▁disney	-12624
▁dispor	-12625
▁disser	-12626
▁dissol	-12627
▁donald	-12628
▁embele	-12629
▁emitir	-12630
▁encher	-12631
▁enfase	-12632
▁engren	-12633
▁enviem	-12634
▁equivo	-12635
▁erosao	-12636
▁esplen	-12637
▁eticas	-12638
▁falsas	-12639
▁faltar	-12640
▁fluxos	-12641
▁fresca	-12642
▁fundir	-12643
▁futura	-12644
▁gastam	-12645
▁genial	-12646
▁gestos	-12647
▁gostei	-12648
▁gramas	-12649
▁gratos	-12650
▁guiado	-12651
▁humido	-12652
▁iceber	-12653
▁icones	-12654
▁imobil	-12655
▁inaugu	-12656
▁isabel	-12657
▁jitney	-12658
▁juntei	-12659
▁labios	-12660
▁maluca	-12661
▁mangas	-12662
▁massas	-12663
▁matado	-12664
▁maxima	-12665
▁medios	-12666
▁metais	-12667
▁milion	-12668
▁modern	-12669
▁moedas	-12670
▁morada	-12671
▁mostre	-12672
▁norman	-12673
▁obesos	-12674
▁opress	-12675
▁optica	-12676
▁pacote	-12677
▁parker	-12678
▁patrao	-12679
▁pensas	-12680
▁pergam	-12681
▁pilhas	-12682
▁pintei	-12683
▁poemas	-12684
▁porcao	-12685
▁poroso	-12686
▁portos	-12687
▁potter	-12688
▁pragma	-12689
▁praias	-12690
▁presti	-12691
▁previa	-12692
▁pseudo	-12693
▁queixa	-12694
▁reivin	-12695
▁repito	-12696
▁ruinas	-12697
▁safari	-12698
▁saindo	-12699
▁saltou	-12700
▁schwar	-12701
▁sentam	-12702
▁sentin	-12703
▁serias	-12704
▁solida	-12705
▁sorrir	-12706
▁steven	-12707
▁subtra	-12708
▁testos	-12709
▁tirado	-12710
▁toalha	-12711
▁torres	-12712
▁tremor	-12713
▁uranio	-12714
▁veneno	-12715
▁viajam	-12716
▁victor	-12717
▁viesse	-12718
▁violar	-12719
▁vivida	-12720
▁xenofo	-12721
dinamica	-12722
jacentes	-12723
ologicas	-12724
osamente	-12725
ralidade	-12726
tifiquem	-12727
▁abrevia	-12728
▁abriram	-12729
▁acender	-12730
▁afirmar	-12731
▁alianca	-12732
▁almocos	-12733
▁alterou	-12734
▁aluguer	-12735
▁apanhou	-12736
▁apertar	-12737
▁apontou	-12738
▁arizona	-12739
▁armadas	-12740
▁arquivo	-12741
▁assento	-12742
▁assumem	-12743
▁atentos	-12744
▁atracao	-12745
▁automon	-12746
▁autores	-12747
▁avaliam	-12748
▁balines	-12749
▁baseiam	-12750
▁biologo	-12751
▁bipolar	-12752
▁blogues	-12753
▁camarao	-12754
▁cameron	-12755
▁capitao	-12756
▁carater	-12757
▁cartoon	-12758
▁castigo	-12759
▁chegara	-12760
▁cinquen	-12761
▁circula	-12762
▁clinton	-12763
▁coberto	-12764
▁colmeia	-12765
▁condado	-12766
▁confiam	-12767
▁confirm	-12768
▁conform	-12769
▁confuso	-12770
▁conselh	-12771
▁consolo	-12772
▁contras	-12773
▁convite	-12774
▁coopera	-12775
▁culpada	-12776
▁debater	-12777
▁decorre	-12778
▁defende	-12779
▁defesas	-12780
▁definem	-12781
▁desenha	-12782
▁destina	-12783
▁dezasse	-12784
▁digitar	-12785
▁dividas	-12786
▁electro	-12787
▁embaixa	-12788
▁emergir	-12789
▁emissao	-12790
▁empurra	-12791
▁entendi	-12792
▁entendo	-12793
▁entrava	-12794
▁enxaque	-12795
▁escalar	-12796
▁esconde	-12797
▁esgotos	-12798
▁esmagar	-12799
▁espanto	-12800
▁esquece	-12801
▁esticar	-12802
▁estudam	-12803
▁existam	-12804
▁exposto	-12805
▁faltava	-12806
▁filmado	-12807
▁fluidos	-12808
▁fracoes	-12809
▁funeral	-12810
▁gatinho	-12811
▁goering	-12812
▁hawking	-12813
▁helices	-12814
▁heteros	-12815
▁higiene	-12816
▁idiotas	-12817
▁ilusoes	-12818
▁inducao	-12819
▁ingenuo	-12820
▁insatis	-12821
▁insecto	-12822
▁inuteis	-12823
▁japones	-12824
▁jordans	-12825
▁kadhafi	-12826
▁laminas	-12827
▁levados	-12828
▁marinha	-12829
▁massiva	-12830
▁miseria	-12831
▁monstro	-12832
▁morcego	-12833
▁mubarak	-12834
▁nairobi	-12835
▁nativas	-12836
▁nervosa	-12837
▁notacao	-12838
▁obrigar	-12839
▁obterem	-12840
▁octavio	-12841
▁outrora	-12842
▁pegadas	-12843
▁plantem	-12844
▁polegar	-12845
▁popcorn	-12846
▁predios	-12847
▁project	-12848
▁protoes	-12849
▁rabisco	-12850
▁rebelde	-12851
▁recorte	-12852
▁remotos	-12853
▁residem	-12854
▁rodeiam	-12855
▁sincron	-12856
▁soletra	-12857
▁solidao	-12858
▁supremo	-12859
▁tabelas	-12860
▁telecom	-12861
▁tentava	-12862
▁tiradas	-12863
▁tocamos	-12864
▁tornava	-12865
▁turquia	-12866
▁valvula	-12867
▁viragem	-12868
▁voltara	-12869
didamente	-12870
tenimento	-12871
toriedade	-12872
transmiss	-12873
▁absoluto	-12874
▁acumular	-12875
▁agitacao	-12876
▁ajudaria	-12877
▁alfabeto	-12878
▁aluminio	-12879
▁amadores	-12880
▁angustia	-12881
▁apanhado	-12882
▁aquatico	-12883
▁assustar	-12884
▁autoriza	-12885
▁borracha	-12886
▁calendar	-12887
▁capitaes	-12888
▁causados	-12889
▁cavernas	-12890
▁chamavam	-12891
▁chegarem	-12892
▁cineasta	-12893
▁citacoes	-12894
▁classica	-12895
▁coerente	-12896
▁colmeias	-12897
▁concordo	-12898
▁confirma	-12899
▁conscien	-12900
▁consenso	-12901
▁continue	-12902
▁convidou	-12903
▁corajosa	-12904
▁cristaos	-12905
▁dediquei	-12906
▁defensor	-12907
▁delibera	-12908
▁desculpe	-12909
▁desigual	-12910
▁desvalor	-12911
▁dirigida	-12912
▁dirigido	-12913
▁disparou	-12914
▁disposto	-12915
▁download	-12916
▁egoistas	-12917
▁entendam	-12918
▁entradas	-12919
▁envelope	-12920
▁enviamos	-12921
▁enviaram	-12922
▁escassez	-12923
▁esquadra	-12924
▁estatica	-12925
▁estimula	-12926
▁excecoes	-12927
▁excepcao	-12928
▁exclusao	-12929
▁expresso	-12930
▁extremos	-12931
▁fabuloso	-12932
▁falharam	-12933
▁falsario	-12934
▁fascinio	-12935
▁ferguson	-12936
▁fraqueza	-12937
▁gelatina	-12938
▁hormonal	-12939
▁identico	-12940
▁imaginas	-12941
▁imitacao	-12942
▁incomodo	-12943
▁indeseja	-12944
▁indicios	-12945
▁infernos	-12946
▁inflexao	-12947
▁informar	-12948
▁ingleses	-12949
▁insulina	-12950
▁integral	-12951
▁introver	-12952
▁invasiva	-12953
▁iraniana	-12954
▁irlandes	-12955
▁kentucky	-12956
▁lancaram	-12957
▁legendas	-12958
▁leituras	-12959
▁libertou	-12960
▁licencas	-12961
▁longitud	-12962
▁materias	-12963
▁mexicano	-12964
▁moderada	-12965
▁montagem	-12966
▁montamos	-12967
▁negociar	-12968
▁nenhumas	-12969
▁nevoeiro	-12970
▁oferecem	-12971
▁olhassem	-12972
▁oradores	-12973
▁perdidas	-12974
▁poluente	-12975
▁pormenor	-12976
▁porreiro	-12977
▁precisei	-12978
▁predador	-12979
▁predomin	-12980
▁preenche	-12981
▁pressoes	-12982
▁primario	-12983
▁prometeu	-12984
▁promisso	-12985
▁proponho	-12986
▁protesto	-12987
▁quadrada	-12988
▁quererem	-12989
▁rabiscos	-12990
▁rebentar	-12991
▁recolhem	-12992
▁reforcar	-12993
▁regenera	-12994
▁regressa	-12995
▁rejeicao	-12996
▁relativa	-12997
▁republic	-12998
▁requerem	-12999
▁resilina	-13000
▁resultam	-13001
▁retencao	-13002
▁reuniram	-13003
▁roubadas	-13004
▁saibamos	-13005
▁seguimos	-13006
▁sondagem	-13007
▁soubemos	-13008
▁sucessos	-13009
▁sudoeste	-13010
▁suicidou	-13011
▁supervis	-13012
▁tangivel	-13013
▁terminal	-13014
▁tomarmos	-13015
▁transbor	-13016
▁transcen	-13017
▁trilhoes	-13018
▁valvulas	-13019
▁vitamina	-13020
▁acompanha	-13021
▁admiravel	-13022
▁altruista	-13023
▁apanhamos	-13024
▁aplicadas	-13025
▁arriscado	-13026
▁artesanal	-13027
▁artificio	-13028
▁atingimos	-13029
▁auditorio	-13030
▁automacao	-13031
▁avancadas	-13032
▁biografia	-13033
▁candidato	-13034
▁ciclovias	-13035
▁colocando	-13036
▁composito	-13037
▁compramos	-13038
▁confronto	-13039
▁contactar	-13040
▁contentes	-13041
▁contestar	-13042
▁contextos	-13043
▁contornar	-13044
▁criptodiv	-13045
▁crocodilo	-13046
▁depositar	-13047
▁desastros	-13048
▁descubram	-13049
▁destinado	-13050
▁dinamicas	-13051
▁divididos	-13052
▁ecologico	-13053
▁eliminado	-13054
▁embalagem	-13055
▁entendido	-13056
▁enterrado	-13057
▁entidades	-13058
▁erradicar	-13059
▁escombros	-13060
▁escondida	-13061
▁especimes	-13062
▁estimular	-13063
▁evolucion	-13064
▁excitacao	-13065
▁expedicao	-13066
▁fabricado	-13067
▁feminista	-13068
▁florestal	-13069
▁fotografa	-13070
▁funcionem	-13071
▁garantido	-13072
▁ignoradas	-13073
▁iluminado	-13074
▁imaginado	-13075
▁imunidade	-13076
▁incluimos	-13077
▁incomodar	-13078
▁infraverm	-13079
▁instantes	-13080
▁intermedi	-13081
▁intermina	-13082
▁iorquinos	-13083
▁irmandade	-13084
▁irregular	-13085
▁jogadores	-13086
▁lembrarem	-13087
▁libertada	-13088
▁magnitude	-13089
▁maritimas	-13090
▁medidores	-13091
▁numeracia	-13092
▁obstaculo	-13093
▁oferecida	-13094
▁orgulhoso	-13095
▁paquistan	-13096
▁parafrase	-13097
▁partilhei	-13098
▁patologia	-13099
▁perfeicao	-13100
▁perfeitos	-13101
▁pertencer	-13102
▁photoshop	-13103
▁preparada	-13104
▁produzida	-13105
▁psicologo	-13106
▁publiquei	-13107
▁puramente	-13108
▁reduzidas	-13109
▁regressei	-13110
▁relaciona	-13111
▁reparamos	-13112
▁repeticao	-13113
▁republica	-13114
▁respondem	-13115
▁retirarem	-13116
▁revelaram	-13117
▁ridicular	-13118
▁sanguinea	-13119
▁simplista	-13120
▁sintetica	-13121
▁soubessem	-13122
▁tangiveis	-13123
▁tentarmos	-13124
▁trabalhem	-13125
▁transmite	-13126
▁aborrecida	-13127
▁alcancamos	-13128
▁ambiciosos	-13129
▁arquitecto	-13130
▁arrogancia	-13131
▁assustados	-13132
▁autoestima	-13133
▁biologicas	-13134
▁cognitivas	-13135
▁concebemos	-13136
▁conduzimos	-13137
▁conseguira	-13138
▁constituem	-13139
▁construtor	-13140
▁consumidor	-13141
▁contadores	-13142
▁degradacao	-13143
▁delicadeza	-13144
▁demasiadas	-13145
▁demografia	-13146
▁demonstrou	-13147
▁devastacao	-13148
▁devessemos	-13149
▁dinossauro	-13150
▁eletronico	-13151
▁emprestado	-13152
▁enfermeira	-13153
▁escondidos	-13154
▁escrevendo	-13155
▁escreveram	-13156
▁espantosos	-13157
▁exploramos	-13158
▁fidelidade	-13159
▁formidavel	-13160
▁fortalecer	-13161
▁fundadores	-13162
▁geographic	-13163
▁gigantesco	-13164
▁ilustracao	-13165
▁imaginamos	-13166
▁imperativo	-13167
▁incessante	-13168
▁interferir	-13169
▁intermedio	-13170
▁justamente	-13171
▁liberdades	-13172
▁libertamos	-13173
▁mentirosos	-13174
▁milimetros	-13175
▁minusculos	-13176
▁mocambique	-13177
▁penicilina	-13178
▁perguntamo	-13179
▁permanecem	-13180
▁permaneceu	-13181
▁permitirem	-13182
▁planificar	-13183
▁previsivel	-13184
▁primordios	-13185
▁protocolos	-13186
▁psiquiatra	-13187
▁quinhentos	-13188
▁recipiente	-13189
▁reconhecam	-13190
▁satisfazer	-13191
▁semelhanca	-13192
▁serotonina	-13193
▁sobreviveu	-13194
▁submarinos	-13195
▁telefonema	-13196
▁trajetoria	-13197
▁utilizados	-13198
▁vizinhanca	-13199
▁voluntario	-13200
ologicamente	-13201
▁acostumados	-13202
▁administrar	-13203
▁alucinacoes	-13204
▁ambiguidade	-13205
▁apaixonados	-13206
▁aperceberam	-13207
▁aperfeicoar	-13208
▁aprendermos	-13209
▁apresentado	-13210
▁aproximamos	-13211
▁arquitecton	-13212
▁arquitectos	-13213
▁assustadora	-13214
▁autoestrada	-13215
▁blockchains	-13216
▁calculadora	-13217
▁carpinteiro	-13218
▁codificadas	-13219
▁colaborador	-13220
▁combinacoes	-13221
▁competentes	-13222
▁concordamos	-13223
▁considerava	-13224
▁constituido	-13225
▁corporacoes	-13226
▁correlacion	-13227
▁declaracoes	-13228
▁demonstrado	-13229
▁desenvolvem	-13230
▁distribuida	-13231
▁enfermeiros	-13232
▁erradicacao	-13233
▁especulacao	-13234
▁esperavamos	-13235
▁espirituais	-13236
▁estimativas	-13237
▁experientes	-13238
▁expetativas	-13239
▁explicacoes	-13240
▁filantropia	-13241
▁humanidades	-13242
▁identidades	-13243
▁imprudencia	-13244
▁inesperados	-13245
▁inevitaveis	-13246
▁intencional	-13247
▁interpretem	-13248
▁marinheiros	-13249
▁modalidades	-13250
▁multiplicar	-13251
▁neurogenese	-13252
▁normalidade	-13253
▁percorremos	-13254
▁perturbacao	-13255
▁previsiveis	-13256
▁quarteiroes	-13257
▁recompensas	-13258
▁remotamente	-13259
▁sacrificios	-13260
▁satisfeitos	-13261
▁simplificar	-13262
▁sistematica	-13263
▁socioeconom	-13264
▁substancial	-13265
▁telescopios	-13266
▁transplante	-13267
▁vocabulario	-13268
▁assustadoras	-13269
▁certificacao	-13270
▁compreendida	-13271
▁concentrados	-13272
▁confrontados	-13273
▁considerando	-13274
▁democraticas	-13275
▁desagradavel	-13276
▁desaparecido	-13277
▁disfuncional	-13278
▁empresariais	-13279
▁entusiasmada	-13280
▁experienciar	-13281
▁exploradores	-13282
▁falsificacao	-13283
▁implementado	-13284
▁inconsciente	-13285
▁infidelidade	-13286
▁intensamente	-13287
▁interactivos	-13288
▁investigador	-13289
▁microfluidos	-13290
▁misericordia	-13291
▁mosquiteiros	-13292
▁notavelmente	-13293
▁omnipresente	-13294
▁persistencia	-13295
▁perturbacoes	-13296
▁populacional	-13297
▁presidencial	-13298
▁recrutamento	-13299
▁relacionamos	-13300
▁reprimitivar	-13301
▁sobreviveram	-13302
▁tecnologicas	-13303
▁tecnologicos	-13304
▁testosterona	-13305
▁considerarmos	-13306
▁contemporaneo	-13307
▁continuamente	-13308
▁decididamente	-13309
▁desconhecidos	-13310
▁especialidade	-13311
▁estranhamente	-13312
▁fertilizantes	-13313
▁geneticamente	-13314
▁interpretacao	-13315
▁manifestacoes	-13316
▁monitorizacao	-13317
▁multiplicacao	-13318
▁proprietarios	-13319
▁terrivelmente	-13320
▁classificacoes	-13321
▁confiabilidade	-13322
▁dessalinizacao	-13323
▁exclusivamente	-13324
▁invisibilidade	-13325
▁miniaturizacao	-13326
▁nanotecnologia	-13327
▁neurotransmiss	-13328
▁oftalmologista	-13329
▁posicionamento	-13330
▁regulamentacao	-13331
▁revolucionario	-13332
▁significativos	-13333
▁automaticamente	-13334
▁inevitavelmente	-13335
▁matematicamente	-13336
▁presumivelmente	-13337
▁temporariamente	-13338
▁vulnerabilidade	-13339
at	-13340
ay	-13341
dg	-13342
ji	-13343
oh	-13344
st	-13345
xa	-13346
zy	-13347
bai	-13348
bha	-13349
blo	-13350
cks	-13351
dit	-13352
dre	-13353
ect	-13354
eld	-13355
eme	-13356
eri	-13357
eso	-13358
fol	-13359
fur	-13360
fus	-13361
gao	-13362
gli	-13363
him	-13364
ier	-13365
iqu	-13366
lac	-13367
loh	-13368
non	-13369
qua	-13370
quo	-13371
reg	-13372
taz	-13373
teg	-13374
thy	-13375
uel	-13376
▁dy	-13377
▁it	-13378
▁mw	-13379
▁my	-13380
▁ny	-13381
▁rs	-13382
▁vm	-13383
▁za	-13384
ansa	-13385
azar	-13386
baco	-13387
bado	-13388
blin	-13389
chan	-13390
ciem	-13391
cois	-13392
cosa	-13393
coso	-13394
elly	-13395
eman	-13396
ense	-13397
fato	-13398
figu	-13399
flow	-13400
gala	-13401
goes	-13402
guai	-13403
guma	-13404
haga	-13405
hoto	-13406
ichi	-13407
ickr	-13408
icks	-13409
iclo	-13410
igno	-13411
igra	-13412
ings	-13413
ited	-13414
kota	-13415
lary	-13416
miel	-13417
ness	-13418
ngue	-13419
ogen	-13420
oney	-13421
orra	-13422
phia	-13423
riet	-13424
ring	-13425
seis	-13426
tato	-13427
temo	-13428
tins	-13429
uman	-13430
uris	-13431
vena	-13432
yana	-13433
ymah	-13434
yota	-13435
▁adv	-13436
▁afo	-13437
▁bay	-13438
▁bui	-13439
▁ceb	-13440
▁cou	-13441
▁cub	-13442
▁cum	-13443
▁dem	-13444
▁doi	-13445
▁dre	-13446
▁etn	-13447
▁ets	-13448
▁exe	-13449
▁exi	-13450
▁goz	-13451
▁huh	-13452
▁igf	-13453
▁kal	-13454
▁kam	-13455
▁lea	-13456
▁lor	-13457
▁lun	-13458
▁lux	-13459
▁mio	-13460
▁mum	-13461
▁oak	-13462
▁plo	-13463
▁sea	-13464
▁sno	-13465
▁sos	-13466
▁tou	-13467
▁wit	-13468
▁yap	-13469
▁yel	-13470
achus	-13471
adrez	-13472
agina	-13473
ancas	-13474
athan	-13475
campo	-13476
cinho	-13477
ctico	-13478
diaco	-13479
dific	-13480
earch	-13481
eller	-13482
emica	-13483
ensos	-13484
entem	-13485
entro	-13486
erias	-13487
essas	-13488
essou	-13489
feito	-13490
gelho	-13491
geren	-13492
gicos	-13493
glios	-13494
ingir	-13495
inios	-13496
jorda	-13497
josos	-13498
juven	-13499
landa	-13500
lando	-13501
lavel	-13502
leaes	-13503
pesso	-13504
peuta	-13505
pleta	-13506
point	-13507
pular	-13508
rames	-13509
raque	-13510
rillo	-13511
ronto	-13512
tanos	-13513
tiagu	-13514
ticut	-13515
tilha	-13516
tonas	-13517
trade	-13518
trato	-13519
tuosa	-13520
usten	-13521
vanas	-13522
ynman	-13523
zinho	-13524
▁aaaa	-13525
▁abas	-13526
▁acar	-13527
▁alca	-13528
▁alic	-13529
▁amas	-13530
▁anom	-13531
▁arms	-13532
▁arru	-13533
▁asma	-13534
▁auge	-13535
▁avaz	-13536
▁avia	-13537
▁bato	-13538
▁caia	-13539
▁cais	-13540
▁cano	-13541
▁chad	-13542
▁chal	-13543
▁clic	-13544
▁dize	-13545
▁drey	-13546
▁edim	-13547
▁feio	-13548
▁fina	-13549
▁frie	-13550
▁gaza	-13551
▁geis	-13552
▁glob	-13553
▁hama	-13554
▁hans	-13555
▁home	-13556
▁icon	-13557
▁isaf	-13558
▁itin	-13559
▁jake	-13560
▁juro	-13561
▁khan	-13562
▁kilo	-13563
▁kits	-13564
▁kofi	-13565
▁limp	-13566
▁lito	-13567
▁mann	-13568
▁melo	-13569
▁nato	-13570
▁nazi	-13571
▁nerd	-13572
▁okay	-13573
▁okol	-13574
▁over	-13575
▁paro	-13576
▁pata	-13577
▁peri	-13578
▁pran	-13579
▁rema	-13580
▁rita	-13581
▁ryan	-13582
▁saio	-13583
▁sarg	-13584
▁sino	-13585
▁soam	-13586
▁stra	-13587
▁sujo	-13588
▁suma	-13589
▁suor	-13590
▁supl	-13591
▁tata	-13592
▁temo	-13593
▁tese	-13594
▁time	-13595
▁tomo	-13596
▁vier	-13597
▁voam	-13598
▁west	-13599
▁work	-13600
▁yeah	-13601
alaias	-13602
bloque	-13603
ciarem	-13604
cursor	-13605
diamos	-13606
drosta	-13607
dutivo	-13608
fianca	-13609
fiquei	-13610
gantes	-13611
gramas	-13612
guicos	-13613
ificam	-13614
ificos	-13615
ilever	-13616
inaram	-13617
inhada	-13618
issimo	-13619
itimos	-13620
izante	-13621
laveis	-13622
meteor	-13623
metica	-13624
missos	-13625
piadas	-13626
quilib	-13627
quinho	-13628
rarmos	-13629
raveis	-13630
termin	-13631
tinham	-13632
tinhas	-13633
titude	-13634
tizada	-13635
tuario	-13636
ulares	-13637
uleiro	-13638
unciar	-13639
utavel	-13640
vancia	-13641
vessem	-13642
virais	-13643
▁abram	-13644
▁aguda	-13645
▁aicha	-13646
▁alinh	-13647
▁aluna	-13648
▁alven	-13649
▁amado	-13650
▁amago	-13651
▁andes	-13652
▁annan	-13653
▁antig	-13654
▁arduo	-13655
▁argel	-13656
▁atenu	-13657
▁ateus	-13658
▁banal	-13659
▁bolos	-13660
▁botas	-13661
▁cader	-13662
▁caute	-13663
▁cerco	-13664
▁cerve	-13665
▁chora	-13666
▁chove	-13667
▁chuck	-13668
▁citar	-13669
▁copas	-13670
▁craig	-13671
▁daria	-13672
▁degen	-13673
▁demol	-13674
▁desdo	-13675
▁desfa	-13676
▁desin	-13677
▁desmo	-13678
▁deusa	-13679
▁dicas	-13680
▁ditas	-13681
▁dobra	-13682
▁duros	-13683
▁empil	-13684
▁enche	-13685
▁entor	-13686
▁estro	-13687
▁etnia	-13688
▁excen	-13689
▁excer	-13690
▁exige	-13691
▁facit	-13692
▁farei	-13693
▁farto	-13694
▁feroz	-13695
▁finas	-13696
▁flash	-13697
▁fluir	-13698
▁fobia	-13699
▁frame	-13700
▁furia	-13701
▁gerou	-13702
▁golfo	-13703
▁goose	-13704
▁gozar	-13705
▁grand	-13706
▁grato	-13707
▁grava	-13708
▁grito	-13709
▁gross	-13710
▁guias	-13711
▁haven	-13712
▁insuf	-13713
▁jerry	-13714
▁johan	-13715
▁krill	-13716
▁lante	-13717
▁levas	-13718
▁lovel	-13719
▁lutou	-13720
▁luvas	-13721
▁maius	-13722
▁malea	-13723
▁manga	-13724
▁matri	-13725
▁mcdon	-13726
▁medie	-13727
▁merce	-13728
▁minho	-13729
▁minor	-13730
▁model	-13731
▁moram	-13732
▁morti	-13733
▁motel	-13734
▁movia	-13735
▁nadam	-13736
▁novel	-13737
▁palin	-13738
▁patri	-13739
▁pedes	-13740
▁pesos	-13741
▁piano	-13742
▁pisca	-13743
▁pisto	-13744
▁pomar	-13745
▁prema	-13746
▁punch	-13747
▁ramon	-13748
▁raras	-13749
▁raste	-13750
▁reage	-13751
▁recta	-13752
▁relax	-13753
▁repen	-13754
▁roche	-13755
▁sabio	-13756
▁salmo	-13757
▁saque	-13758
▁secas	-13759
▁sensi	-13760
▁serei	-13761
▁setas	-13762
▁sigam	-13763
▁socor	-13764
▁stack	-13765
▁surto	-13766
▁swann	-13767
▁table	-13768
▁tagar	-13769
▁tapar	-13770
▁teach	-13771
▁temem	-13772
▁temer	-13773
▁tenda	-13774
▁tenue	-13775
▁terei	-13776
▁tiran	-13777
▁tocou	-13778
▁tommy	-13779
▁torne	-13780
▁trago	-13781
▁turno	-13782
▁urina	-13783
▁vales	-13784
▁vibra	-13785
▁vocal	-13786
▁white	-13787
borough	-13788
fabrico	-13789
hadores	-13790
ilvania	-13791
inacoes	-13792
iologia	-13793
issimos	-13794
itorios	-13795
juvenes	-13796
logicos	-13797
mielite	-13798
nostico	-13799
radeira	-13800
▁abraca	-13801
▁abraco	-13802
▁abusos	-13803
▁actuar	-13804
▁acumul	-13805
▁aderir	-13806
▁admito	-13807
▁ambigu	-13808
▁apagar	-13809
▁apofen	-13810
▁aquece	-13811
▁atraem	-13812
▁atraiu	-13813
▁azeite	-13814
▁balcao	-13815
▁ballet	-13816
▁bangla	-13817
▁barbar	-13818
▁barcos	-13819
▁barras	-13820
▁bebado	-13821
▁beijos	-13822
▁boleia	-13823
▁cairem	-13824
▁chegas	-13825
▁chegue	-13826
▁chichi	-13827
▁chumbo	-13828
▁chuvas	-13829
▁ciente	-13830
▁colina	-13831
▁comido	-13832
▁creche	-13833
▁culpar	-13834
▁debbie	-13835
▁dermos	-13836
▁descem	-13837
▁desgas	-13838
▁detido	-13839
▁dimens	-13840
▁ditado	-13841
▁ecosia	-13842
▁edward	-13843
▁envies	-13844
▁escrav	-13845
▁estico	-13846
▁facial	-13847
▁faisca	-13848
▁falhei	-13849
▁fascis	-13850
▁fatias	-13851
▁filtra	-13852
▁fizera	-13853
▁flickr	-13854
▁foruns	-13855
▁fotoes	-13856
▁fracos	-13857
▁frenes	-13858
▁fuller	-13859
▁fundar	-13860
▁fundou	-13861
▁gregos	-13862
▁habeis	-13863
▁hasbro	-13864
▁helice	-13865
▁hoquei	-13866
▁imunes	-13867
▁increm	-13868
▁intima	-13869
▁intole	-13870
▁jeffer	-13871
▁juizes	-13872
▁justos	-13873
▁kinect	-13874
▁levara	-13875
▁leymah	-13876
▁libano	-13877
▁libras	-13878
▁lindas	-13879
▁listas	-13880
▁manada	-13881
▁mandou	-13882
▁mechan	-13883
▁mensal	-13884
▁micron	-13885
▁modela	-13886
▁motins	-13887
▁nativa	-13888
▁neural	-13889
▁nikola	-13890
▁obteve	-13891
▁ocupam	-13892
▁odeiam	-13893
▁ogivas	-13894
▁olfato	-13895
▁optima	-13896
▁orfana	-13897
▁padron	-13898
▁parano	-13899
▁parava	-13900
▁pedago	-13901
▁pequim	-13902
▁pirata	-13903
▁pixeis	-13904
▁planal	-13905
▁prazos	-13906
▁prende	-13907
▁presta	-13908
▁quadri	-13909
▁recria	-13910
▁recusa	-13911
▁reflex	-13912
▁regene	-13913
▁reinci	-13914
▁repuls	-13915
▁resumo	-13916
▁retorn	-13917
▁rigida	-13918
▁rigido	-13919
▁riquen	-13920
▁rodovi	-13921
▁salaam	-13922
▁salvos	-13923
▁seguia	-13924
▁sentes	-13925
▁serviu	-13926
▁slides	-13927
▁sofria	-13928
▁sophia	-13929
▁subord	-13930
▁tabaco	-13931
▁tablet	-13932
▁tamara	-13933
▁tigres	-13934
▁travao	-13935
▁trazia	-13936
▁tropec	-13937
▁trufas	-13938
▁tumulo	-13939
▁turmas	-13940
▁united	-13941
▁valido	-13942
▁valley	-13943
▁variar	-13944
▁venceu	-13945
▁veriam	-13946
▁vermes	-13947
▁viajou	-13948
▁vibrar	-13949
▁virmos	-13950
▁vitais	-13951
▁wagner	-13952
▁yorker	-13953
▁zipcar	-13954
cionadas	-13955
cionamos	-13956
gamentos	-13957
jordania	-13958
rnamente	-13959
▁abencoe	-13960
▁acabara	-13961
▁acalmar	-13962
▁acharam	-13963
▁acordou	-13964
▁activos	-13965
▁acusado	-13966
▁adultas	-13967
▁afetada	-13968
▁aguarda	-13969
▁amarras	-13970
▁ambulan	-13971
▁ameacar	-13972
▁analisa	-13973
▁animado	-13974
▁anonimo	-13975
▁apetite	-13976
▁apontam	-13977
▁arbitro	-13978
▁arranha	-13979
▁arsenal	-13980
▁assisti	-13981
▁ateismo	-13982
▁atletas	-13983
▁audacia	-13984
▁bananas	-13985
▁barbear	-13986
▁batatas	-13987
▁bigodes	-13988
▁bioquim	-13989
▁bizarra	-13990
▁brother	-13991
▁caligra	-13992
▁capgras	-13993
▁cativar	-13994
▁caverna	-13995
▁chavena	-13996
▁cheiros	-13997
▁chocado	-13998
▁cientes	-13999
▁colamos	-14000
▁colegio	-14001
▁coleira	-14002
▁cometas	-14003
▁compuls	-14004
▁contada	-14005
▁defeito	-14006
▁deitada	-14007
▁demoram	-14008
▁desagre	-14009
▁desapon	-14010
▁destroi	-14011
▁desviar	-14012
▁deterio	-14013
▁detetor	-14014
▁digitos	-14015
▁disputa	-14016
▁dreyfus	-14017
▁egipcia	-14018
▁egipcio	-14019
▁elabora	-14020
▁eletrao	-14021
▁encarar	-14022
▁encomen	-14023
▁escoces	-14024
▁escocia	-14025
▁escutei	-14026
▁estarei	-14027
▁estrume	-14028
▁expande	-14029
▁extensa	-14030
▁faleceu	-14031
▁farmaco	-14032
▁feridos	-14033
▁feynman	-14034
▁fortuna	-14035
▁fundada	-14036
▁galileu	-14037
▁gangues	-14038
▁harriet	-14039
▁hemorra	-14040
▁hidrofo	-14041
▁hillary	-14042
▁imagine	-14043
▁incansa	-14044
▁incapaz	-14045
▁incerto	-14046
▁indefin	-14047
▁indicam	-14048
▁intacto	-14049
▁intensa	-14050
▁irlanda	-14051
▁itinera	-14052
▁juntamo	-14053
▁lamenta	-14054
▁laranja	-14055
▁latente	-14056
▁lateral	-14057
▁lembrei	-14058
▁levarem	-14059
▁mandato	-14060
▁marcado	-14061
▁mataram	-14062
▁merecia	-14063
▁modesto	-14064
▁monopol	-14065
▁movemos	-14066
▁mudarem	-14067
▁mutante	-14068
▁nalguma	-14069
▁nicolas	-14070
▁nomadas	-14071
▁noventa	-14072
▁offline	-14073
▁orleaes	-14074
▁palpite	-14075
▁paragem	-14076
▁pararam	-14077
▁patrick	-14078
▁pegaram	-14079
▁pegarem	-14080
▁pilotos	-14081
▁portoes	-14082
▁possuia	-14083
▁possuir	-14084
▁prefiro	-14085
▁presumo	-14086
▁proclam	-14087
▁procuro	-14088
▁prometi	-14089
▁quebrou	-14090
▁questio	-14091
▁recuper	-14092
[...]
