<pad>	0
<s>	0
</s>	0
<unk>	0
▁t	-0
▁a	-1
▁th	-2
▁i	-3
▁s	-4
▁w	-5
▁the	-6
▁.	-7
▁,	-8
re	-9
▁o	-10
in	-11
at	-12
er	-13
nd	-14
▁c	-15
▁b	-16
ou	-17
▁m	-18
▁h	-19
ing	-20
en	-21
▁p	-22
▁to	-23
▁and	-24
▁f	-25
on	-26
▁d	-27
an	-28
es	-29
▁l	-30
or	-31
al	-32
▁of	-33
▁in	-34
▁n	-35
ed	-36
is	-37
it	-38
ar	-39
▁y	-40
▁we	-41
▁that	-42
▁g	-43
om	-44
as	-45
▁it	-46
▁you	-47
le	-48
▁wh	-49
▁e	-50
ic	-51
ve	-52
us	-53
▁re	-54
ll	-55
▁is	-56
▁be	-57
ow	-58
ion	-59
ly	-60
ut	-61
et	-62
ot	-63
ct	-64
▁on	-65
ent	-66
▁ha	-67
▁this	-68
ld	-69
▁so	-70
ver	-71
ay	-72
se	-73
▁st	-74
gh	-75
ur	-76
st	-77
id	-78
▁do	-79
ro	-80
ch	-81
▁for	-82
▁he	-83
ke	-84
ce	-85
ra	-86
▁li	-87
▁was	-88
▁they	-89
▁an	-90
▁are	-91
im	-92
▁u	-93
ir	-94
op	-95
ith	-96
ght	-97
oo	-98
▁but	-99
▁se	-100
▁with	-101
▁what	-102
▁have	-103
ri	-104
ally	-105
▁ab	-106
▁k	-107
▁mo	-108
am	-109
▁as	-110
th	-111
ation	-112
▁can	-113
▁ne	-114
▁me	-115
▁j	-116
out	-117
▁not	-118
▁sh	-119
ad	-120
use	-121
▁wor	-122
▁com	-123
ould	-124
▁ch	-125
ers	-126
ol	-127
▁go	-128
▁my	-129
ere	-130
very	-131
▁at	-132
ge	-133
▁there	-134
ust	-135
pp	-136
il	-137
▁about	-138
▁all	-139
▁ex	-140
ant	-141
ul	-142
ill	-143
ter	-144
▁de	-145
▁som	-146
▁pro	-147
▁pe	-148
▁or	-149
▁con	-150
ause	-151
▁fr	-152
ess	-153
um	-154
▁one	-155
▁v	-156
ear	-157
art	-158
▁our	-159
ck	-160
▁al	-161
▁like	-162
est	-163
ate	-164
▁peop	-165
▁people	-166
ity	-167
ure	-168
ig	-169
▁ma	-170
ble	-171
▁bec	-172
▁if	-173
▁us	-174
ist	-175
nt	-176
▁from	-177
▁now	-178
▁te	-179
qu	-180
ect	-181
ff	-182
ive	-183
ci	-184
▁just	-185
all	-186
▁kn	-187
▁sp	-188
ind	-189
rou	-190
▁out	-191
▁see	-192
▁these	-193
ook	-194
ink	-195
un	-196
▁how	-197
▁when	-198
▁int	-199
ies	-200
▁by	-201
os	-202
▁know	-203
▁r	-204
her	-205
▁di	-206
▁them	-207
▁who	-208
and	-209
el	-210
▁im	-211
▁because	-212
▁more	-213
ain	-214
▁think	-215
▁get	-216
▁up	-217
ort	-218
▁some	-219
▁very	-220
▁thing	-221
▁tim	-222
▁than	-223
▁act	-224
▁tr	-225
one	-226
▁year	-227
▁had	-228
▁your	-229
▁their	-230
em	-231
▁would	-232
▁pl	-233
▁were	-234
▁ta	-235
▁going	-236
▁su	-237
ine	-238
▁la	-239
▁comp	-240
▁look	-241
▁every	-242
▁en	-243
▁ve	-244
ast	-245
▁le	-246
▁want	-247
▁ca	-248
▁fa	-249
ment	-250
▁here	-251
og	-252
▁sa	-253
ous	-254
our	-255
iz	-256
▁no	-257
▁work	-258
ame	-259
ich	-260
ans	-261
▁ev	-262
▁world	-263
▁un	-264
▁way	-265
▁man	-266
ood	-267
ie	-268
ually	-269
▁time	-270
ard	-271
▁really	-272
ose	-273
ag	-274
ight	-275
ack	-276
▁has	-277
ions	-278
▁oth	-279
ide	-280
▁per	-281
▁could	-282
▁app	-283
▁exp	-284
▁then	-285
iv	-286
▁qu	-287
reat	-288
red	-289
▁fe	-290
hing	-291
▁which	-292
ong	-293
od	-294
▁will	-295
pt	-296
▁where	-297
ence	-298
▁did	-299
res	-300
ild	-301
ach	-302
▁am	-303
▁actually	-304
nder	-305
▁ri	-306
▁other	-307
age	-308
▁ag	-309
▁tw	-310
▁cl	-311
ore	-312
▁need	-313
itt	-314
▁new	-315
ud	-316
▁well	-317
▁into	-318
so	-319
alk	-320
▁diff	-321
▁somet	-322
▁years	-323
fe	-324
▁co	-325
▁any	-326
ught	-327
▁start	-328
ical	-329
ea	-330
▁ar	-331
▁right	-332
▁make	-333
▁been	-334
▁fir	-335
▁those	-336
ab	-337
▁po	-338
▁mu	-339
▁dis	-340
▁chan	-341
▁happ	-342
▁say	-343
ry	-344
ple	-345
▁ro	-346
▁two	-347
▁first	-348
▁also	-349
ass	-350
ace	-351
ice	-352
▁things	-353
▁over	-354
▁lo	-355
▁bu	-356
orm	-357
▁part	-358
▁much	-359
▁let	-360
▁af	-361
ree	-362
▁she	-363
▁even	-364
▁ac	-365
▁call	-366
ap	-367
ber	-368
▁bl	-369
▁imp	-370
▁ph	-371
round	-372
▁pr	-373
ory	-374
ughter	-375
ount	-376
▁something	-377
▁day	-378
▁differe	-379
▁appl	-380
ia	-381
sel	-382
ves	-383
ens	-384
▁under	-385
ound	-386
ome	-387
cent	-388
olog	-389
ue	-390
▁laughter	-391
▁back	-392
act	-393
▁only	-394
ite	-395
if	-396
own	-397
way	-398
▁bet	-399
▁lot	-400
ces	-401
ult	-402
vel	-403
ittle	-404
▁res	-405
ving	-406
▁little	-407
ru	-408
▁talk	-409
ign	-410
▁cont	-411
▁life	-412
▁many	-413
end	-414
▁take	-415
▁ad	-416
▁most	-417
able	-418
▁his	-419
▁got	-420
▁hum	-421
are	-422
▁tra	-423
king	-424
ater	-425
▁id	-426
▁applause	-427
▁why	-428
ated	-429
▁sy	-430
▁real	-431
▁sc	-432
ations	-433
▁ind	-434
▁thank	-435
▁different	-436
▁does	-437
▁kind	-438
▁her	-439
day	-440
▁ra	-441
▁des	-442
▁said	-443
ip	-444
rough	-445
▁em	-446
ict	-447
ody	-448
other	-449
int	-450
ase	-451
ep	-452
▁good	-453
co	-454
▁inf	-455
▁comm	-456
ath	-457
▁inter	-458
▁around	-459
pl	-460
▁through	-461
ick	-462
ether	-463
▁tell	-464
ents	-465
ade	-466
▁pre	-467
▁br	-468
▁may	-469
▁use	-470
ark	-471
wn	-472
ool	-473
cess	-474
▁car	-475
ob	-476
ved	-477
▁inc	-478
▁too	-479
▁lear	-480
ors	-481
▁bra	-482
▁gen	-483
▁learn	-484
ord	-485
urn	-486
▁off	-487
▁down	-488
ish	-489
▁pers	-490
ful	-491
du	-492
▁count	-493
▁today	-494
ms	-495
▁same	-496
▁sur	-497
▁human	-498
▁wr	-499
▁fl	-500
ph	-501
ower	-502
ang	-503
▁sm	-504
▁happen	-505
▁tech	-506
▁percent	-507
▁show	-508
▁soci	-509
▁fact	-510
ary	-511
ell	-512
xt	-513
▁find	-514
ject	-515
als	-516
stem	-517
igh	-518
▁after	-519
lect	-520
ance	-521
▁being	-522
▁come	-523
ible	-524
▁proble	-525
ren	-526
ress	-527
▁techn	-528
▁thou	-529
▁ll	-530
▁big	-531
ys	-532
▁gr	-533
▁sch	-534
vers	-535
ons	-536
▁inst	-537
per	-538
self	-539
▁rem	-540
▁three	-541
ting	-542
▁put	-543
▁own	-544
▁sim	-545
▁quest	-546
▁great	-547
▁child	-548
▁called	-549
▁made	-550
▁system	-551
ric	-552
▁col	-553
▁dec	-554
▁build	-555
▁underst	-556
con	-557
ile	-558
ious	-559
▁again	-560
▁stud	-561
▁exper	-562
oc	-563
fore	-564
thing	-565
▁ob	-566
ib	-567
ition	-568
▁ear	-569
▁hel	-570
▁exam	-571
▁long	-572
▁spe	-573
▁change	-574
ating	-575
▁wom	-576
be	-577
▁inv	-578
▁bel	-579
ics	-580
▁gra	-581
ology	-582
ual	-583
ial	-584
▁gl	-585
ities	-586
▁feel	-587
cy	-588
▁sci	-589
▁imag	-590
ire	-591
kes	-592
▁try	-593
▁should	-594
▁rel	-595
▁person	-596
▁trans	-597
illion	-598
oss	-599
ize	-600
▁ins	-601
▁help	-602
ty	-603
▁understand	-604
▁ask	-605
▁started	-606
▁doing	-607
▁gu	-608
▁turn	-609
▁school	-610
▁cour	-611
▁ke	-612
▁end	-613
body	-614
ates	-615
ically	-616
▁pol	-617
▁still	-618
ft	-619
▁bas	-620
▁idea	-621
▁tog	-622
▁high	-623
▁last	-624
▁brain	-625
▁never	-626
▁together	-627
▁better	-628
▁mean	-629
▁might	-630
we	-631
▁him	-632
uc	-633
▁import	-634
ction	-635
▁power	-636
▁num	-637
▁fu	-638
▁before	-639
▁another	-640
ope	-641
▁old	-642
▁each	-643
▁ed	-644
bl	-645
▁its	-646
erest	-647
ily	-648
▁problem	-649
▁creat	-650
ise	-651
▁hand	-652
ness	-653
▁cons	-654
▁point	-655
▁found	-656
▁bo	-657
▁fam	-658
ced	-659
ian	-660
▁interest	-661
▁bit	-662
▁example	-663
ork	-664
ution	-665
▁story	-666
▁important	-667
▁sol	-668
▁few	-669
▁hu	-670
▁pat	-671
▁went	-672
▁pu	-673
▁belie	-674
▁comple	-675
ars	-676
▁rep	-677
▁art	-678
▁commun	-679
▁course	-680
gin	-681
ros	-682
ists	-683
ility	-684
read	-685
▁thought	-686
▁cr	-687
▁uni	-688
▁give	-689
▁ter	-690
ger	-691
les	-692
ather	-693
erg	-694
ular	-695
▁next	-696
gan	-697
▁mod	-698
ning	-699
▁able	-700
▁fri	-701
▁ext	-702
te	-703
▁kid	-704
▁cent	-705
▁sl	-706
▁ent	-707
atch	-708
▁eng	-709
▁med	-710
▁mom	-711
▁att	-712
ways	-713
▁dat	-714
▁produ	-715
▁inform	-716
ak	-717
alth	-718
oth	-719
▁met	-720
▁used	-721
▁place	-722
conom	-723
cept	-724
▁design	-725
▁eff	-726
▁read	-727
▁mon	-728
▁women	-729
▁nat	-730
▁tri	-731
▁teach	-732
▁question	-733
▁econom	-734
az	-735
▁chang	-736
ween	-737
ized	-738
▁maybe	-739
▁friend	-740
▁between	-741
▁data	-742
ave	-743
▁op	-744
cond	-745
▁ago	-746
▁far	-747
▁came	-748
ix	-749
velop	-750
ost	-751
ited	-752
iss	-753
ps	-754
arch	-755
▁love	-756
▁technology	-757
▁cre	-758
ert	-759
▁mus	-760
▁word	-761
▁develop	-762
ough	-763
▁expl	-764
▁ser	-765
▁speci	-766
ience	-767
▁small	-768
▁less	-769
▁second	-770
▁beh	-771
▁pass	-772
▁information	-773
▁care	-774
ets	-775
▁ok	-776
ings	-777
▁children	-778
▁min	-779
eric	-780
nect	-781
▁lar	-782
▁live	-783
ward	-784
▁always	-785
▁fin	-786
▁partic	-787
▁everything	-788
▁resp	-789
ock	-790
▁grow	-791
▁home	-792
av	-793
▁rec	-794
▁hard	-795
ross	-796
▁fo	-797
▁comput	-798
ures	-799
▁wo	-800
▁cle	-801
ense	-802
ruct	-803
▁str	-804
▁dri	-805
▁means	-806
▁space	-807
ac	-808
ered	-809
ments	-810
▁plan	-811
pe	-812
▁water	-813
▁health	-814
▁wanted	-815
ines	-816
▁four	-817
▁ever	-818
▁compan	-819
ale	-820
▁move	-821
▁reas	-822
ew	-823
▁mat	-824
▁away	-825
▁light	-826
▁country	-827
ail	-828
ands	-829
▁poss	-830
▁prot	-831
▁number	-832
▁fut	-833
▁play	-834
▁americ	-835
ute	-836
ural	-837
▁cell	-838
▁done	-839
ram	-840
▁el	-841
▁project	-842
▁bus	-843
▁gener	-844
▁glob	-845
▁future	-846
oney	-847
ative	-848
selves	-849
▁elect	-850
▁social	-851
▁connect	-852
iness	-853
▁looking	-854
▁acc	-855
▁believe	-856
▁million	-857
ital	-858
ract	-859
▁cou	-860
gest	-861
▁times	-862
▁intern	-863
ks	-864
▁book	-865
▁bi	-866
▁sort	-867
▁sound	-868
ism	-869
its	-870
ten	-871
▁vis	-872
ories	-873
form	-874
▁giv	-875
▁run	-876
▁open	-877
▁conf	-878
pport	-879
▁ho	-880
▁using	-881
▁imagine	-882
▁cur	-883
▁youn	-884
▁create	-885
ably	-886
here	-887
▁phys	-888
▁societ	-889
▁educ	-890
▁five	-891
tern	-892
ues	-893
ices	-894
▁war	-895
▁without	-896
▁!	-897
▁eas	-898
▁best	-899
▁form	-900
▁publ	-901
▁become	-902
▁left	-903
▁stop	-904
▁set	-905
▁money	-906
▁energ	-907
sw	-908
ven	-909
▁val	-910
cer	-911
hip	-912
ries	-913
▁pict	-914
▁vide	-915
▁jo	-916
vern	-917
iting	-918
▁stu	-919
ational	-920
orn	-921
▁sub	-922
▁answ	-923
▁add	-924
na	-925
▁sk	-926
▁govern	-927
▁working	-928
▁pain	-929
▁pret	-930
▁music	-931
▁science	-932
▁dem	-933
▁hal	-934
▁pres	-935
▁lead	-936
▁afric	-937
▁whole	-938
▁global	-939
ead	-940
ied	-941
▁face	-942
▁food	-943
▁grou	-944
▁comes	-945
▁lives	-946
work	-947
▁city	-948
▁moment	-949
▁begin	-950
▁trying	-951
▁thinking	-952
▁pop	-953
▁amaz	-954
▁organ	-955
▁talking	-956
▁kids	-957
▁energy	-958
▁making	-959
▁interesting	-960
iew	-961
▁took	-962
pr	-963
▁gre	-964
▁mark	-965
▁sign	-966
▁across	-967
▁det	-968
▁room	-969
▁process	-970
▁sing	-971
▁mind	-972
ember	-973
▁body	-974
▁days	-975
▁such	-976
▁told	-977
▁getting	-978
▁wee	-979
ird	-980
▁family	-981
▁net	-982
▁head	-983
▁hist	-984
▁side	-985
▁month	-986
most	-987
▁doll	-988
▁level	-989
▁reg	-990
▁allow	-991
▁wa	-992
aces	-993
imate	-994
▁keep	-995
▁okay	-996
▁young	-997
lf	-998
ne	-999
▁makes	-1000
verse	-1001
▁contro	-1002
▁happened	-1003
ts	-1004
ron	-1005
▁fun	-1006
▁phot	-1007
▁polit	-1008
▁pretty	-1009
▁cam	-1010
allen	-1011
▁anim	-1012
▁walk	-1013
▁effect	-1014
▁enough	-1015
led	-1016
▁job	-1017
▁case	-1018
▁video	-1019
▁model	-1020
▁stand	-1021
▁almost	-1022
▁reason	-1023
▁half	-1024
▁sec	-1025
▁dist	-1026
▁prob	-1027
lly	-1028
▁air	-1029
▁complete	-1030
aut	-1031
▁cost	-1032
▁spea	-1033
▁prog	-1034
▁class	-1035
ization	-1036
ific	-1037
▁par	-1038
▁unt	-1039
▁ways	-1040
▁ty	-1041
▁saw	-1042
▁char	-1043
▁building	-1044
▁ey	-1045
▁ret	-1046
▁scient	-1047
▁simple	-1048
▁business	-1049
ote	-1050
oice	-1051
▁yet	-1052
▁hour	-1053
▁lang	-1054
▁friends	-1055
ier	-1056
uring	-1057
▁else	-1058
▁self	-1059
▁countries	-1060
rib	-1061
less	-1062
▁cap	-1063
▁stre	-1064
ention	-1065
▁earth	-1066
▁often	-1067
▁sense	-1068
▁public	-1069
ality	-1070
▁inside	-1071
▁myself	-1072
ided	-1073
ying	-1074
▁equ	-1075
▁mar	-1076
▁ord	-1077
▁test	-1078
▁langu	-1079
▁later	-1080
▁z	-1081
▁dep	-1082
▁exact	-1083
▁quite	-1084
cul	-1085
ever	-1086
▁prof	-1087
▁thous	-1088
▁challen	-1089
▁cult	-1090
▁fore	-1091
▁list	-1092
ertain	-1093
▁matter	-1094
▁pie	-1095
where	-1096
▁mem	-1097
▁both	-1098
▁asked	-1099
▁remember	-1100
gs	-1101
nce	-1102
ince	-1103
▁aff	-1104
▁age	-1105
▁once	-1106
▁bad	-1107
▁pri	-1108
▁rese	-1109
ash	-1110
▁probably	-1111
eas	-1112
▁bring	-1113
▁watch	-1114
▁lab	-1115
llow	-1116
▁sit	-1117
▁while	-1118
▁answer	-1119
▁gir	-1120
▁imm	-1121
ready	-1122
▁experience	-1123
▁past	-1124
▁already	-1125
▁happens	-1126
ilt	-1127
bers	-1128
imes	-1129
▁hope	-1130
▁beaut	-1131
▁wrong	-1132
▁sw	-1133
iter	-1134
▁men	-1135
ien	-1136
▁dev	-1137
▁exc	-1138
▁research	-1139
idd	-1140
▁env	-1141
▁having	-1142
▁incred	-1143
▁computer	-1144
▁amazing	-1145
ient	-1146
arent	-1147
▁words	-1148
▁living	-1149
▁mic	-1150
▁goes	-1151
▁internet	-1152
▁education	-1153
▁ref	-1154
▁ris	-1155
▁yes	-1156
ndred	-1157
▁must	-1158
▁sure	-1159
▁wonder	-1160
▁hundred	-1161
▁network	-1162
no	-1163
ivid	-1164
▁state	-1165
▁until	-1166
▁coming	-1167
▁adv	-1168
▁mil	-1169
▁dire	-1170
▁trad	-1171
▁anything	-1172
▁particular	-1173
pect	-1174
▁math	-1175
ared	-1176
▁ass	-1177
▁works	-1178
▁billion	-1179
▁dollars	-1180
▁community	-1181
▁bre	-1182
▁free	-1183
▁looked	-1184
▁vi	-1185
ages	-1186
▁suc	-1187
olution	-1188
▁nothing	-1189
▁girl	-1190
▁states	-1191
ken	-1192
iron	-1193
▁law	-1194
▁top	-1195
▁const	-1196
ouse	-1197
▁news	-1198
▁night	-1199
▁environ	-1200
▁picture	-1201
▁cor	-1202
ond	-1203
ined	-1204
osed	-1205
▁black	-1206
▁someone	-1207
▁seen	-1208
▁exactly	-1209
▁control	-1210
▁possible	-1211
ins	-1212
ield	-1213
omes	-1214
▁society	-1215
ury	-1216
ogra	-1217
▁rev	-1218
ental	-1219
▁large	-1220
▁learned	-1221
ream	-1222
▁sou	-1223
▁rest	-1224
▁stuff	-1225
▁individ	-1226
▁students	-1227
▁cra	-1228
▁fig	-1229
▁neur	-1230
▁became	-1231
▁whether	-1232
▁everybody	-1233
ina	-1234
▁abs	-1235
▁hear	-1236
▁true	-1237
▁history	-1238
▁def	-1239
▁pay	-1240
▁vir	-1241
▁within	-1242
ner	-1243
aps	-1244
▁aut	-1245
▁kill	-1246
▁trust	-1247
▁questions	-1248
air	-1249
ern	-1250
▁cal	-1251
▁clear	-1252
▁viol	-1253
▁sometimes	-1254
▁sil	-1255
▁mater	-1256
▁since	-1257
▁contin	-1258
▁single	-1259
▁stories	-1260
▁language	-1261
ank	-1262
vious	-1263
▁mach	-1264
ior	-1265
▁del	-1266
▁loc	-1267
▁six	-1268
▁tool	-1269
▁knew	-1270
▁disco	-1271
▁indust	-1272
▁though	-1273
▁certain	-1274
▁complex	-1275
ots	-1276
atic	-1277
▁bab	-1278
▁africa	-1279
▁completely	-1280
▁mess	-1281
▁cells	-1282
▁group	-1283
▁mother	-1284
▁others	-1285
▁instead	-1286
▁arch	-1287
▁built	-1288
▁invest	-1289
▁months	-1290
▁everyone	-1291
▁learning	-1292
▁says	-1293
▁share	-1294
▁result	-1295
▁united	-1296
▁environment	-1297
ef	-1298
ately	-1299
ional	-1300
▁heard	-1301
▁changed	-1302
▁ge	-1303
ider	-1304
▁fre	-1305
ulation	-1306
▁product	-1307
uck	-1308
▁oh	-1309
ont	-1310
ange	-1311
▁dra	-1312
▁follow	-1313
unch	-1314
icult	-1315
▁univers	-1316
▁government	-1317
▁norm	-1318
▁aw	-1319
▁iss	-1320
cing	-1321
line	-1322
▁dig	-1323
▁stay	-1324
▁order	-1325
▁treat	-1326
▁universe	-1327
oy	-1328
▁har	-1329
▁places	-1330
br	-1331
man	-1332
▁hold	-1333
▁behav	-1334
▁decided	-1335
▁basically	-1336
▁red	-1337
▁heart	-1338
▁incre	-1339
▁entire	-1340
io	-1341
gle	-1342
rem	-1343
rop	-1344
ired	-1345
▁looks	-1346
▁difficult	-1347
ogn	-1348
side	-1349
▁eur	-1350
▁mag	-1351
▁mor	-1352
▁deep	-1353
▁prov	-1354
▁taking	-1355
▁rob	-1356
▁turns	-1357
▁beautif	-1358
▁reality	-1359
ats	-1360
aster	-1361
▁step	-1362
▁company	-1363
▁er	-1364
▁sex	-1365
▁fear	-1366
▁success	-1367
row	-1368
▁av	-1369
ident	-1370
▁cond	-1371
▁fund	-1372
▁object	-1373
▁against	-1374
ides	-1375
itive	-1376
▁mill	-1377
▁colle	-1378
▁saying	-1379
bs	-1380
ane	-1381
ering	-1382
▁name	-1383
▁pap	-1384
iddle	-1385
▁coll	-1386
▁itself	-1387
▁easy	-1388
▁gets	-1389
▁middle	-1390
▁natural	-1391
ime	-1392
▁lots	-1393
▁takes	-1394
ructure	-1395
▁couple	-1396
▁parent	-1397
dd	-1398
▁bro	-1399
ision	-1400
▁jour	-1401
▁view	-1402
▁nature	-1403
▁companies	-1404
elt	-1405
ease	-1406
▁ill	-1407
ograph	-1408
▁planet	-1409
▁explain	-1410
▁ourselves	-1411
ott	-1412
ians	-1413
▁aud	-1414
▁ele	-1415
▁early	-1416
▁collect	-1417
▁problems	-1418
ror	-1419
▁yea	-1420
▁cars	-1421
▁wall	-1422
utions	-1423
▁plant	-1424
▁speak	-1425
▁woman	-1426
▁recent	-1427
▁deal	-1428
▁field	-1429
▁europe	-1430
▁protect	-1431
▁technolog	-1432
get	-1433
ral	-1434
▁fil	-1435
▁fail	-1436
▁meas	-1437
▁yeah	-1438
▁study	-1439
▁instit	-1440
▁experim	-1441
▁da	-1442
ples	-1443
▁huge	-1444
▁road	-1445
▁third	-1446
▁listen	-1447
▁century	-1448
▁relations	-1449
ged	-1450
ush	-1451
ocus	-1452
▁ted	-1453
▁green	-1454
▁kinds	-1455
▁cities	-1456
▁species	-1457
▁bar	-1458
▁inno	-1459
▁eight	-1460
▁focus	-1461
▁engine	-1462
que	-1463
▁line	-1464
▁dream	-1465
ination	-1466
pportun	-1467
▁disease	-1468
▁opportun	-1469
▁es	-1470
ibly	-1471
▁dna	-1472
▁pos	-1473
▁var	-1474
▁sent	-1475
▁cancer	-1476
▁cy	-1477
▁low	-1478
▁surpr	-1479
ases	-1480
▁mass	-1481
▁size	-1482
▁wind	-1483
▁based	-1484
▁block	-1485
▁spend	-1486
▁powerful	-1487
▁thousands	-1488
▁themselves	-1489
▁mal	-1490
▁felt	-1491
▁land	-1492
▁liter	-1493
▁piece	-1494
▁created	-1495
▁beautiful	-1496
▁rad	-1497
▁hours	-1498
rug	-1499
▁close	-1500
▁image	-1501
▁innov	-1502
▁figure	-1503
▁finally	-1504
▁present	-1505
ining	-1506
ished	-1507
istic	-1508
▁seem	-1509
ential	-1510
▁pract	-1511
▁che	-1512
▁mot	-1513
▁oper	-1514
▁blood	-1515
▁ideas	-1516
▁market	-1517
▁support	-1518
cial	-1519
utes	-1520
▁full	-1521
▁ones	-1522
▁quick	-1523
▁super	-1524
▁voice	-1525
▁worked	-1526
▁pattern	-1527
▁happening	-1528
ah	-1529
att	-1530
ives	-1531
▁miss	-1532
▁event	-1533
▁impro	-1534
▁access	-1535
▁obvious	-1536
ges	-1537
ling	-1538
▁cir	-1539
▁lost	-1540
▁exist	-1541
▁leave	-1542
▁american	-1543
cle	-1544
▁hy	-1545
haps	-1546
▁york	-1547
ability	-1548
▁somebody	-1549
▁relationship	-1550
▁lim	-1551
▁pot	-1552
▁near	-1553
▁supp	-1554
▁absol	-1555
▁perhaps	-1556
▁program	-1557
fu	-1558
▁guy	-1559
▁week	-1560
▁along	-1561
▁behind	-1562
▁direct	-1563
etic	-1564
▁deg	-1565
▁ess	-1566
▁key	-1567
▁maj	-1568
aring	-1569
▁gave	-1570
▁appro	-1571
▁break	-1572
▁grand	-1573
▁needs	-1574
▁absolute	-1575
ake	-1576
pid	-1577
▁mult	-1578
▁surv	-1579
▁death	-1580
▁famil	-1581
▁front	-1582
▁value	-1583
ication	-1584
▁america	-1585
▁outside	-1586
lud	-1587
ode	-1588
ator	-1589
fort	-1590
ones	-1591
▁cut	-1592
▁doct	-1593
▁meet	-1594
▁democ	-1595
▁rather	-1596
zy	-1597
▁eyes	-1598
▁house	-1599
▁scale	-1600
▁amount	-1601
▁economic	-1602
▁physical	-1603
▁beginning	-1604
sy	-1605
erv	-1606
ply	-1607
room	-1608
ients	-1609
ivity	-1610
▁longer	-1611
▁needed	-1612
▁parents	-1613
▁behavior	-1614
▁violence	-1615
acter	-1616
▁extra	-1617
▁micro	-1618
cc	-1619
ney	-1620
fect	-1621
ilar	-1622
ming	-1623
vered	-1624
▁dark	-1625
▁relig	-1626
▁father	-1627
▁difference	-1628
acy	-1629
cum	-1630
▁ben	-1631
▁personal	-1632
ially	-1633
ither	-1634
▁prop	-1635
▁least	-1636
▁travel	-1637
▁machine	-1638
ape	-1639
▁ur	-1640
ards	-1641
▁god	-1642
▁obs	-1643
▁sun	-1644
▁expect	-1645
▁interact	-1646
ised	-1647
inary	-1648
ledge	-1649
ption	-1650
▁pred	-1651
▁priv	-1652
▁team	-1653
itting	-1654
▁major	-1655
▁economy	-1656
▁numbers	-1657
▁challenge	-1658
▁cop	-1659
▁tem	-1660
▁tre	-1661
▁requ	-1662
▁china	-1663
▁given	-1664
▁known	-1665
▁south	-1666
▁bri	-1667
▁emb	-1668
ising	-1669
▁happy	-1670
▁short	-1671
▁during	-1672
▁simply	-1673
▁dr	-1674
ively	-1675
▁post	-1676
▁culture	-1677
ump	-1678
pped	-1679
▁text	-1680
▁seven	-1681
▁technologies	-1682
▁tot	-1683
▁record	-1684
▁similar	-1685
▁yourself	-1686
cri	-1687
iny	-1688
ucle	-1689
▁dou	-1690
▁risk	-1691
▁send	-1692
uation	-1693
▁ident	-1694
▁mathem	-1695
▁profess	-1696
▁population	-1697
els	-1698
▁ap	-1699
▁media	-1700
▁nucle	-1701
▁perfect	-1702
bon	-1703
▁leg	-1704
▁ple	-1705
▁path	-1706
ibility	-1707
▁ground	-1708
▁realized	-1709
▁nor	-1710
▁ori	-1711
▁engl	-1712
▁pick	-1713
▁anyone	-1714
▁attack	-1715
▁humans	-1716
▁seeing	-1717
▁minutes	-1718
▁knowledge	-1719
sych	-1720
ource	-1721
▁fight	-1722
▁strong	-1723
▁systems	-1724
▁electric	-1725
▁ant	-1726
▁ste	-1727
▁chem	-1728
▁fall	-1729
▁slow	-1730
itions	-1731
▁alone	-1732
▁books	-1733
▁phone	-1734
▁taken	-1735
▁recogn	-1736
▁transform	-1737
▁individual	-1738
osp	-1739
ters	-1740
▁eat	-1741
▁pur	-1742
ented	-1743
▁born	-1744
▁began	-1745
▁tools	-1746
▁write	-1747
▁normal	-1748
▁animals	-1749
anger	-1750
▁mole	-1751
▁local	-1752
▁psych	-1753
▁affect	-1754
▁special	-1755
▁teachers	-1756
▁incredible	-1757
oud	-1758
fully	-1759
▁emot	-1760
▁park	-1761
▁white	-1762
▁extrem	-1763
▁images	-1764
▁experien	-1765
ub	-1766
arr	-1767
ret	-1768
▁occ	-1769
wards	-1770
▁poor	-1771
ression	-1772
▁respons	-1773
▁tradition	-1774
▁wi	-1775
hood	-1776
racy	-1777
▁arm	-1778
▁enc	-1779
▁non	-1780
▁press	-1781
▁street	-1782
▁turned	-1783
▁hundreds	-1784
▁political	-1785
▁absolutely	-1786
vor	-1787
ging	-1788
▁box	-1789
▁civ	-1790
▁goo	-1791
▁sum	-1792
▁ton	-1793
▁cris	-1794
▁dest	-1795
▁disc	-1796
▁hosp	-1797
▁impact	-1798
ows	-1799
uss	-1800
▁pa	-1801
chan	-1802
▁dim	-1803
ature	-1804
▁camp	-1805
▁fast	-1806
▁insp	-1807
▁carbon	-1808
▁measure	-1809
up	-1810
▁ir	-1811
▁squ	-1812
▁typ	-1813
▁hands	-1814
▁reach	-1815
▁tried	-1816
▁common	-1817
▁mechan	-1818
▁opportunity	-1819
▁sug	-1820
▁feed	-1821
▁sudd	-1822
▁type	-1823
verage	-1824
▁color	-1825
▁paper	-1826
▁consum	-1827
▁feeling	-1828
lt	-1829
bor	-1830
uth	-1831
ants	-1832
▁oil	-1833
▁bott	-1834
▁scre	-1835
▁suff	-1836
▁vict	-1837
▁either	-1838
▁sudden	-1839
ery	-1840
ift	-1841
ium	-1842
▁cit	-1843
▁inde	-1844
▁stra	-1845
▁lived	-1846
▁online	-1847
▁convers	-1848
▁nuclear	-1849
iet	-1850
▁emp	-1851
▁flu	-1852
olved	-1853
▁dead	-1854
▁serv	-1855
idence	-1856
ilities	-1857
▁growth	-1858
▁industry	-1859
▁revolution	-1860
mer	-1861
ison	-1862
▁mob	-1863
usion	-1864
▁cool	-1865
▁prin	-1866
▁rele	-1867
▁blind	-1868
▁truth	-1869
▁modern	-1870
▁transp	-1871
▁predict	-1872
▁structure	-1873
lic	-1874
ung	-1875
book	-1876
▁sat	-1877
ences	-1878
▁conv	-1879
▁rate	-1880
▁neigh	-1881
▁perform	-1882
▁approach	-1883
▁millions	-1884
gn	-1885
▁ec	-1886
ther	-1887
▁sym	-1888
▁ult	-1889
▁web	-1890
▁baby	-1891
▁repl	-1892
▁sens	-1893
▁spread	-1894
▁digital	-1895
▁whatever	-1896
▁hon	-1897
▁son	-1898
cious	-1899
rought	-1900
▁terms	-1901
▁weeks	-1902
▁includ	-1903
▁sounds	-1904
▁scientists	-1905
icy	-1906
ton	-1907
ains	-1908
▁chr	-1909
pping	-1910
▁forest	-1911
▁repres	-1912
▁realize	-1913
▁patients	-1914
ug	-1915
aged	-1916
face	-1917
omet	-1918
▁arg	-1919
▁opt	-1920
▁win	-1921
▁bill	-1922
▁seems	-1923
▁origin	-1924
▁climate	-1925
▁growing	-1926
▁neurons	-1927
▁material	-1928
▁hit	-1929
▁vac	-1930
izing	-1931
▁song	-1932
▁tiny	-1933
▁vers	-1934
▁citiz	-1935
▁clean	-1936
▁india	-1937
▁medic	-1938
▁telling	-1939
▁audience	-1940
▁wonderful	-1941
gy	-1942
ze	-1943
▁fly	-1944
▁hot	-1945
▁oce	-1946
itect	-1947
▁anal	-1948
▁code	-1949
▁civil	-1950
▁visual	-1951
▁changes	-1952
▁national	-1953
▁recently	-1954
▁solution	-1955
▁architect	-1956
▁developed	-1957
xy	-1958
par	-1959
ades	-1960
word	-1961
▁dom	-1962
▁fem	-1963
▁sho	-1964
▁gone	-1965
▁guys	-1966
▁infl	-1967
▁term	-1968
ration	-1969
▁among	-1970
▁drive	-1971
▁parts	-1972
▁worth	-1973
▁fundam	-1974
entially	-1975
▁starting	-1976
ency	-1977
▁lay	-1978
▁map	-1979
▁inse	-1980
ources	-1981
ustain	-1982
▁understanding	-1983
asc	-1984
▁pen	-1985
urity	-1986
▁ball	-1987
▁main	-1988
▁favor	-1989
▁english	-1990
▁quickly	-1991
▁changing	-1992
▁interested	-1993
▁hor	-1994
ators	-1995
cially	-1996
▁google	-1997
▁moving	-1998
▁brought	-1999
▁extreme	-2000
▁leaders	-2001
▁suggest	-2002
▁je	-2003
▁buy	-2004
▁est	-2005
▁sea	-2006
▁draw	-2007
▁danger	-2008
▁dimens	-2009
▁indeed	-2010
▁message	-2011
▁password	-2012
ma	-2013
▁sal	-2014
▁blue	-2015
▁conc	-2016
▁animal	-2017
▁calcul	-2018
▁everywhere	-2019
eg	-2020
itch	-2021
▁fur	-2022
▁vol	-2023
▁chea	-2024
▁girls	-2025
▁solve	-2026
▁schools	-2027
▁consider	-2028
▁university	-2029
▁development	-2030
ials	-2031
land	-2032
ploy	-2033
rast	-2034
vert	-2035
▁area	-2036
▁caus	-2037
▁comb	-2038
▁safe	-2039
▁save	-2040
▁avail	-2041
▁camer	-2042
▁react	-2043
▁shows	-2044
▁smart	-2045
▁mental	-2046
▁theory	-2047
▁ability	-2048
▁forward	-2049
▁journey	-2050
▁sustain	-2051
▁experiment	-2052
by	-2053
erm	-2054
fic	-2055
oms	-2056
rodu	-2057
▁ast	-2058
icate	-2059
ological	-2060
▁average	-2061
▁biggest	-2062
▁improve	-2063
▁incredibly	-2064
bit	-2065
ony	-2066
rab	-2067
ule	-2068
onse	-2069
oose	-2070
▁dam	-2071
▁fix	-2072
▁rul	-2073
iation	-2074
▁areas	-2075
▁crazy	-2076
▁emerg	-2077
▁giving	-2078
▁saving	-2079
▁response	-2080
▁literally	-2081
▁eventually	-2082
ped	-2083
ites	-2084
▁adm	-2085
▁bal	-2086
▁lea	-2087
▁pull	-2088
▁rich	-2089
▁docum	-2090
▁robot	-2091
▁stage	-2092
▁asking	-2093
▁capital	-2094
▁passion	-2095
▁serious	-2096
▁mathemat	-2097
▁security	-2098
▁available	-2099
▁computers	-2100
oid	-2101
oph	-2102
▁ce	-2103
▁tom	-2104
itten	-2105
▁rain	-2106
▁issue	-2107
▁speed	-2108
▁wrote	-2109
▁center	-2110
▁subject	-2111
▁societies	-2112
ler	-2113
ove	-2114
ames	-2115
rent	-2116
ances	-2117
▁miles	-2118
▁writing	-2119
▁obviously	-2120
iar	-2121
ouch	-2122
▁eye	-2123
inese	-2124
veral	-2125
▁crit	-2126
▁film	-2127
▁prom	-2128
▁soft	-2129
▁benef	-2130
▁ready	-2131
▁terri	-2132
▁choice	-2133
▁meaning	-2134
▁sitting	-2135
▁creating	-2136
▁function	-2137
▁perspect	-2138
▁democracy	-2139
▁discovered	-2140
he	-2141
ban	-2142
ried	-2143
▁bey	-2144
▁flo	-2145
▁kil	-2146
▁opp	-2147
▁tru	-2148
▁fair	-2149
▁phil	-2150
▁port	-2151
▁soon	-2152
▁tend	-2153
▁cause	-2154
▁guess	-2155
▁bottom	-2156
▁groups	-2157
▁nobody	-2158
▁starts	-2159
▁further	-2160
▁several	-2161
▁situation	-2162
▁coun	-2163
▁espe	-2164
▁farm	-2165
▁meth	-2166
▁rock	-2167
▁role	-2168
▁effic	-2169
▁freed	-2170
▁malar	-2171
▁track	-2172
▁beyond	-2173
▁report	-2174
▁concept	-2175
▁patient	-2176
▁running	-2177
▁buildings	-2178
▁especially	-2179
li	-2180
more	-2181
▁gas	-2182
▁clos	-2183
▁nine	-2184
▁solar	-2185
▁accept	-2186
▁action	-2187
▁higher	-2188
▁likely	-2189
▁proper	-2190
▁threat	-2191
aw	-2192
idge	-2193
▁bed	-2194
▁boy	-2195
▁die	-2196
istan	-2197
▁diag	-2198
▁fire	-2199
▁grad	-2200
▁nice	-2201
▁redu	-2202
▁stat	-2203
ensive	-2204
▁spent	-2205
ception	-2206
▁depend	-2207
▁return	-2208
▁search	-2209
▁source	-2210
▁finding	-2211
▁reasons	-2212
▁continue	-2213
▁extraord	-2214
▁attention	-2215
ny	-2216
une	-2217
urs	-2218
▁tar	-2219
▁flow	-2220
▁wish	-2221
itation	-2222
▁device	-2223
▁showed	-2224
▁developing	-2225
app	-2226
▁ach	-2227
▁cry	-2228
▁rece	-2229
▁north	-2230
▁bigger	-2231
▁compet	-2232
▁terror	-2233
▁connected	-2234
ims	-2235
antly	-2236
oices	-2237
oming	-2238
▁loved	-2239
ruction	-2240
▁detect	-2241
▁remark	-2242
▁chinese	-2243
▁produce	-2244
▁surface	-2245
▁teacher	-2246
▁networks	-2247
ex	-2248
to	-2249
unt	-2250
lict	-2251
uals	-2252
▁lif	-2253
ellig	-2254
ously	-2255
▁east	-2256
▁vill	-2257
▁genes	-2258
▁multi	-2259
▁interv	-2260
▁colleag	-2261
▁current	-2262
▁institutions	-2263
▁deb	-2264
▁dro	-2265
▁led	-2266
▁mis	-2267
▁cook	-2268
▁poll	-2269
▁virt	-2270
▁brand	-2271
▁quant	-2272
▁becomes	-2273
▁movement	-2274
▁suddenly	-2275
por	-2276
▁san	-2277
asing	-2278
▁brit	-2279
▁foot	-2280
▁wait	-2281
▁gives	-2282
▁knows	-2283
▁older	-2284
▁rules	-2285
▁insect	-2286
▁princi	-2287
▁surviv	-2288
▁account	-2289
▁photograph	-2290
ech	-2291
xic	-2292
▁nan	-2293
▁muse	-2294
▁vacc	-2295
▁activ	-2296
▁choose	-2297
▁killed	-2298
▁compass	-2299
▁putting	-2300
▁hospital	-2301
▁neighbor	-2302
▁patterns	-2303
▁thousand	-2304
▁generation	-2305
▁scientific	-2306
▁extraordinary	-2307
bo	-2308
ala	-2309
edi	-2310
ein	-2311
old	-2312
iant	-2313
imin	-2314
▁bir	-2315
astic	-2316
ister	-2317
▁sequ	-2318
▁achie	-2319
▁check	-2320
▁detail	-2321
▁necess	-2322
▁freedom	-2323
▁general	-2324
▁medical	-2325
▁conflict	-2326
▁families	-2327
▁innovation	-2328
gth	-2329
head	-2330
icks	-2331
ring	-2332
ware	-2333
▁ign	-2334
▁lat	-2335
▁wife	-2336
▁force	-2337
▁meant	-2338
unately	-2339
▁museum	-2340
▁shared	-2341
▁classroom	-2342
▁conscious	-2343
▁evolution	-2344
▁traditional	-2345
hor	-2346
let	-2347
abor	-2348
amed	-2349
emic	-2350
▁bur	-2351
▁capt	-2352
▁deli	-2353
▁sell	-2354
▁star	-2355
iction	-2356
▁apart	-2357
▁aware	-2358
▁peace	-2359
▁crisis	-2360
▁notice	-2361
▁showing	-2362
▁medicine	-2363
▁painting	-2364
▁pictures	-2365
of	-2366
ero	-2367
▁unc	-2368
cient	-2369
▁died	-2370
▁door	-2371
▁touch	-2372
▁truly	-2373
▁urban	-2374
▁models	-2375
▁screen	-2376
▁college	-2377
▁largest	-2378
▁training	-2379
▁perspective	-2380
fer	-2381
ude	-2382
ased	-2383
ffic	-2384
▁dan	-2385
▁pet	-2386
▁epid	-2387
▁grew	-2388
▁mist	-2389
▁birth	-2390
▁cross	-2391
▁separ	-2392
▁chance	-2393
▁faster	-2394
▁infect	-2395
▁transl	-2396
▁results	-2397
▁potential	-2398
▁resources	-2399
▁compassion	-2400
▁electricity	-2401
crib	-2402
erve	-2403
ored	-2404
▁hol	-2405
▁log	-2406
▁spir	-2407
▁influ	-2408
▁milit	-2409
▁moved	-2410
▁afford	-2411
▁unique	-2412
▁anybody	-2413
▁anymore	-2414
▁student	-2415
▁totally	-2416
▁towards	-2417
▁written	-2418
▁decision	-2419
▁exciting	-2420
▁favorite	-2421
▁teaching	-2422
▁communities	-2423
go	-2424
ify	-2425
▁sn	-2426
ured	-2427
▁ger	-2428
▁sle	-2429
▁late	-2430
▁push	-2431
▁tiss	-2432
▁labor	-2433
▁ocean	-2434
▁doctor	-2435
▁engage	-2436
▁larger	-2437
▁minute	-2438
▁photos	-2439
▁thanks	-2440
▁african	-2441
▁complic	-2442
▁however	-2443
▁morning	-2444
▁quality	-2445
▁creative	-2446
▁designed	-2447
▁evidence	-2448
▁intellig	-2449
▁politics	-2450
ned	-2451
▁fra	-2452
▁joh	-2453
▁bird	-2454
▁cold	-2455
▁bacter	-2456
▁immedi	-2457
▁please	-2458
▁collabor	-2459
▁examples	-2460
▁materials	-2461
▁somewhere	-2462
▁relationships	-2463
ted	-2464
iced	-2465
ners	-2466
▁ann	-2467
▁ice	-2468
▁arab	-2469
▁bank	-2470
▁fasc	-2471
▁fuel	-2472
▁game	-2473
▁strug	-2474
▁brains	-2475
▁prison	-2476
▁talked	-2477
▁certainly	-2478
▁effective	-2479
▁individuals	-2480
▁div	-2481
▁dru	-2482
▁mos	-2483
▁sam	-2484
▁tas	-2485
arily	-2486
verty	-2487
▁drug	-2488
▁king	-2489
▁prim	-2490
▁sand	-2491
▁table	-2492
▁issues	-2493
▁rights	-2494
▁secret	-2495
▁taught	-2496
▁malaria	-2497
▁poverty	-2498
▁respect	-2499
▁respond	-2500
▁successful	-2501
▁governments	-2502
▁conversation	-2503
▁particularly	-2504
rest	-2505
soci	-2506
▁sky	-2507
odies	-2508
▁page	-2509
▁rand	-2510
▁west	-2511
▁corre	-2512
▁employ	-2513
▁launch	-2514
▁manage	-2515
▁method	-2516
▁biology	-2517
▁physics	-2518
▁provide	-2519
▁position	-2520
bol	-2521
med	-2522
aign	-2523
rael	-2524
▁bom	-2525
▁cat	-2526
▁don	-2527
▁hur	-2528
▁pan	-2529
ought	-2530
▁desp	-2531
▁prec	-2532
▁prev	-2533
▁roll	-2534
▁basic	-2535
▁defin	-2536
▁diagn	-2537
▁print	-2538
▁shape	-2539
▁virus	-2540
▁worse	-2541
▁israel	-2542
▁mobile	-2543
▁surger	-2544
▁allowed	-2545
▁campaign	-2546
▁particip	-2547
▁speaking	-2548
▁supposed	-2549
▁architecture	-2550
ee	-2551
eth	-2552
nal	-2553
ills	-2554
aging	-2555
ained	-2556
iding	-2557
istry	-2558
oting	-2559
▁narr	-2560
▁skin	-2561
▁finan	-2562
▁graph	-2563
▁wants	-2564
▁actual	-2565
▁associ	-2566
▁pieces	-2567
▁policy	-2568
▁driving	-2569
▁humanity	-2570
▁military	-2571
▁ultimate	-2572
▁transport	-2573
gen	-2574
gor	-2575
quit	-2576
▁oxy	-2577
▁copy	-2578
▁tele	-2579
ressed	-2580
▁invis	-2581
▁mount	-2582
▁office	-2583
▁police	-2584
▁facebook	-2585
▁complicated	-2586
▁fundamental	-2587
zz	-2588
rum	-2589
enom	-2590
rees	-2591
▁aid	-2592
▁ran	-2593
▁whe	-2594
eases	-2595
phone	-2596
▁feet	-2597
▁hair	-2598
▁apply	-2599
▁costs	-2600
▁lower	-2601
▁clearly	-2602
▁reading	-2603
▁direction	-2604
▁organization	-2605
lo	-2606
▁mr	-2607
come	-2608
ster	-2609
▁fle	-2610
▁pal	-2611
▁iran	-2612
▁link	-2613
▁mine	-2614
▁dance	-2615
▁drugs	-2616
▁glass	-2617
▁recon	-2618
▁random	-2619
▁remind	-2620
▁walking	-2621
▁becoming	-2622
▁citizens	-2623
▁diseases	-2624
▁increase	-2625
▁standing	-2626
▁straight	-2627
▁president	-2628
yn	-2629
ext	-2630
ume	-2631
▁ut	-2632
gypt	-2633
rial	-2634
▁eth	-2635
▁neg	-2636
atory	-2637
▁hall	-2638
▁john	-2639
▁onto	-2640
▁stri	-2641
▁teen	-2642
▁egypt	-2643
▁lines	-2644
▁range	-2645
▁allows	-2646
▁camera	-2647
▁double	-2648
▁context	-2649
▁expensive	-2650
▁listening	-2651
▁represent	-2652
▁surprising	-2653
hic	-2654
rad	-2655
rep	-2656
ires	-2657
ises	-2658
ified	-2659
▁afgh	-2660
▁fash	-2661
▁gold	-2662
erence	-2663
▁alive	-2664
▁cases	-2665
▁liber	-2666
▁molec	-2667
▁except	-2668
▁microb	-2669
▁vision	-2670
▁decades	-2671
▁usually	-2672
▁practice	-2673
▁recognize	-2674
▁connection	-2675
▁x	-2676
cil	-2677
uit	-2678
▁jud	-2679
▁mov	-2680
▁aust	-2681
▁fish	-2682
▁gala	-2683
▁luck	-2684
ground	-2685
▁above	-2686
▁email	-2687
▁shift	-2688
▁sorts	-2689
▁surve	-2690
▁discuss	-2691
▁fashion	-2692
▁introdu	-2693
▁smaller	-2694
▁remarkable	-2695
▁understood	-2696
▁essentially	-2697
▁experiences	-2698
apt	-2699
ued	-2700
rage	-2701
rene	-2702
▁fat	-2703
▁fit	-2704
▁hop	-2705
▁ine	-2706
▁coal	-2707
▁fram	-2708
▁site	-2709
ishing	-2710
▁breat	-2711
▁magic	-2712
▁trade	-2713
▁visit	-2714
▁artist	-2715
▁bodies	-2716
▁points	-2717
▁speech	-2718
▁temper	-2719
▁degrees	-2720
▁devices	-2721
▁involved	-2722
▁specific	-2723
▁character	-2724
enn	-2725
for	-2726
iod	-2727
iti	-2728
fact	-2729
▁dad	-2730
▁ken	-2731
▁los	-2732
▁kept	-2733
▁shap	-2734
▁silk	-2735
▁board	-2736
▁bread	-2737
▁match	-2738
▁shown	-2739
▁tells	-2740
▁trees	-2741
▁vehic	-2742
▁afghan	-2743
▁fascin	-2744
▁helped	-2745
▁imposs	-2746
▁period	-2747
▁unfort	-2748
▁useful	-2749
▁central	-2750
▁matters	-2751
▁traffic	-2752
▁village	-2753
▁electron	-2754
▁following	-2755
▁international	-2756
ls	-2757
back	-2758
cape	-2759
inct	-2760
▁exh	-2761
▁gps	-2762
light	-2763
rated	-2764
▁hole	-2765
▁jobs	-2766
▁lose	-2767
▁sold	-2768
▁zero	-2769
▁integ	-2770
▁prost	-2771
▁sight	-2772
▁anyway	-2773
▁concer	-2774
▁disapp	-2775
▁german	-2776
▁phenom	-2777
▁address	-2778
▁ancient	-2779
▁genetic	-2780
▁himself	-2781
▁insects	-2782
▁surgery	-2783
▁critical	-2784
▁familiar	-2785
▁including	-2786
▁treatment	-2787
▁colleagues	-2788
▁neighborhood	-2789
how	-2790
rap	-2791
ived	-2792
▁alt	-2793
▁sad	-2794
arian	-2795
cules	-2796
▁laws	-2797
▁loss	-2798
▁pack	-2799
▁cloud	-2800
▁gradu	-2801
▁photo	-2802
▁worry	-2803
▁closer	-2804
▁descri	-2805
▁determ	-2806
▁female	-2807
▁genome	-2808
▁highly	-2809
▁nearly	-2810
▁square	-2811
▁weight	-2812
▁describ	-2813
▁distrib	-2814
▁journal	-2815
▁private	-2816
▁phenomen	-2817
▁products	-2818
▁dangerous	-2819
▁challenges	-2820
ana	-2821
nel	-2822
ube	-2823
▁hi	-2824
wise	-2825
▁ban	-2826
▁bat	-2827
▁enj	-2828
▁hus	-2829
▁ske	-2830
▁bang	-2831
▁gene	-2832
▁prep	-2833
▁carry	-2834
▁encou	-2835
▁optim	-2836
▁price	-2837
▁sleep	-2838
▁income	-2839
▁target	-2840
▁doctors	-2841
▁reflect	-2842
▁somehow	-2843
▁workers	-2844
▁signific	-2845
▁watching	-2846
▁financial	-2847
▁impossible	-2848
la	-2849
sem	-2850
▁tv	-2851
▁pig	-2852
▁syn	-2853
▁bees	-2854
▁cust	-2855
▁scen	-2856
▁town	-2857
▁webs	-2858
▁offic	-2859
▁stars	-2860
▁stick	-2861
reprene	-2862
▁effort	-2863
▁spirit	-2864
ications	-2865
▁massive	-2866
▁strange	-2867
▁victims	-2868
▁discover	-2869
▁greatest	-2870
▁religion	-2871
▁invisible	-2872
▁passwords	-2873
▁entreprene	-2874
▁production	-2875
airs	-2876
ateg	-2877
lebr	-2878
ping	-2879
uted	-2880
▁hey	-2881
▁inj	-2882
▁sor	-2883
order	-2884
▁circ	-2885
▁ecos	-2886
▁fant	-2887
▁goal	-2888
▁held	-2889
▁magn	-2890
▁paid	-2891
▁weap	-2892
▁broad	-2893
▁novel	-2894
▁paint	-2895
▁celebr	-2896
▁forget	-2897
▁honest	-2898
▁memory	-2899
▁wealth	-2900
▁excited	-2901
▁knowing	-2902
▁mention	-2903
▁sharing	-2904
▁unfortunately	-2905
ese	-2906
unk	-2907
▁mi	-2908
lier	-2909
used	-2910
▁cru	-2911
▁era	-2912
▁tal	-2913
ement	-2914
phere	-2915
▁fine	-2916
▁husb	-2917
▁poet	-2918
▁reco	-2919
▁repe	-2920
▁wide	-2921
▁raise	-2922
▁physic	-2923
▁slight	-2924
▁stress	-2925
▁express	-2926
▁illness	-2927
▁streets	-2928
▁waiting	-2929
▁daughter	-2930
▁software	-2931
▁terrible	-2932
▁emotional	-2933
ox	-2934
rate	-2935
▁cla	-2936
▁lad	-2937
aling	-2938
oring	-2939
right	-2940
▁corn	-2941
▁fill	-2942
▁moon	-2943
▁tens	-2944
isions	-2945
istics	-2946
▁lands	-2947
▁prime	-2948
▁destro	-2949
▁letter	-2950
▁region	-2951
▁objects	-2952
▁bringing	-2953
▁projects	-2954
▁molecules	-2955
▁immediately	-2956
sh	-2957
nds	-2958
put	-2959
rew	-2960
apan	-2961
cope	-2962
nces	-2963
ores	-2964
▁fib	-2965
▁isl	-2966
▁nut	-2967
▁tum	-2968
▁chip	-2969
orders	-2970
▁adapt	-2971
▁floor	-2972
▁japan	-2973
▁oppos	-2974
▁tough	-2975
▁brings	-2976
▁histor	-2977
▁philos	-2978
▁techni	-2979
▁brother	-2980
▁contrib	-2981
▁correct	-2982
▁farmers	-2983
▁members	-2984
▁organiz	-2985
▁quantum	-2986
▁service	-2987
▁chemical	-2988
▁services	-2989
▁communicate	-2990
amm	-2991
erc	-2992
cies	-2993
▁amb	-2994
▁bub	-2995
▁din	-2996
▁scr	-2997
eless	-2998
ystem	-2999
▁clin	-3000
▁lack	-3001
▁adult	-3002
▁ahead	-3003
▁forms	-3004
▁noise	-3005
▁beings	-3006
▁expand	-3007
▁struct	-3008
▁symbol	-3009
▁earlier	-3010
▁greater	-3011
▁infrast	-3012
▁stopped	-3013
▁epidemic	-3014
▁pressure	-3015
▁condition	-3016
▁conditions	-3017
▁increasing	-3018
▁investment	-3019
▁afghanistan	-3020
ees	-3021
ley	-3022
pan	-3023
ball	-3024
▁hom	-3025
▁lau	-3026
acity	-3027
bling	-3028
ently	-3029
itter	-3030
▁drop	-3031
▁hell	-3032
▁hero	-3033
▁plat	-3034
▁rare	-3035
▁rise	-3036
ission	-3037
▁autom	-3038
▁chris	-3039
▁click	-3040
▁enorm	-3041
▁mexic	-3042
▁spect	-3043
▁truck	-3044
ologist	-3045
ometers	-3046
▁decade	-3047
▁driver	-3048
▁easier	-3049
fortable	-3050
▁failure	-3051
▁focused	-3052
▁markets	-3053
▁survive	-3054
▁willing	-3055
▁addition	-3056
▁bacteria	-3057
▁cultural	-3058
▁otherwise	-3059
▁solutions	-3060
▁communication	-3061
bel	-3062
mos	-3063
aced	-3064
ceed	-3065
mber	-3066
▁bud	-3067
▁dog	-3068
▁joy	-3069
▁lie	-3070
▁mas	-3071
▁smo	-3072
▁tun	-3073
ables	-3074
ended	-3075
orrow	-3076
othes	-3077
ulate	-3078
▁beat	-3079
▁shad	-3080
▁shop	-3081
atives	-3082
▁accur	-3083
▁avoid	-3084
▁cheap	-3085
▁embra	-3086
▁train	-3087
▁degree	-3088
▁master	-3089
▁seemed	-3090
▁achieve	-3091
▁explore	-3092
▁mosquit	-3093
▁noticed	-3094
▁playing	-3095
▁popular	-3096
▁positive	-3097
▁extremely	-3098
▁therefore	-3099
▁industrial	-3100
▁mechanical	-3101
▁experiments	-3102
▁institution	-3103
wh	-3104
ked	-3105
ray	-3106
uct	-3107
▁et	-3108
eter	-3109
▁den	-3110
▁jew	-3111
▁mad	-3112
▁saf	-3113
▁swe	-3114
ufact	-3115
▁batt	-3116
estern	-3117
▁equal	-3118
▁minds	-3119
▁shock	-3120
▁sorry	-3121
▁surge	-3122
▁belief	-3123
▁series	-3124
▁answers	-3125
▁effects	-3126
▁healthy	-3127
▁politic	-3128
▁progress	-3129
▁ecosystem	-3130
▁throughout	-3131
▁sustainable	-3132
leg	-3133
ches	-3134
estic	-3135
▁cogn	-3136
▁rout	-3137
▁tree	-3138
▁yell	-3139
gorith	-3140
▁smell	-3141
▁total	-3142
▁trill	-3143
▁custom	-3144
▁inspir	-3145
▁invent	-3146
▁lesson	-3147
▁select	-3148
▁tissue	-3149
▁algorith	-3150
▁manufact	-3151
▁particles	-3152
▁complexity	-3153
▁protection	-3154
▁mathematics	-3155
▁infrastructure	-3156
mm	-3157
emy	-3158
ios	-3159
tle	-3160
zil	-3161
iggs	-3162
▁fab	-3163
▁gun	-3164
▁ide	-3165
anced	-3166
itude	-3167
ivers	-3168
▁alth	-3169
▁burn	-3170
▁forg	-3171
▁host	-3172
▁jump	-3173
▁loud	-3174
▁prou	-3175
▁canad	-3176
▁enjoy	-3177
▁faith	-3178
▁fully	-3179
▁higgs	-3180
▁occur	-3181
▁risks	-3182
▁waste	-3183
▁wheel	-3184
▁author	-3185
▁brazil	-3186
▁broken	-3187
▁resist	-3188
▁review	-3189
▁spaces	-3190
▁husband	-3191
▁insight	-3192
▁western	-3193
▁although	-3194
▁directly	-3195
▁european	-3196
▁machines	-3197
▁multiple	-3198
▁standard	-3199
▁surround	-3200
▁efficient	-3201
▁scientist	-3202
▁creativity	-3203
▁dimensional	-3204
▁il	-3205
akes	-3206
load	-3207
▁ang	-3208
▁fac	-3209
▁won	-3210
aking	-3211
iling	-3212
▁acad	-3213
▁card	-3214
▁fort	-3215
▁heat	-3216
▁legs	-3217
▁nerv	-3218
▁purp	-3219
▁task	-3220
▁wood	-3221
▁birds	-3222
▁bunch	-3223
▁feels	-3224
▁laugh	-3225
▁radio	-3226
▁river	-3227
▁blocks	-3228
▁easily	-3229
▁micros	-3230
▁skills	-3231
▁switch	-3232
▁content	-3233
▁despite	-3234
▁anywhere	-3235
▁designers	-3236
▁interview	-3237
ety	-3238
ica	-3239
bles	-3240
outh	-3241
sequ	-3242
uing	-3243
▁gut	-3244
▁sus	-3245
▁base	-3246
▁edge	-3247
▁gard	-3248
▁heav	-3249
▁keny	-3250
▁reve	-3251
▁shot	-3252
▁suic	-3253
▁trou	-3254
ctions	-3255
rength	-3256
▁accom	-3257
▁motiv	-3258
▁store	-3259
▁trial	-3260
▁altern	-3261
▁beauty	-3262
▁begins	-3263
▁bridge	-3264
▁career	-3265
▁decide	-3266
▁famous	-3267
▁spider	-3268
▁austral	-3269
▁holding	-3270
▁nervous	-3271
▁require	-3272
▁scratch	-3273
▁studies	-3274
▁slightly	-3275
▁strength	-3276
▁construct	-3277
▁differently	-3278
abl	-3279
wor	-3280
▁gh	-3281
athy	-3282
inal	-3283
onst	-3284
raid	-3285
stein	-3286
▁adop	-3287
▁bomb	-3288
▁cand	-3289
▁fing	-3290
▁sick	-3291
▁upon	-3292
▁assem	-3293
▁below	-3294
▁drink	-3295
▁final	-3296
▁holes	-3297
▁named	-3298
▁throw	-3299
▁toile	-3300
▁types	-3301
▁afraid	-3302
▁meters	-3303
▁mostly	-3304
▁plants	-3305
▁sexual	-3306
▁artists	-3307
▁counter	-3308
▁deliver	-3309
▁forever	-3310
▁helping	-3311
▁justice	-3312
▁believed	-3313
▁capacity	-3314
▁document	-3315
▁elements	-3316
▁feelings	-3317
▁original	-3318
▁kilometers	-3319
▁importantly	-3320
▁responsibility	-3321
bu	-3322
iety	-3323
ropy	-3324
▁gar	-3325
▁hyp	-3326
▁ren	-3327
▁rid	-3328
ander	-3329
idden	-3330
olves	-3331
▁army	-3332
▁arri	-3333
▁dram	-3334
▁grav	-3335
▁mars	-3336
▁uses	-3337
▁ended	-3338
▁aspect	-3339
▁bright	-3340
▁related	-3341
▁seconds	-3342
▁turning	-3343
ibilities	-3344
▁affected	-3345
▁everyday	-3346
▁invented	-3347
▁possibly	-3348
▁surprise	-3349
▁necessary	-3350
▁depression	-3351
bi	-3352
oty	-3353
rus	-3354
vere	-3355
▁ira	-3356
▁mid	-3357
▁mix	-3358
▁mut	-3359
▁ver	-3360
aries	-3361
erson	-3362
iforn	-3363
itted	-3364
ratic	-3365
▁beet	-3366
▁dots	-3367
▁doub	-3368
▁gain	-3369
▁harm	-3370
▁none	-3371
▁scan	-3372
▁ship	-3373
▁soil	-3374
▁thri	-3375
itable	-3376
ricult	-3377
▁basis	-3378
▁displ	-3379
▁forth	-3380
▁parad	-3381
▁whose	-3382
▁christ	-3383
▁levels	-3384
▁nation	-3385
▁robots	-3386
▁therap	-3387
▁values	-3388
▁walked	-3389
▁demonst	-3390
▁evolved	-3391
▁studied	-3392
▁twitter	-3393
▁version	-3394
▁virtual	-3395
▁agricult	-3396
▁californ	-3397
▁feedback	-3398
▁instance	-3399
▁microbes	-3400
▁opposite	-3401
▁previous	-3402
▁cognitive	-3403
▁decisions	-3404
▁languages	-3405
▁engineering	-3406
▁performance	-3407
▁temperature	-3408
af	-3409
aff	-3410
aly	-3411
ama	-3412
aur	-3413
dom	-3414
edd	-3415
igr	-3416
owd	-3417
▁ax	-3418
itor	-3419
▁dry	-3420
▁poo	-3421
▁ten	-3422
epend	-3423
ounds	-3424
▁core	-3425
▁fren	-3426
▁lond	-3427
▁pros	-3428
▁rein	-3429
▁vast	-3430
▁wild	-3431
angers	-3432
others	-3433
▁agree	-3434
▁cards	-3435
▁cover	-3436
▁daily	-3437
▁frank	-3438
▁ignor	-3439
▁moral	-3440
▁mouth	-3441
▁prior	-3442
▁simpl	-3443
▁walls	-3444
▁eating	-3445
▁leaves	-3446
ologists	-3447
▁choices	-3448
▁consequ	-3449
▁contact	-3450
▁creates	-3451
▁curious	-3452
▁destroy	-3453
▁letters	-3454
▁accident	-3455
▁chemistry	-3456
▁happiness	-3457
▁california	-3458
▁intelligence	-3459
▁consciousness	-3460
ays	-3461
imb	-3462
toc	-3463
zen	-3464
ears	-3465
rams	-3466
resh	-3467
ties	-3468
▁dyn	-3469
▁spo	-3470
▁tit	-3471
▁vul	-3472
arter	-3473
ossil	-3474
print	-3475
tocin	-3476
▁cred	-3477
▁male	-3478
▁tast	-3479
▁vote	-3480
antage	-3481
atures	-3482
▁eleph	-3483
▁worst	-3484
▁accord	-3485
▁astron	-3486
▁commer	-3487
▁desire	-3488
▁dollar	-3489
▁fossil	-3490
▁gender	-3491
▁london	-3492
▁raised	-3493
▁secure	-3494
▁sister	-3495
▁british	-3496
▁hearing	-3497
▁leading	-3498
▁benefits	-3499
▁contract	-3500
▁enormous	-3501
▁inspired	-3502
▁majority	-3503
▁messages	-3504
▁oxytocin	-3505
▁platform	-3506
▁sentence	-3507
▁essential	-3508
▁professor	-3509
▁religious	-3510
▁structures	-3511
▁ultimately	-3512
lus	-3513
ager	-3514
amic	-3515
anda	-3516
isms	-3517
lled	-3518
otic	-3519
rupt	-3520
▁dar	-3521
▁due	-3522
▁gap	-3523
essed	-3524
uable	-3525
▁ange	-3526
▁coop	-3527
▁iraq	-3528
▁swim	-3529
▁whom	-3530
▁exerc	-3531
▁lying	-3532
▁pleas	-3533
▁prove	-3534
▁saved	-3535
▁stuck	-3536
▁trick	-3537
▁twice	-3538
ionally	-3539
▁caught	-3540
▁commit	-3541
▁convin	-3542
▁desert	-3543
▁expert	-3544
▁harder	-3545
▁motion	-3546
▁remain	-3547
▁signal	-3548
▁slowly	-3549
▁summer	-3550
▁window	-3551
▁empower	-3552
▁distance	-3553
▁profound	-3554
▁received	-3555
▁economics	-3556
▁fantastic	-3557
▁collective	-3558
▁connections	-3559
▁differences	-3560
▁imagination	-3561
▁organizations	-3562
ec	-3563
arm	-3564
oon	-3565
oun	-3566
bage	-3567
ival	-3568
roph	-3569
▁cro	-3570
▁ein	-3571
▁eld	-3572
▁etc	-3573
▁fif	-3574
▁nod	-3575
▁und	-3576
▁van	-3577
▁hang	-3578
▁iron	-3579
▁opin	-3580
ipping	-3581
itness	-3582
▁analy	-3583
▁catch	-3584
▁chain	-3585
▁error	-3586
▁facts	-3587
▁habit	-3588
itarian	-3589
▁assign	-3590
▁forces	-3591
▁gather	-3592
▁passed	-3593
▁voices	-3594
▁volunt	-3595
▁install	-3596
▁instrum	-3597
▁managed	-3598
▁purpose	-3599
▁various	-3600
▁watched	-3601
▁website	-3602
▁describe	-3603
▁einstein	-3604
▁mountain	-3605
▁partners	-3606
▁sequence	-3607
▁spending	-3608
▁trillion	-3609
▁americans	-3610
▁described	-3611
▁landscape	-3612
▁background	-3613
▁effectively	-3614
▁applications	-3615
hop	-3616
iat	-3617
umb	-3618
ancy	-3619
ests	-3620
lant	-3621
vent	-3622
▁tor	-3623
esome	-3624
▁defe	-3625
▁dung	-3626
▁fran	-3627
▁hate	-3628
▁join	-3629
▁rule	-3630
▁tons	-3631
elling	-3632
▁argum	-3633
▁brill	-3634
▁domin	-3635
▁illeg	-3636
▁quiet	-3637
▁stock	-3638
atively	-3639
connect	-3640
oration	-3641
▁active	-3642
▁babies	-3643
▁cooper	-3644
▁corner	-3645
▁divers	-3646
▁garden	-3647
▁played	-3648
ulations	-3649
▁attract	-3650
▁cheaper	-3651
▁details	-3652
▁foreign	-3653
▁moments	-3654
▁privacy	-3655
▁regular	-3656
▁silence	-3657
▁trained	-3658
▁compared	-3659
▁valuable	-3660
▁according	-3661
▁ignorance	-3662
▁operating	-3663
▁philosoph	-3664
▁suffering	-3665
▁foundation	-3666
▁experienced	-3667
▁fascinating	-3668
ai	-3669
fl	-3670
ses	-3671
▁ep	-3672
ales	-3673
empt	-3674
iors	-3675
oint	-3676
olve	-3677
osis	-3678
▁unp	-3679
▁uns	-3680
alous	-3681
cript	-3682
itals	-3683
neath	-3684
▁cure	-3685
▁harv	-3686
▁lies	-3687
▁meat	-3688
▁mort	-3689
▁plus	-3690
▁race	-3691
▁scri	-3692
forest	-3693
▁aging	-3694
▁apple	-3695
▁claim	-3696
▁heads	-3697
▁reput	-3698
▁sides	-3699
entally	-3700
▁bubble	-3701
▁circum	-3702
▁damage	-3703
▁establ	-3704
▁failed	-3705
▁fairly	-3706
▁lights	-3707
▁safety	-3708
▁vulner	-3709
▁awesome	-3710
▁citizen	-3711
▁mission	-3712
▁release	-3713
▁vehicle	-3714
▁weather	-3715
▁identity	-3716
▁independ	-3717
▁investig	-3718
▁normally	-3719
▁copyright	-3720
▁documents	-3721
▁influence	-3722
▁underneath	-3723
▁environmental	-3724
amp	-3725
cks	-3726
eds	-3727
omy	-3728
bled	-3729
iber	-3730
izes	-3731
like	-3732
xies	-3733
▁agg	-3734
▁ath	-3735
▁dot	-3736
▁jan	-3737
▁nav	-3738
▁tur	-3739
▁ven	-3740
eness	-3741
iency	-3742
inist	-3743
▁bear	-3744
▁bits	-3745
▁fake	-3746
▁fold	-3747
▁gall	-3748
▁gift	-3749
▁peer	-3750
▁ring	-3751
▁trem	-3752
▁trip	-3753
▁weak	-3754
father	-3755
icking	-3756
▁faces	-3757
▁grade	-3758
▁homes	-3759
▁marri	-3760
▁paris	-3761
▁polic	-3762
▁renew	-3763
▁round	-3764
▁rural	-3765
▁causes	-3766
▁charge	-3767
▁french	-3768
▁gotten	-3769
▁immune	-3770
▁phones	-3771
▁reward	-3772
▁calling	-3773
▁compare	-3774
▁constit	-3775
▁entropy	-3776
▁factors	-3777
▁savings	-3778
▁suicide	-3779
▁billions	-3780
▁produced	-3781
▁vaccines	-3782
▁behaviors	-3783
▁carefully	-3784
▁discovery	-3785
▁economies	-3786
▁marketing	-3787
▁narrative	-3788
▁terrorism	-3789
▁biological	-3790
▁definition	-3791
▁phenomenon	-3792
▁opportunities	-3793
cr	-3794
ara	-3795
bur	-3796
vas	-3797
win	-3798
vant	-3799
ysis	-3800
▁ble	-3801
▁fro	-3802
▁hyd	-3803
▁org	-3804
▁phr	-3805
▁pil	-3806
▁tax	-3807
▁arms	-3808
▁fell	-3809
▁hous	-3810
▁lect	-3811
▁sect	-3812
▁sept	-3813
rating	-3814
▁assum	-3815
▁atmos	-3816
▁brown	-3817
▁cyber	-3818
▁frequ	-3819
▁giant	-3820
▁kenya	-3821
▁lucky	-3822
▁march	-3823
▁rapid	-3824
▁rough	-3825
▁teeth	-3826
issions	-3827
▁canada	-3828
▁depart	-3829
▁france	-3830
▁grandm	-3831
▁poetry	-3832
▁script	-3833
ervation	-3834
▁artific	-3835
▁contain	-3836
▁element	-3837
▁factory	-3838
▁jealous	-3839
▁reconst	-3840
▁replace	-3841
▁succeed	-3842
▁activity	-3843
▁domestic	-3844
▁followed	-3845
▁galaxies	-3846
▁launched	-3847
▁molecule	-3848
▁struggle	-3849
▁currently	-3850
▁mosquitos	-3851
▁published	-3852
▁atmosphere	-3853
▁principles	-3854
▁civilization	-3855
▁mathematical	-3856
▁professional	-3857
cop	-3858
pty	-3859
ulf	-3860
und	-3861
alse	-3862
cell	-3863
rete	-3864
▁aim	-3865
▁cos	-3866
▁hiv	-3867
▁vot	-3868
▁wal	-3869
▁anti	-3870
▁date	-3871
▁dial	-3872
▁disp	-3873
▁exch	-3874
▁geor	-3875
▁perm	-3876
▁pock	-3877
▁remo	-3878
▁seas	-3879
▁shel	-3880
acters	-3881
▁appre	-3882
▁calls	-3883
▁enter	-3884
▁false	-3885
▁maint	-3886
▁moves	-3887
▁movie	-3888
▁occas	-3889
▁pages	-3890
▁party	-3891
▁proud	-3892
▁roads	-3893
▁shame	-3894
▁sites	-3895
▁amazon	-3896
▁batter	-3897
▁bought	-3898
▁colors	-3899
▁consid	-3900
▁deeply	-3901
▁demand	-3902
▁illust	-3903
▁opened	-3904
▁papers	-3905
▁patent	-3906
▁strugg	-3907
▁survey	-3908
▁yellow	-3909
▁balance	-3910
▁limited	-3911
▁missing	-3912
▁volunte	-3913
▁witness	-3914
▁programs	-3915
▁childhood	-3916
▁religions	-3917
▁strangers	-3918
▁surprised	-3919
▁characters	-3920
▁reputation	-3921
▁politicians	-3922
dp	-3923
ids	-3924
ius	-3925
reg	-3926
kers	-3927
onym	-3928
wide	-3929
▁bag	-3930
▁cod	-3931
▁gdp	-3932
▁odd	-3933
▁spl	-3934
erves	-3935
iable	-3936
iving	-3937
nding	-3938
▁asia	-3939
▁blah	-3940
▁drag	-3941
▁myst	-3942
▁suit	-3943
▁unit	-3944
lusion	-3945
ortion	-3946
urally	-3947
▁crowd	-3948
▁fewer	-3949
▁horri	-3950
▁latin	-3951
▁layer	-3952
▁mouse	-3953
▁prize	-3954
▁prote	-3955
▁slide	-3956
▁traum	-3957
▁tumor	-3958
▁waves	-3959
▁battle	-3960
▁caused	-3961
▁circle	-3962
▁events	-3963
▁fellow	-3964
▁forced	-3965
▁interp	-3966
▁scared	-3967
▁toilet	-3968
▁videos	-3969
▁britain	-3970
▁concern	-3971
▁depends	-3972
▁germany	-3973
▁leaving	-3974
▁meeting	-3975
▁signals	-3976
▁washing	-3977
▁creation	-3978
▁election	-3979
▁entirely	-3980
▁radiation	-3981
▁september	-3982
▁destruction	-3983
▁possibility	-3984
▁possibilities	-3985
ky	-3986
men	-3987
rig	-3988
▁ug	-3989
▁zo	-3990
ares	-3991
cked	-3992
enty	-3993
ford	-3994
iger	-3995
ques	-3996
zzle	-3997
▁aug	-3998
▁bul	-3999
▁cow	-4000
▁rot	-4001
▁tan	-4002
▁wel	-4003
celer	-4004
ening	-4005
inite	-4006
▁bath	-4007
▁chur	-4008
▁init	-4009
▁jail	-4010
▁outc	-4011
▁summ	-4012
▁unex	-4013
▁wear	-4014
mented	-4015
pected	-4016
▁court	-4017
▁cyrus	-4018
▁dying	-4019
▁empty	-4020
▁funny	-4021
▁grate	-4022
▁polar	-4023
▁songs	-4024
▁subst	-4025
▁closed	-4026
▁compon	-4027
▁forgot	-4028
▁fourth	-4029
▁acceler	-4030
▁attempt	-4031
▁cooking	-4032
▁illegal	-4033
▁nations	-4034
▁protein	-4035
▁testing	-4036
▁violent	-4037
▁elephant	-4038
▁instruct	-4039
▁reaction	-4040
▁recorded	-4041
▁separate	-4042
▁studying	-4043
▁brilliant	-4044
▁employees	-4045
▁hospitals	-4046
▁universal	-4047
▁worldwide	-4048
▁artificial	-4049
▁conference	-4050
▁dimensions	-4051
▁disability	-4052
▁passionate	-4053
cl	-4054
hy	-4055
urd	-4056
▁tu	-4057
ened	-4058
▁ham	-4059
▁mit	-4060
▁pun	-4061
▁rat	-4062
▁sir	-4063
atell	-4064
force	-4065
ortex	-4066
ulous	-4067
water	-4068
worth	-4069
▁axis	-4070
▁bicy	-4071
▁boys	-4072
▁bran	-4073
▁cart	-4074
▁isol	-4075
▁kick	-4076
▁mamm	-4077
▁musl	-4078
▁note	-4079
▁rebu	-4080
▁russ	-4081
▁soph	-4082
▁soul	-4083
▁stem	-4084
▁wave	-4085
icated	-4086
▁beach	-4087
▁broke	-4088
▁categ	-4089
▁helps	-4090
▁keeps	-4091
▁names	-4092
▁offer	-4093
▁punch	-4094
▁reven	-4095
▁stood	-4096
▁stret	-4097
▁uncom	-4098
▁advent	-4099
▁belong	-4100
▁corpor	-4101
▁dinner	-4102
▁dreams	-4103
▁driven	-4104
▁facing	-4105
▁hidden	-4106
▁mexico	-4107
▁remote	-4108
▁satell	-4109
▁specif	-4110
▁suffer	-4111
▁supply	-4112
▁unless	-4113
▁unlike	-4114
▁versus	-4115
atically	-4116
▁applied	-4117
▁appreci	-4118
▁centers	-4119
▁dealing	-4120
▁planets	-4121
▁precise	-4122
▁prosper	-4123
▁prototy	-4124
▁typical	-4125
▁younger	-4126
▁advanced	-4127
▁fighting	-4128
▁ordinary	-4129
▁outcomes	-4130
▁proteins	-4131
▁elections	-4132
▁identical	-4133
▁considered	-4134
▁mathematic	-4135
▁transition	-4136
▁grandfather	-4137
▁grandmother	-4138
▁significant	-4139
▁conversations	-4140
ae	-4141
yl	-4142
key	-4143
pap	-4144
uge	-4145
▁na	-4146
cest	-4147
gets	-4148
mark	-4149
ogen	-4150
rict	-4151
tube	-4152
▁ens	-4153
▁mel	-4154
▁unf	-4155
▁wow	-4156
ength	-4157
icity	-4158
▁agre	-4159
▁bare	-4160
▁dood	-4161
▁ends	-4162
▁gree	-4163
▁hide	-4164
▁wond	-4165
icious	-4166
ulated	-4167
▁argue	-4168
▁disab	-4169
▁doubt	-4170
▁grant	-4171
▁grown	-4172
▁motor	-4173
▁resil	-4174
▁shoes	-4175
▁talks	-4176
▁assist	-4177
▁explan	-4178
▁filled	-4179
▁medium	-4180
▁notion	-4181
▁repair	-4182
▁repeat	-4183
▁retire	-4184
▁actions	-4185
▁capable	-4186
▁capture	-4187
▁partner	-4188
▁station	-4189
▁viruses	-4190
▁wearing	-4191
▁youtube	-4192
▁concrete	-4193
▁emotions	-4194
▁grateful	-4195
▁resource	-4196
▁survival	-4197
▁tomorrow	-4198
▁australia	-4199
▁engineers	-4200
▁hopefully	-4201
▁practical	-4202
▁constantly	-4203
▁efficiency	-4204
▁generations	-4205
▁reconstruct	-4206
▁increasingly	-4207
▁fundamentally	-4208
▁transportation	-4209
ett	-4210
ras	-4211
val	-4212
▁lu	-4213
aled	-4214
cers	-4215
cles	-4216
fied	-4217
isco	-4218
ruck	-4219
▁bow	-4220
▁dav	-4221
▁pak	-4222
▁shr	-4223
▁thr	-4224
arity	-4225
eared	-4226
enced	-4227
▁blow	-4228
▁coff	-4229
▁ears	-4230
▁flat	-4231
▁flex	-4232
▁gras	-4233
▁horm	-4234
▁sets	-4235
▁ther	-4236
▁artic	-4237
▁climb	-4238
▁estim	-4239
▁explo	-4240
▁honor	-4241
▁hotel	-4242
▁legal	-4243
▁magaz	-4244
▁manip	-4245
▁rooms	-4246
▁scene	-4247
▁schol	-4248
▁signs	-4249
▁sport	-4250
▁acting	-4251
▁advice	-4252
▁ancest	-4253
▁crispr	-4254
▁debate	-4255
▁deeper	-4256
▁electr	-4257
▁leader	-4258
▁owners	-4259
▁refuge	-4260
▁silent	-4261
▁thinks	-4262
▁mystery	-4263
▁radical	-4264
▁therapy	-4265
▁treated	-4266
▁constant	-4267
▁expected	-4268
▁hypothes	-4269
▁infinite	-4270
▁pakistan	-4271
▁requires	-4272
▁tracking	-4273
▁transfer	-4274
▁awareness	-4275
▁convinced	-4276
▁explained	-4277
▁mentioned	-4278
▁seriously	-4279
▁variation	-4280
▁expression	-4281
▁statistics	-4282
▁responsible	-4283
▁entrepreneurs	-4284
hr	-4285
ato	-4286
iff	-4287
yle	-4288
aked	-4289
bert	-4290
care	-4291
heim	-4292
iles	-4293
irty	-4294
pper	-4295
▁bee	-4296
▁cha	-4297
▁mir	-4298
▁oct	-4299
▁ric	-4300
▁tap	-4301
▁vib	-4302
iders	-4303
uries	-4304
▁anat	-4305
▁gray	-4306
▁hung	-4307
▁libr	-4308
▁maps	-4309
▁mile	-4310
▁roof	-4311
▁vent	-4312
encies	-4313
ension	-4314
vision	-4315
▁added	-4316
▁anger	-4317
▁bound	-4318
▁chart	-4319
▁clust	-4320
▁coast	-4321
▁compl	-4322
▁crash	-4323
▁curve	-4324
▁exhib	-4325
▁frust	-4326
▁goods	-4327
▁haiti	-4328
▁knock	-4329
▁leads	-4330
▁nanop	-4331
▁navig	-4332
▁serve	-4333
▁steps	-4334
▁accent	-4335
▁adults	-4336
▁analog	-4337
▁anonym	-4338
▁expans	-4339
▁fabric	-4340
▁implic	-4341
▁member	-4342
▁severe	-4343
▁struck	-4344
▁weapon	-4345
▁benefit	-4346
▁courage	-4347
▁equival	-4348
▁experts	-4349
▁promise	-4350
▁trouble	-4351
▁windows	-4352
ification	-4353
▁accurate	-4354
▁argument	-4355
▁contrast	-4356
▁relevant	-4357
▁advantage	-4358
▁designing	-4359
▁disappear	-4360
▁disorders	-4361
▁diversity	-4362
▁organized	-4363
▁perfectly	-4364
▁democratic	-4365
▁laboratory	-4366
▁personally	-4367
▁profession	-4368
▁trustworth	-4369
▁vulnerable	-4370
▁application	-4371
▁comfortable	-4372
▁educational	-4373
▁exploration	-4374
▁manufacturing	-4375
ym	-4376
amb	-4377
bre	-4378
off	-4379
oos	-4380
rit	-4381
son	-4382
coin	-4383
roll	-4384
▁ale	-4385
▁fol	-4386
▁row	-4387
agers	-4388
icing	-4389
inate	-4390
inder	-4391
place	-4392
▁bone	-4393
▁decl	-4394
▁eval	-4395
▁fool	-4396
▁gent	-4397
▁loop	-4398
▁purs	-4399
▁rely	-4400
▁ride	-4401
▁abuse	-4402
▁atoms	-4403
▁imple	-4404
▁inner	-4405
▁metap	-4406
▁trend	-4407
▁uncle	-4408
ography	-4409
▁candid	-4410
▁deaths	-4411
▁fibers	-4412
▁flower	-4413
▁oceans	-4414
▁pulled	-4415
▁shadow	-4416
▁shapes	-4417
▁spring	-4418
▁storyt	-4419
▁transm	-4420
▁volume	-4421
igration	-4422
ographic	-4423
▁blockch	-4424
▁closely	-4425
▁killing	-4426
▁mistake	-4427
▁newspap	-4428
▁section	-4429
▁sending	-4430
▁setting	-4431
▁welcome	-4432
▁circumst	-4433
▁consumer	-4434
▁disaster	-4435
▁internal	-4436
▁mistakes	-4437
▁pleasure	-4438
▁policies	-4439
▁emissions	-4440
▁generally	-4441
▁interests	-4442
▁naturally	-4443
▁statement	-4444
▁technical	-4445
▁uncertain	-4446
▁wondering	-4447
▁businesses	-4448
▁properties	-4449
▁sanitation	-4450
▁agriculture	-4451
▁necessarily	-4452
▁consequences	-4453
hi	-4454
mp	-4455
rs	-4456
irt	-4457
ita	-4458
ker	-4459
lin	-4460
▁pi	-4461
anes	-4462
bors	-4463
iday	-4464
rors	-4465
uary	-4466
▁cyl	-4467
▁fed	-4468
▁max	-4469
▁mer	-4470
▁nar	-4471
▁pow	-4472
▁rub	-4473
▁wid	-4474
acing	-4475
▁disg	-4476
▁hurt	-4477
▁lawy	-4478
▁mice	-4479
▁pure	-4480
▁sees	-4481
▁wire	-4482
ensity	-4483
ession	-4484
▁barri	-4485
▁elder	-4486
▁frame	-4487
▁grass	-4488
▁intel	-4489
▁memor	-4490
▁score	-4491
▁stone	-4492
▁sympt	-4493
osition	-4494
uations	-4495
▁coffee	-4496
▁cortex	-4497
▁curios	-4498
▁dialog	-4499
▁fields	-4500
▁losing	-4501
▁sample	-4502
▁stayed	-4503
▁council	-4504
▁empathy	-4505
▁figured	-4506
▁forests	-4507
▁highest	-4508
▁instant	-4509
▁married	-4510
▁mustach	-4511
▁options	-4512
▁prevent	-4513
▁restaur	-4514
▁solving	-4515
▁stretch	-4516
▁tremend	-4517
▁worried	-4518
▁equality	-4519
▁features	-4520
▁jealousy	-4521
▁magazine	-4522
▁maintain	-4523
▁marriage	-4524
▁programm	-4525
▁property	-4526
▁southern	-4527
▁stronger	-4528
▁increased	-4529
▁principle	-4530
▁providing	-4531
▁sentences	-4532
▁connectome	-4533
▁equivalent	-4534
▁management	-4535
▁meaningful	-4536
▁techniques	-4537
▁washington	-4538
▁specifically	-4539
▁transformation	-4540
▁bg	-4541
▁ii	-4542
▁ju	-4543
▁oy	-4544
apse	-4545
ardo	-4546
lock	-4547
ulpt	-4548
uous	-4549
▁alz	-4550
▁inh	-4551
▁jer	-4552
▁sla	-4553
▁wis	-4554
ament	-4555
ategy	-4556
cking	-4557
etime	-4558
fying	-4559
house	-4560
vable	-4561
verts	-4562
▁aids	-4563
▁band	-4564
▁frag	-4565
▁mira	-4566
▁poem	-4567
▁saud	-4568
▁stim	-4569
▁user	-4570
▁vari	-4571
ending	-4572
heimer	-4573
ifying	-4574
iminal	-4575
▁adopt	-4576
▁faced	-4577
▁franc	-4578
▁fresh	-4579
▁horiz	-4580
▁input	-4581
▁limit	-4582
▁staff	-4583
▁weigh	-4584
▁adding	-4585
▁advert	-4586
▁border	-4587
▁breath	-4588
▁church	-4589
▁indian	-4590
▁needle	-4591
▁palest	-4592
▁puzzle	-4593
▁sculpt	-4594
▁solved	-4595
▁toward	-4596
▁voting	-4597
▁accompl	-4598
▁bitcoin	-4599
▁channel	-4600
▁drawing	-4601
▁embrace	-4602
▁equally	-4603
▁extract	-4604
▁opening	-4605
▁operate	-4606
▁privile	-4607
▁rebuild	-4608
▁richard	-4609
▁roughly	-4610
▁visible	-4611
▁exchange	-4612
▁generate	-4613
▁memories	-4614
▁obsessed	-4615
▁particle	-4616
▁shipping	-4617
▁strategy	-4618
▁thoughts	-4619
▁alzheimer	-4620
▁consumers	-4621
▁curiosity	-4622
▁existence	-4623
▁intellect	-4624
▁introduce	-4625
▁molecular	-4626
▁mortality	-4627
▁neighbors	-4628
▁searching	-4629
▁traveling	-4630
▁associated	-4631
▁commercial	-4632
▁physically	-4633
▁processing	-4634
▁distributed	-4635
▁inspiration	-4636
▁potentially	-4637
▁construction	-4638
bb	-4639
com	-4640
och	-4641
ole	-4642
ria	-4643
ums	-4644
▁eg	-4645
▁wk	-4646
aren	-4647
aust	-4648
gers	-4649
hold	-4650
ocol	-4651
zing	-4652
▁esc	-4653
▁gri	-4654
▁lic	-4655
▁sed	-4656
▁sem	-4657
iform	-4658
ingly	-4659
orter	-4660
▁bind	-4661
▁blog	-4662
▁cath	-4663
▁hunt	-4664
▁inev	-4665
▁liqu	-4666
▁ours	-4667
▁puts	-4668
▁qual	-4669
▁rent	-4670
▁seat	-4671
▁shif	-4672
▁tack	-4673
▁thom	-4674
▁tour	-4675
idents	-4676
stream	-4677
▁advoc	-4678
▁chose	-4679
▁coach	-4680
▁colon	-4681
▁drove	-4682
▁hydro	-4683
▁lifes	-4684
▁sales	-4685
▁solid	-4686
▁teles	-4687
▁topic	-4688
▁veter	-4689
▁weird	-4690
▁clever	-4691
▁finish	-4692
▁formed	-4693
▁fought	-4694
▁gentle	-4695
▁handle	-4696
▁organs	-4697
▁reduce	-4698
▁shaped	-4699
▁stream	-4700
▁afterno	-4701
▁amongst	-4702
▁covered	-4703
▁cutting	-4704
▁cybercr	-4705
▁engaged	-4706
▁fiction	-4707
▁gravity	-4708
▁invited	-4709
▁lessons	-4710
▁opinion	-4711
▁overall	-4712
▁recover	-4713
▁vaccine	-4714
▁variety	-4715
▁wanting	-4716
▁weapons	-4717
▁wheelch	-4718
▁emerging	-4719
▁finished	-4720
▁psychiat	-4721
▁algorithm	-4722
▁processes	-4723
▁affordable	-4724
▁classrooms	-4725
▁collection	-4726
▁department	-4727
▁hypothesis	-4728
▁microscope	-4729
▁perception	-4730
▁television	-4731
▁challenging	-4732
▁consumption	-4733
▁explanation	-4734
▁interactive	-4735
▁humanitarian	-4736
ua	-4737
vi	-4738
bal	-4739
gic	-4740
zed	-4741
▁ni	-4742
▁ss	-4743
fast	-4744
ints	-4745
port	-4746
thes	-4747
▁arr	-4748
▁beg	-4749
▁dut	-4750
▁fox	-4751
▁gla	-4752
▁meg	-4753
antic	-4754
board	-4755
iring	-4756
itely	-4757
izoph	-4758
leton	-4759
quake	-4760
▁ages	-4761
▁atom	-4762
▁auth	-4763
▁cere	-4764
▁chim	-4765
▁clip	-4766
▁kore	-4767
▁lady	-4768
▁leon	-4769
▁lift	-4770
▁mand	-4771
▁mast	-4772
▁mich	-4773
▁scar	-4774
▁spot	-4775
▁subm	-4776
▁tied	-4777
▁wake	-4778
▁zone	-4779
isters	-4780
▁admit	-4781
▁alien	-4782
▁boxes	-4783
▁cable	-4784
▁crime	-4785
▁dense	-4786
▁expon	-4787
▁fifth	-4788
▁games	-4789
▁honey	-4790
▁insur	-4791
▁minor	-4792
▁occup	-4793
▁rates	-4794
▁sweet	-4795
▁therm	-4796
▁thick	-4797
▁users	-4798
anderth	-4799
entions	-4800
ruption	-4801
▁attach	-4802
▁beetle	-4803
▁credit	-4804
▁crying	-4805
▁devast	-4806
▁galaxy	-4807
▁height	-4808
▁heroes	-4809
▁joined	-4810
▁length	-4811
▁neuros	-4812
▁picked	-4813
▁pounds	-4814
▁status	-4815
▁surely	-4816
entional	-4817
▁attacks	-4818
▁babbage	-4819
▁combine	-4820
▁comment	-4821
▁elderly	-4822
▁january	-4823
▁leather	-4824
▁samples	-4825
▁sources	-4826
▁surgeon	-4827
▁tonight	-4828
▁analysis	-4829
▁anderson	-4830
▁apparent	-4831
▁clinical	-4832
▁dialogue	-4833
▁disorder	-4834
▁exercise	-4835
▁metaphor	-4836
▁negative	-4837
▁planning	-4838
▁prostate	-4839
▁schizoph	-4840
▁skeleton	-4841
▁traveled	-4842
▁breakfast	-4843
▁confident	-4844
▁neanderth	-4845
▁responses	-4846
▁standards	-4847
▁technique	-4848
▁earthquake	-4849
▁innovative	-4850
▁unexpected	-4851
▁wheelchair	-4852
▁alternative	-4853
▁electronics	-4854
▁interaction	-4855
▁distribution	-4856
▁entrepreneur	-4857
▁circumstances	-4858
ov	-4859
ari	-4860
hes	-4861
ils	-4862
iop	-4863
ipp	-4864
osh	-4865
urb	-4866
vey	-4867
▁ru	-4868
agen	-4869
plom	-4870
rary	-4871
▁anx	-4872
▁bos	-4873
▁ded	-4874
▁ros	-4875
▁ves	-4876
child	-4877
emics	-4878
lands	-4879
riend	-4880
▁bell	-4881
▁biom	-4882
▁dece	-4883
▁hits	-4884
▁milk	-4885
▁myth	-4886
▁pair	-4887
▁pump	-4888
▁quad	-4889
▁runs	-4890
▁stro	-4891
▁zoom	-4892
inated	-4893
lusive	-4894
porary	-4895
ushing	-4896
▁airpl	-4897
▁altru	-4898
▁brief	-4899
▁comed	-4900
▁drill	-4901
▁fixed	-4902
▁fuels	-4903
▁gates	-4904
▁grows	-4905
▁james	-4906
▁label	-4907
▁negot	-4908
▁nobel	-4909
▁perce	-4910
▁pregn	-4911
▁shout	-4912
▁taste	-4913
angible	-4914
iminals	-4915
iveness	-4916
▁appear	-4917
▁define	-4918
▁diplom	-4919
▁flying	-4920
▁island	-4921
▁linked	-4922
▁oxygen	-4923
▁phrase	-4924
▁proced	-4925
▁sector	-4926
▁stupid	-4927
▁victim	-4928
▁virgin	-4929
▁worker	-4930
▁angeles	-4931
▁arrived	-4932
▁crucial	-4933
▁dynamic	-4934
▁harvard	-4935
▁lecture	-4936
▁poorest	-4937
▁quarter	-4938
▁selling	-4939
▁spiders	-4940
▁tissues	-4941
▁administ	-4942
▁birthday	-4943
▁graduate	-4944
▁lifetime	-4945
▁released	-4946
▁required	-4947
▁returned	-4948
▁afternoon	-4949
▁anonymous	-4950
▁conflicts	-4951
▁customers	-4952
▁deception	-4953
▁functions	-4954
▁sophistic	-4955
▁spreading	-4956
▁accessible	-4957
▁commitment	-4958
▁importance	-4959
▁prosperity	-4960
▁personality	-4961
▁implications	-4962
▁interactions	-4963
▁technological	-4964
kn	-4965
ok	-4966
ago	-4967
ami	-4968
asa	-4969
eal	-4970
een	-4971
hol	-4972
met	-4973
ops	-4974
▁ah	-4975
▁ig	-4976
▁pm	-4977
ault	-4978
iest	-4979
▁bes	-4980
▁bon	-4981
▁gig	-4982
▁lin	-4983
▁lit	-4984
▁ped	-4985
▁rom	-4986
▁twe	-4987
▁busy	-4988
▁dict	-4989
▁enab	-4990
▁flag	-4991
▁intu	-4992
▁lens	-4993
▁manh	-4994
▁mere	-4995
▁prem	-4996
▁tall	-4997
▁wars	-4998
arency	-4999
imeter	-5000
rition	-5001
▁badly	-5002
▁bones	-5003
▁clock	-5004
▁equip	-5005
▁ghana	-5006
▁globe	-5007
▁judge	-5008
▁manus	-5009
▁peers	-5010
▁plans	-5011
▁quart	-5012
▁quote	-5013
▁saudi	-5014
▁scary	-5015
▁shoot	-5016
▁storm	-5017
▁units	-5018
▁usual	-5019
▁yield	-5020
ressive	-5021
▁barely	-5022
▁desper	-5023
▁exists	-5024
▁george	-5025
▁iphone	-5026
▁nerves	-5027
▁neuron	-5028
▁option	-5029
▁pocket	-5030
▁signed	-5031
▁tested	-5032
▁tunnel	-5033
▁borders	-5034
▁conduct	-5035
▁delight	-5036
▁dropped	-5037
▁encoura	-5038
▁essence	-5039
▁include	-5040
▁library	-5041
▁nowhere	-5042
▁offered	-5043
▁painful	-5044
▁plastic	-5045
▁remains	-5046
▁strateg	-5047
▁convince	-5048
▁cylinder	-5049
▁illusion	-5050
▁printing	-5051
▁spectrum	-5052
▁suggests	-5053
▁collected	-5054
▁continent	-5055
▁creatures	-5056
▁destroyed	-5057
▁detection	-5058
▁francisco	-5059
▁mechanism	-5060
▁paintings	-5061
▁practices	-5062
▁presented	-5063
▁discussion	-5064
▁industries	-5065
▁manuscript	-5066
▁optimistic	-5067
▁rainforest	-5068
▁tremendous	-5069
▁participate	-5070
▁researchers	-5071
▁transparency	-5072
ca	-5073
bar	-5074
car	-5075
har	-5076
itz	-5077
lon	-5078
nes	-5079
set	-5080
umn	-5081
yal	-5082
▁ai	-5083
▁du	-5084
▁gi	-5085
anna	-5086
berg	-5087
ding	-5088
icit	-5089
iped	-5090
ston	-5091
uits	-5092
▁asp	-5093
▁hat	-5094
▁hun	-5095
▁ing	-5096
▁jun	-5097
▁les	-5098
▁pin	-5099
▁sen	-5100
▁voc	-5101
iated	-5102
ipped	-5103
osing	-5104
rency	-5105
ropri	-5106
sters	-5107
▁abst	-5108
▁dign	-5109
▁duck	-5110
▁june	-5111
▁paul	-5112
▁pink	-5113
▁pool	-5114
▁rice	-5115
▁soup	-5116
▁span	-5117
▁warm	-5118
lessly	-5119
tering	-5120
▁absor	-5121
▁abund	-5122
▁barre	-5123
▁crypt	-5124
▁encod	-5125
▁glaci	-5126
▁horse	-5127
▁ideal	-5128
▁obser	-5129
▁revol	-5130
▁stack	-5131
▁union	-5132
▁views	-5133
▁youth	-5134
▁agreed	-5135
▁contem	-5136
▁drives	-5137
▁flight	-5138
▁friday	-5139
▁hoping	-5140
▁houses	-5141
▁incent	-5142
▁injust	-5143
▁missed	-5144
▁multip	-5145
▁paying	-5146
▁placed	-5147
▁stands	-5148
▁stored	-5149
▁academy	-5150
▁aspects	-5151
▁authent	-5152
▁bicycle	-5153
▁careful	-5154
▁confron	-5155
▁congest	-5156
▁convert	-5157
▁england	-5158
▁evening	-5159
▁feature	-5160
▁figures	-5161
▁keeping	-5162
▁mothers	-5163
▁observe	-5164
▁rapidly	-5165
▁reprodu	-5166
▁accepted	-5167
▁astronom	-5168
▁cultures	-5169
▁drinking	-5170
▁engaging	-5171
▁location	-5172
▁measured	-5173
▁prepared	-5174
▁symptoms	-5175
▁transact	-5176
▁vehicles	-5177
▁wondered	-5178
▁colleague	-5179
▁committed	-5180
▁concerned	-5181
▁emergency	-5182
▁encourage	-5183
▁equipment	-5184
▁expansion	-5185
▁operation	-5186
▁algorithms	-5187
▁ecosystems	-5188
▁historical	-5189
▁leadership	-5190
▁relatively	-5191
▁represents	-5192
▁competition	-5193
▁improvement	-5194
▁intelligent	-5195
▁schizophren	-5196
▁intellectual	-5197
ald	-5198
bly	-5199
ief	-5200
mes	-5201
mon	-5202
uls	-5203
▁ip	-5204
▁od	-5205
cast	-5206
ctic	-5207
iate	-5208
iban	-5209
ingu	-5210
olic	-5211
oned	-5212
over	-5213
pass	-5214
pher	-5215
▁gro	-5216
▁lux	-5217
▁nom	-5218
▁pip	-5219
▁raw	-5220
inson	-5221
itors	-5222
known	-5223
lines	-5224
opard	-5225
organ	-5226
point	-5227
ushed	-5228
▁alex	-5229
▁boom	-5230
▁chap	-5231
▁club	-5232
▁cong	-5233
▁debt	-5234
▁diam	-5235
▁jack	-5236
▁leap	-5237
▁mart	-5238
▁pray	-5239
▁rats	-5240
▁tatt	-5241
▁uber	-5242
herent	-5243
ivered	-5244
lation	-5245
ounced	-5246
ternal	-5247
▁awful	-5248
▁brows	-5249
▁comet	-5250
▁crops	-5251
▁cycle	-5252
▁dozen	-5253
▁drawn	-5254
▁heavy	-5255
▁holds	-5256
▁hyper	-5257
▁persu	-5258
▁phase	-5259
▁steel	-5260
▁style	-5261
▁yours	-5262
▁arrest	-5263
▁embedd	-5264
▁explos	-5265
▁hungry	-5266
▁ignore	-5267
▁immigr	-5268
▁layers	-5269
▁limits	-5270
▁movies	-5271
▁posted	-5272
▁prosth	-5273
▁rating	-5274
▁rocket	-5275
▁string	-5276
▁thomas	-5277
▁ultras	-5278
▁vessel	-5279
▁wisdom	-5280
aneously	-5281
▁battery	-5282
▁carried	-5283
▁clarity	-5284
▁classic	-5285
▁conclud	-5286
▁consist	-5287
▁constra	-5288
▁dancing	-5289
▁dignity	-5290
▁disgust	-5291
▁inspire	-5292
▁largely	-5293
▁millenn	-5294
▁musical	-5295
▁offices	-5296
▁organic	-5297
▁primary	-5298
▁taliban	-5299
▁bathroom	-5300
▁director	-5301
▁identify	-5302
▁instinct	-5303
▁provided	-5304
▁scholars	-5305
▁speakers	-5306
▁computing	-5307
▁determine	-5308
▁diagnosed	-5309
▁expertise	-5310
▁highlight	-5311
▁infection	-5312
▁injustice	-5313
▁precisely	-5314
▁teenagers	-5315
▁additional	-5316
▁blockchain	-5317
▁capitalism	-5318
▁confidence	-5319
▁contribute	-5320
▁disconnect	-5321
▁inevitable	-5322
▁introduced	-5323
▁literature	-5324
▁percentage	-5325
▁treatments	-5326
▁combination	-5327
▁fortunately	-5328
▁interacting	-5329
▁populations	-5330
▁environments	-5331
▁occasionally	-5332
▁productivity	-5333
▁neighborhoods	-5334
▁sophisticated	-5335
▁uncomfortable	-5336
ka	-5337
▁q	-5338
ads	-5339
ael	-5340
cut	-5341
ham	-5342
iam	-5343
iot	-5344
isy	-5345
nda	-5346
oll	-5347
pet	-5348
rog	-5349
aker	-5350
ania	-5351
cipl	-5352
cure	-5353
iers	-5354
ifer	-5355
imed	-5356
nday	-5357
rets	-5358
wood	-5359
▁ber	-5360
▁cup	-5361
▁pul	-5362
▁tow	-5363
▁toy	-5364
attan	-5365
otech	-5366
panze	-5367
▁airb	-5368
▁boat	-5369
▁burd	-5370
▁coke	-5371
▁diet	-5372
▁gath	-5373
▁lord	-5374
▁mail	-5375
▁nurs	-5376
▁obst	-5377
▁peak	-5378
▁reef	-5379
▁root	-5380
▁stan	-5381
▁susp	-5382
▁tick	-5383
▁writ	-5384
bridge	-5385
phones	-5386
▁angry	-5387
▁blank	-5388
▁crack	-5389
▁david	-5390
▁disag	-5391
▁falls	-5392
▁fluct	-5393
▁goals	-5394
▁grave	-5395
▁inequ	-5396
▁maxim	-5397
▁nodes	-5398
▁polio	-5399
▁recru	-5400
▁satis	-5401
▁seeds	-5402
inction	-5403
▁assume	-5404
▁atlant	-5405
▁button	-5406
▁colony	-5407
▁compar	-5408
▁ethiop	-5409
▁genius	-5410
▁latest	-5411
▁liquid	-5412
▁margin	-5413
▁output	-5414
▁plenty	-5415
▁remove	-5416
▁season	-5417
▁served	-5418
▁spinal	-5419
▁victor	-5420
▁writer	-5421
ceptions	-5422
▁burning	-5423
▁deserve	-5424
▁eastern	-5425
▁exposed	-5426
▁falling	-5427
▁flowers	-5428
▁granted	-5429
▁helpful	-5430
▁initial	-5431
▁interse	-5432
▁islands	-5433
▁methods	-5434
▁prepare	-5435
▁removed	-5436
▁reverse	-5437
▁reviews	-5438
▁spectac	-5439
▁staying	-5440
▁warming	-5441
▁allowing	-5442
▁collapse	-5443
▁contrary	-5444
▁designer	-5445
▁embedded	-5446
▁figuring	-5447
▁flexible	-5448
▁globally	-5449
▁leonardo	-5450
▁literacy	-5451
▁mustache	-5452
▁organize	-5453
▁secondly	-5454
▁swimming	-5455
▁textbook	-5456
▁wherever	-5457
▁apartment	-5458
▁centuries	-5459
▁chimpanze	-5460
▁delivered	-5461
▁insurance	-5462
▁interface	-5463
▁nanopatch	-5464
▁precision	-5465
▁prisoners	-5466
▁telescope	-5467
▁universes	-5468
▁electronic	-5469
▁globalization	-5470
ha	-5471
ih	-5472
box	-5473
cip	-5474
hea	-5475
mas	-5476
omm	-5477
▁eh	-5478
▁mt	-5479
▁py	-5480
▁uk	-5481
case	-5482
lete	-5483
nded	-5484
umes	-5485
uses	-5486
walk	-5487
▁ali	-5488
▁edi	-5489
▁gam	-5490
▁orb	-5491
▁tag	-5492
▁tes	-5493
enses	-5494
oster	-5495
▁cash	-5496
▁cast	-5497
▁cosm	-5498
▁flip	-5499
▁grab	-5500
▁grid	-5501
▁joke	-5502
▁migr	-5503
▁pace	-5504
▁poly	-5505
▁seek	-5506
▁shit	-5507
▁shut	-5508
▁swed	-5509
▁tape	-5510
▁thin	-5511
▁trig	-5512
▁vert	-5513
▁ward	-5514
▁wash	-5515
▁antib	-5516
▁aside	-5517
▁audio	-5518
▁cents	-5519
▁enemy	-5520
▁flour	-5521
▁folks	-5522
▁frees	-5523
▁guide	-5524
▁liked	-5525
▁logic	-5526
▁minim	-5527
▁notes	-5528
▁pairs	-5529
▁paral	-5530
▁pitch	-5531
▁proof	-5532
▁ridic	-5533
▁skill	-5534
▁titan	-5535
ishment	-5536
ulating	-5537
uration	-5538
▁capita	-5539
▁convey	-5540
▁cultiv	-5541
▁darwin	-5542
▁elimin	-5543
▁enable	-5544
▁factor	-5545
▁finger	-5546
▁fright	-5547
▁frozen	-5548
▁intrig	-5549
▁narrow	-5550
▁native	-5551
▁portra	-5552
▁rarely	-5553
▁reject	-5554
▁retina	-5555
▁rising	-5556
▁scenar	-5557
▁settle	-5558
▁traged	-5559
▁trends	-5560
▁trials	-5561
▁tricks	-5562
▁trucks	-5563
▁unlock	-5564
▁cameras	-5565
▁circuit	-5566
▁clothes	-5567
▁conserv	-5568
▁courses	-5569
▁exhaust	-5570
▁farming	-5571
▁frankly	-5572
▁jeopard	-5573
▁neither	-5574
▁paradox	-5575
▁protest	-5576
▁raising	-5577
▁screens	-5578
▁shelter	-5579
▁theater	-5580
▁whereas	-5581
▁william	-5582
▁abstract	-5583
▁category	-5584
▁criminal	-5585
▁delivery	-5586
▁diagnost	-5587
▁distinct	-5588
▁existing	-5589
▁involves	-5590
▁movember	-5591
▁reinvent	-5592
▁subjects	-5593
▁whenever	-5594
▁celebrate	-5595
▁exploring	-5596
▁footprint	-5597
▁interpret	-5598
▁investors	-5599
▁manhattan	-5600
▁measuring	-5601
▁newspaper	-5602
▁appreciate	-5603
▁controlled	-5604
▁controvers	-5605
▁definitely	-5606
▁explaining	-5607
▁fascinated	-5608
▁journalist	-5609
▁restaurant	-5610
▁retirement	-5611
▁uncertainty	-5612
▁instructions	-5613
▁collaborative	-5614
▁cybercriminals	-5615
my	-5616
bed	-5617
ela	-5618
hen	-5619
igm	-5620
ino	-5621
oir	-5622
▁bh	-5623
▁ng	-5624
▁rw	-5625
bits	-5626
ette	-5627
ilty	-5628
oles	-5629
whel	-5630
▁adj	-5631
▁fan	-5632
▁nur	-5633
▁por	-5634
▁tut	-5635
eding	-5636
eline	-5637
icago	-5638
tical	-5639
▁buck	-5640
▁bush	-5641
▁fert	-5642
▁fulf	-5643
▁lapt	-5644
▁neut	-5645
▁offs	-5646
▁pill	-5647
▁tent	-5648
▁unus	-5649
arrass	-5650
vasive	-5651
▁aband	-5652
▁chron	-5653
▁flood	-5654
▁imper	-5655
▁intro	-5656
▁islam	-5657
▁loves	-5658
▁metal	-5659
▁meter	-5660
▁mixed	-5661
▁niger	-5662
▁penis	-5663
▁pharm	-5664
▁plays	-5665
▁roots	-5666
▁sacri	-5667
▁spoke	-5668
▁tesla	-5669
▁theme	-5670
▁toler	-5671
▁vital	-5672
▁walks	-5673
▁attrib	-5674
▁autism	-5675
▁borrow	-5676
▁burden	-5677
▁clinic	-5678
▁deadly	-5679
▁degrad	-5680
▁former	-5681
▁ingred	-5682
▁ladies	-5683
▁mirror	-5684
▁neural	-5685
▁obstac	-5686
▁oyster	-5687
▁perman	-5688
▁profit	-5689
▁relate	-5690
▁reveal	-5691
▁static	-5692
▁subway	-5693
▁voters	-5694
▁winter	-5695
▁advance	-5696
▁amounts	-5697
▁artwork	-5698
▁babylon	-5699
▁chicago	-5700
▁damaged	-5701
▁diverse	-5702
▁drivers	-5703
▁ecology	-5704
▁efforts	-5705
▁existed	-5706
▁fulfill	-5707
▁funding	-5708
▁michael	-5709
▁parties	-5710
▁routine	-5711
▁seeking	-5712
▁singing	-5713
▁uniform	-5714
▁unknown	-5715
▁appropri	-5716
▁baseball	-5717
▁concepts	-5718
▁currency	-5719
▁dramatic	-5720
▁engineer	-5721
▁equation	-5722
▁floating	-5723
▁focusing	-5724
▁horrible	-5725
▁jeopardy	-5726
▁overwhel	-5727
▁photogra	-5728
▁refugees	-5729
▁reminded	-5730
▁stanford	-5731
▁ancestors	-5732
▁cambridge	-5733
▁embarrass	-5734
▁expanding	-5735
▁generated	-5736
▁increases	-5737
▁instantly	-5738
▁institute	-5739
▁nutrition	-5740
▁physician	-5741
▁renewable	-5742
▁spiritual	-5743
▁translate	-5744
▁apparently	-5745
▁conclusion	-5746
▁congestion	-5747
▁functional	-5748
▁healthcare	-5749
▁permission	-5750
▁struggling	-5751
▁suggesting	-5752
▁underwater	-5753
▁recognition	-5754
▁constitution	-5755
▁universities	-5756
▁sustainability	-5757
do	-5758
uk	-5759
wr	-5760
aws	-5761
azz	-5762
gra	-5763
ips	-5764
lyn	-5765
ula	-5766
▁os	-5767
ched	-5768
iled	-5769
ille	-5770
imet	-5771
lets	-5772
onia	-5773
rane	-5774
time	-5775
▁bol	-5776
▁enh	-5777
▁jam	-5778
▁las	-5779
▁reh	-5780
▁sac	-5781
▁sel	-5782
▁shy	-5783
▁wat	-5784
▁wik	-5785
▁wra	-5786
akers	-5787
arant	-5788
ashed	-5789
esity	-5790
ework	-5791
lling	-5792
mates	-5793
▁arts	-5794
▁bats	-5795
▁bump	-5796
▁cert	-5797
▁coin	-5798
▁cord	-5799
▁cute	-5800
▁dust	-5801
▁earn	-5802
▁josh	-5803
▁liby	-5804
▁murd	-5805
▁nest	-5806
▁pigs	-5807
▁plot	-5808
▁quit	-5809
▁rang	-5810
▁sett	-5811
▁snow	-5812
▁spin	-5813
▁tony	-5814
▁ugly	-5815
cience	-5816
terday	-5817
uction	-5818
▁angle	-5819
▁array	-5820
▁aston	-5821
▁award	-5822
▁chaos	-5823
▁chips	-5824
▁coral	-5825
▁decre	-5826
▁diarr	-5827
▁fiber	-5828
▁flash	-5829
▁indic	-5830
▁initi	-5831
▁legis	-5832
▁likes	-5833
▁lunch	-5834
▁marry	-5835
▁pause	-5836
▁purch	-5837
▁refer	-5838
▁remem	-5839
▁shell	-5840
▁smile	-5841
▁spark	-5842
▁split	-5843
▁wider	-5844
▁wired	-5845
illance	-5846
raction	-5847
rations	-5848
through	-5849
▁agenda	-5850
▁august	-5851
▁behave	-5852
▁config	-5853
▁errors	-5854
▁excell	-5855
▁fallen	-5856
▁farmer	-5857
▁harbor	-5858
▁observ	-5859
▁regard	-5860
▁richer	-5861
▁scores	-5862
▁tackle	-5863
▁tomato	-5864
▁worlds	-5865
inations	-5866
▁anatomy	-5867
▁beetles	-5868
▁compete	-5869
▁concent	-5870
▁defense	-5871
▁divided	-5872
▁emotion	-5873
▁extinct	-5874
▁genomes	-5875
▁license	-5876
▁monitor	-5877
▁obesity	-5878
▁outcome	-5879
▁parking	-5880
▁picking	-5881
▁reduced	-5882
▁request	-5883
▁targets	-5884
▁teenage	-5885
▁tragedy	-5886
▁warning	-5887
▁achieved	-5888
▁activist	-5889
▁airplane	-5890
▁breaking	-5891
▁carrying	-5892
▁doodling	-5893
▁generous	-5894
▁homework	-5895
▁invested	-5896
▁minister	-5897
▁recovery	-5898
▁sciences	-5899
▁shooting	-5900
▁stations	-5901
▁believing	-5902
▁epidemics	-5903
▁forgotten	-5904
▁framework	-5905
▁graduated	-5906
▁immediate	-5907
▁microscop	-5908
▁objective	-5909
▁prototype	-5910
▁sculpture	-5911
▁similarly	-5912
▁stability	-5913
▁typically	-5914
▁yesterday	-5915
▁activities	-5916
▁corruption	-5917
▁empowering	-5918
▁influenced	-5919
▁multiverse	-5920
▁proportion	-5921
▁recognized	-5922
▁surrounded	-5923
▁ultrasound	-5924
▁association	-5925
▁calculating	-5926
▁expressions	-5927
▁immigration	-5928
▁independent	-5929
▁journalists	-5930
▁represented	-5931
▁surrounding	-5932
▁breakthrough	-5933
▁personalized	-5934
▁schizophrenia	-5935
au	-5936
oh	-5937
yt	-5938
ckn	-5939
fit	-5940
ila	-5941
imp	-5942
rey	-5943
rom	-5944
vis	-5945
▁ak	-5946
▁ts	-5947
eral	-5948
geon	-5949
hips	-5950
odes	-5951
pled	-5952
rian	-5953
ully	-5954
umin	-5955
utan	-5956
▁alb	-5957
▁ceo	-5958
▁dow	-5959
▁dys	-5960
▁hem	-5961
▁ink	-5962
▁jes	-5963
▁lob	-5964
▁mac	-5965
▁mim	-5966
▁sar	-5967
▁seb	-5968
▁spr	-5969
▁sup	-5970
▁ubi	-5971
▁via	-5972
archy	-5973
cence	-5974
cknow	-5975
etics	-5976
ilize	-5977
lying	-5978
oxide	-5979
▁acqu	-5980
▁acts	-5981
▁brid	-5982
▁bull	-5983
▁elev	-5984
▁germ	-5985
▁icon	-5986
▁lake	-5987
▁lean	-5988
▁lets	-5989
▁mary	-5990
▁nasa	-5991
▁node	-5992
▁nose	-5993
▁outs	-5994
▁sits	-5995
▁spec	-5996
▁subs	-5997
astian	-5998
edding	-5999
ptions	-6000
▁antar	-6001
▁arrow	-6002
▁blast	-6003
▁buses	-6004
▁careg	-6005
▁chair	-6006
▁champ	-6007
▁depth	-6008
▁donor	-6009
▁doors	-6010
▁extro	-6011
▁fears	-6012
▁femin	-6013
▁fluid	-6014
▁grain	-6015
▁immun	-6016
▁metab	-6017
▁naked	-6018
▁numer	-6019
▁plane	-6020
▁sadly	-6021
▁safer	-6022
▁shake	-6023
▁shall	-6024
▁silic	-6025
▁syria	-6026
▁tests	-6027
▁utter	-6028
▁acknow	-6029
▁bhutan	-6030
▁comedy	-6031
▁confir	-6032
▁divide	-6033
▁ending	-6034
▁facial	-6035
▁filter	-6036
▁fusion	-6037
▁guilty	-6038
▁headed	-6039
▁hearts	-6040
▁interf	-6041
▁luxury	-6042
▁mainly	-6043
▁makers	-6044
▁prices	-6045
▁recomm	-6046
▁russia	-6047
▁scream	-6048
▁sensor	-6049
▁sphere	-6050
▁stroke	-6051
▁studio	-6052
▁sweden	-6053
▁theore	-6054
▁thrown	-6055
children	-6056
▁affects	-6057
▁airport	-6058
▁analyze	-6059
▁breathe	-6060
▁causing	-6061
▁consent	-6062
▁discipl	-6063
▁distant	-6064
▁elected	-6065
▁guarant	-6066
▁herself	-6067
▁imaging	-6068
▁israeli	-6069
▁methane	-6070
▁passive	-6071
▁persist	-6072
▁pretend	-6073
▁reached	-6074
▁sisters	-6075
▁speaker	-6076
▁tension	-6077
▁threats	-6078
▁unusual	-6079
▁adoption	-6080
▁assembly	-6081
▁branches	-6082
▁brothers	-6083
▁collagen	-6084
▁comments	-6085
▁conclude	-6086
▁infected	-6087
▁japanese	-6088
▁lighting	-6089
▁morality	-6090
▁navigate	-6091
▁northern	-6092
▁official	-6093
▁overcome	-6094
▁properly	-6095
▁robotics	-6096
▁shopping	-6097
▁shoulder	-6098
▁surgeons	-6099
▁versions	-6100
ologically	-6101
▁announced	-6102
▁blindness	-6103
▁candidate	-6104
▁component	-6105
▁cooperate	-6106
▁implement	-6107
▁microbial	-6108
▁movements	-6109
▁satellite	-6110
▁collecting	-6111
▁instrument	-6112
▁integrated	-6113
▁resistance	-6114
▁resolution	-6115
▁separation	-6116
▁beautifully	-6117
▁description	-6118
▁established	-6119
▁instruction	-6120
▁instruments	-6121
▁observation	-6122
▁photographs	-6123
▁translation	-6124
▁intervention	-6125
▁surveillance	-6126
▁mathematician	-6127
▁participation	-6128
▁professionals	-6129
ik	-6130
me	-6131
pa	-6132
ann	-6133
eak	-6134
esh	-6135
loc	-6136
rim	-6137
tsd	-6138
ull	-6139
▁ox	-6140
aint	-6141
ener	-6142
hand	-6143
igen	-6144
ione	-6145
lson	-6146
lymp	-6147
oses	-6148
rant	-6149
rill	-6150
ulum	-6151
umps	-6152
ysse	-6153
zens	-6154
▁cab	-6155
▁cas	-6156
▁cub	-6157
▁gab	-6158
▁gay	-6159
▁rod	-6160
▁viv	-6161
agger	-6162
aving	-6163
haran	-6164
iance	-6165
ounce	-6166
rates	-6167
while	-6168
▁bias	-6169
▁cage	-6170
▁cave	-6171
▁chef	-6172
▁clue	-6173
▁cous	-6174
▁desk	-6175
▁dism	-6176
▁dogs	-6177
▁foxo	-6178
▁gang	-6179
▁glue	-6180
▁hack	-6181
▁indo	-6182
▁jews	-6183
▁judg	-6184
▁laid	-6185
▁mode	-6186
▁neck	-6187
▁nick	-6188
▁plug	-6189
▁pole	-6190
▁pour	-6191
▁resc	-6192
▁shar	-6193
▁stab	-6194
▁stom	-6195
▁surf	-6196
▁tank	-6197
▁tong	-6198
▁triv	-6199
imedes	-6200
thetic	-6201
▁actor	-6202
▁altog	-6203
▁balls	-6204
▁begun	-6205
▁craft	-6206
▁digit	-6207
▁downt	-6208
▁lever	-6209
▁nerve	-6210
▁olymp	-6211
▁ought	-6212
▁outer	-6213
▁owned	-6214
▁owner	-6215
▁panel	-6216
▁parks	-6217
▁parli	-6218
▁pione	-6219
▁plate	-6220
▁smoke	-6221
▁stays	-6222
▁tasks	-6223
▁texts	-6224
▁title	-6225
▁twist	-6226
▁viral	-6227
astroph	-6228
quitous	-6229
▁aggreg	-6230
▁bother	-6231
▁breast	-6232
▁budget	-6233
▁corals	-6234
▁decent	-6235
▁dozens	-6236
▁extend	-6237
▁golden	-6238
▁inject	-6239
▁intact	-6240
▁jewish	-6241
▁linear	-6242
▁lovely	-6243
▁metric	-6244
▁muslim	-6245
▁nelson	-6246
▁odysse	-6247
▁oldest	-6248
▁paraly	-6249
▁passen	-6250
▁prefer	-6251
▁reform	-6252
▁rwanda	-6253
▁safely	-6254
▁sevent	-6255
▁skelet	-6256
▁specim	-6257
▁spoken	-6258
▁sports	-6259
▁talent	-6260
etically	-6261
▁anxiety	-6262
▁besides	-6263
▁classes	-6264
▁comfort	-6265
▁display	-6266
▁disrupt	-6267
▁disturb	-6268
▁hanging	-6269
▁intense	-6270
▁kingdom	-6271
▁landing	-6272
▁letting	-6273
▁located	-6274
▁mexican	-6275
▁muslims	-6276
▁neutral	-6277
▁printed	-6278
▁propose	-6279
▁saharan	-6280
▁shocked	-6281
▁silicon	-6282
abilities	-6283
▁agencies	-6284
▁captured	-6285
▁communic	-6286
▁concerns	-6287
▁congress	-6288
▁contains	-6289
▁diarrhea	-6290
▁educated	-6291
▁egyptian	-6292
▁ethiopia	-6293
▁fabulous	-6294
▁intimate	-6295
▁lifespan	-6296
▁measures	-6297
▁occurred	-6298
▁organism	-6299
▁produces	-6300
▁relative	-6301
▁shifting	-6302
▁stranger	-6303
▁veterans	-6304
▁websites	-6305
▁breathing	-6306
▁calculate	-6307
▁christmas	-6308
▁depending	-6309
▁extension	-6310
▁factories	-6311
▁organisms	-6312
▁parkinson	-6313
▁physicist	-6314
▁positions	-6315
▁receiving	-6316
▁reduction	-6317
▁reference	-6318
▁sebastian	-6319
▁selection	-6320
▁sequences	-6321
▁suggested	-6322
▁telephone	-6323
▁terrorist	-6324
▁altogether	-6325
▁approaches	-6326
▁archimedes	-6327
▁catastroph	-6328
▁components	-6329
▁economists	-6330
▁electrical	-6331
▁engagement	-6332
▁incentives	-6333
▁inequality	-6334
▁manipulate	-6335
▁medication	-6336
▁performing	-6337
▁situations	-6338
▁terrorists	-6339
▁traditions	-6340
▁ubiquitous	-6341
▁achievement	-6342
▁spectacular	-6343
▁dramatically	-6344
▁experiencing	-6345
ax	-6346
oe	-6347
tz	-6348
cel	-6349
ecd	-6350
gar	-6351
gie	-6352
nam	-6353
olf	-6354
ota	-6355
pal	-6356
pes	-6357
uff	-6358
ura	-6359
▁mc	-6360
abet	-6361
alia	-6362
eday	-6363
hyth	-6364
iece	-6365
keep	-6366
resp	-6367
stal	-6368
talk	-6369
uate	-6370
uity	-6371
▁der	-6372
▁haw	-6373
▁hen	-6374
▁huh	-6375
▁jon	-6376
▁mum	-6377
▁obt	-6378
▁pee	-6379
▁sav	-6380
▁tam	-6381
▁tie	-6382
▁urg	-6383
ading	-6384
ansas	-6385
belie	-6386
break	-6387
ching	-6388
night	-6389
opher	-6390
ringe	-6391
under	-6392
▁beam	-6393
▁bold	-6394
▁bron	-6395
▁buff	-6396
▁carp	-6397
▁coch	-6398
▁dent	-6399
▁drew	-6400
▁evil	-6401
▁flew	-6402
▁guns	-6403
▁hill	-6404
▁jeff	-6405
▁mall	-6406
▁mate	-6407
▁nets	-6408
▁ngos	-6409
▁ptsd	-6410
▁rose	-6411
▁sink	-6412
▁ties	-6413
▁whoa	-6414
bercul	-6415
ograms	-6416
olving	-6417
otechn	-6418
soever	-6419
▁accum	-6420
▁asset	-6421
▁bless	-6422
▁carol	-6423
▁dirty	-6424
▁dress	-6425
▁dynam	-6426
▁edges	-6427
▁escap	-6428
▁grasp	-6429
▁hello	-6430
▁invas	-6431
▁obese	-6432
▁opens	-6433
▁rever	-6434
▁screw	-6435
▁skept	-6436
▁veget	-6437
unction	-6438
▁arabic	-6439
▁archae	-6440
▁assets	-6441
▁biases	-6442
▁bottle	-6443
▁buying	-6444
▁conven	-6445
▁curric	-6446
▁earned	-6447
▁empire	-6448
▁escape	-6449
▁excuse	-6450
▁extent	-6451
▁forger	-6452
▁hardly	-6453
▁hurric	-6454
▁lawyer	-6455
▁legacy	-6456
▁monkey	-6457
▁myster	-6458
▁poster	-6459
▁propag	-6460
▁rivers	-6461
▁selves	-6462
▁senses	-6463
▁subtle	-6464
▁trauma	-6465
▁upload	-6466
lessness	-6467
▁article	-6468
▁barbers	-6469
▁barrier	-6470
▁chances	-6471
▁chapter	-6472
▁condoms	-6473
▁defined	-6474
▁designs	-6475
▁dioxide	-6476
▁educate	-6477
▁failing	-6478
▁fingers	-6479
▁happier	-6480
▁highway	-6481
▁horizon	-6482
▁hormone	-6483
▁liberal	-6484
▁mammals	-6485
▁mandela	-6486
▁painted	-6487
▁pushing	-6488
▁rolling	-6489
▁secrets	-6490
▁secular	-6491
▁sensors	-6492
▁slowing	-6493
▁smarter	-6494
▁smoking	-6495
▁someday	-6496
▁spanish	-6497
▁stomach	-6498
▁suppose	-6499
▁symbols	-6500
▁tedtalk	-6501
▁transpl	-6502
▁unbelie	-6503
▁writers	-6504
▁academic	-6505
▁africans	-6506
▁combined	-6507
▁confused	-6508
▁darkness	-6509
▁december	-6510
▁dominant	-6511
▁entering	-6512
▁external	-6513
▁imagined	-6514
▁incident	-6515
▁inherent	-6516
▁leverage	-6517
▁minority	-6518
▁palestin	-6519
▁quarters	-6520
▁reaching	-6521
▁scenario	-6522
▁stepping	-6523
▁suitcase	-6524
▁survived	-6525
▁tubercul	-6526
▁villages	-6527
▁astronaut	-6528
▁chemicals	-6529
▁continued	-6530
▁dimension	-6531
▁frequency	-6532
▁gathering	-6533
▁gentlemen	-6534
▁gradually	-6535
▁inclusive	-6536
▁intention	-6537
▁invention	-6538
▁motivated	-6539
▁ownership	-6540
▁predicted	-6541
▁primarily	-6542
▁privilege	-6543
▁procedure	-6544
▁producing	-6545
▁reactions	-6546
▁recording	-6547
▁supermark	-6548
▁survivors	-6549
▁behavioral	-6550
▁compelling	-6551
▁directions	-6552
▁originally	-6553
▁parliament	-6554
▁philosophy	-6555
▁reflection	-6556
▁remarkably	-6557
▁resilience	-6558
▁satellites	-6559
▁strategies	-6560
▁volunteers	-6561
▁whatsoever	-6562
▁astronomers	-6563
▁disappeared	-6564
▁legislation	-6565
▁programming	-6566
▁revolutions	-6567
▁transformed	-6568
▁transparent	-6569
▁trustworthy	-6570
▁contemporary	-6571
▁disabilities	-6572
▁evolutionary	-6573
▁neanderthals	-6574
▁tuberculosis	-6575
▁collaboration	-6576
▁grandchildren	-6577
▁interestingly	-6578
▁mathematicians	-6579
▁representation	-6580
ev	-6581
ij	-6582
nb	-6583
pi	-6584
ss	-6585
add	-6586
alt	-6587
iac	-6588
iro	-6589
ket	-6590
low	-6591
rat	-6592
xas	-6593
▁ba	-6594
▁dy	-6595
▁gg	-6596
▁ms	-6597
abul	-6598
acci	-6599
ague	-6600
idel	-6601
ihad	-6602
iver	-6603
kind	-6604
lies	-6605
nels	-6606
phas	-6607
raft	-6608
what	-6609
▁ash	-6610
▁bla	-6611
▁bob	-6612
▁fis	-6613
▁gor	-6614
▁lun	-6615
▁pix	-6616
▁pra	-6617
▁tip	-6618
aceut	-6619
aired	-6620
alian	-6621
amine	-6622
anged	-6623
angle	-6624
icism	-6625
icted	-6626
osity	-6627
peech	-6628
quate	-6629
raine	-6630
think	-6631
▁anth	-6632
▁asks	-6633
▁athe	-6634
▁bike	-6635
▁boss	-6636
▁cens	-6637
▁crew	-6638
▁curt	-6639
▁diss	-6640
▁epis	-6641
▁eric	-6642
▁firm	-6643
▁joel	-6644
▁kiss	-6645
▁lego	-6646
▁lung	-6647
▁meal	-6648
▁offe	-6649
▁pale	-6650
▁poop	-6651
▁pref	-6652
▁proc	-6653
▁recy	-6654
▁sale	-6655
▁scot	-6656
▁unle	-6657
ashing	-6658
estone	-6659
▁album	-6660
▁armed	-6661
▁aspir	-6662
▁auton	-6663
▁boson	-6664
▁brook	-6665
▁burst	-6666
▁chest	-6667
▁costa	-6668
▁dinos	-6669
▁dutch	-6670
▁empow	-6671
▁fruit	-6672
▁gabby	-6673
▁gramm	-6674
▁greek	-6675
▁jihad	-6676
▁kitch	-6677
▁matri	-6678
▁nutri	-6679
▁paras	-6680
▁pound	-6681
▁pyram	-6682
▁satur	-6683
▁solly	-6684
▁spell	-6685
▁spill	-6686
▁stake	-6687
▁steve	-6688
▁tears	-6689
▁texas	-6690
▁tired	-6691
▁troll	-6692
▁tunis	-6693
▁vivid	-6694
▁wires	-6695
bitious	-6696
▁airbnb	-6697
▁andrew	-6698
▁archie	-6699
▁arctic	-6700
▁attend	-6701
▁buried	-6702
▁circul	-6703
▁clicks	-6704
▁coding	-6705
▁column	-6706
▁deploy	-6707
▁evolve	-6708
▁fertil	-6709
▁gravit	-6710
▁hambur	-6711
▁insist	-6712
▁muscle	-6713
▁nights	-6714
▁pasted	-6715
▁player	-6716
▁pollen	-6717
▁pushed	-6718
▁saturn	-6719
▁shrink	-6720
▁speaks	-6721
▁specul	-6722
▁tempor	-6723
▁thirds	-6724
▁ventil	-6725
▁wolves	-6726
▁browser	-6727
▁cartoon	-6728
▁charges	-6729
▁charles	-6730
▁circles	-6731
▁contrad	-6732
▁counsel	-6733
▁demands	-6734
▁diction	-6735
▁emerges	-6736
▁enables	-6737
▁gallery	-6738
▁implant	-6739
▁miracle	-6740
▁officer	-6741
▁pointed	-6742
▁primate	-6743
▁profits	-6744
▁receive	-6745
▁recruit	-6746
▁suspect	-6747
▁transit	-6748
▁vessels	-6749
▁wedding	-6750
aceutical	-6751
▁advocate	-6752
▁applying	-6753
▁approved	-6754
▁artistic	-6755
▁attitude	-6756
▁connects	-6757
▁decrease	-6758
▁detailed	-6759
▁downtown	-6760
▁estimate	-6761
▁facility	-6762
▁football	-6763
▁hormones	-6764
▁hydrogen	-6765
▁insights	-6766
▁isolated	-6767
▁memorial	-6768
▁mosquito	-6769
▁patience	-6770
▁petition	-6771
▁pregnant	-6772
▁primates	-6773
▁priority	-6774
▁promised	-6775
▁proposed	-6776
▁protocol	-6777
▁rational	-6778
▁reliable	-6779
▁repeated	-6780
▁restrict	-6781
▁shouting	-6782
▁sidewalk	-6783
▁somewhat	-6784
▁tangible	-6785
▁throwing	-6786
▁adventure	-6787
▁depressed	-6788
▁diagnosis	-6789
▁economist	-6790
▁entertain	-6791
▁estimates	-6792
▁excellent	-6793
▁exception	-6794
▁favorites	-6795
▁musicians	-6796
▁pollution	-6797
▁protected	-6798
▁storytell	-6799
▁visualize	-6800
otechnology	-6801
▁assignment	-6802
▁challenged	-6803
▁continuing	-6804
▁exhibition	-6805
▁freespeech	-6806
▁generosity	-6807
▁operations	-6808
▁threatened	-6809
▁underlying	-6810
▁assumptions	-6811
▁innovations	-6812
▁philosopher	-6813
▁photography	-6814
▁agricultural	-6815
▁conservation	-6816
▁conventional	-6817
▁expectations	-6818
▁interconnect	-6819
▁photographer	-6820
▁programmable	-6821
▁storytelling	-6822
▁surprisingly	-6823
▁transactions	-6824
▁administration	-6825
▁trustworthiness	-6826
ba	-6827
ey	-6828
gu	-6829
sa	-6830
alf	-6831
bie	-6832
cho	-6833
erk	-6834
iel	-6835
ife	-6836
izz	-6837
ndr	-6838
ola	-6839
udd	-6840
▁mk	-6841
aded	-6842
aret	-6843
bola	-6844
brid	-6845
cend	-6846
cons	-6847
ilia	-6848
laim	-6849
olen	-6850
rich	-6851
usal	-6852
▁daf	-6853
▁gaz	-6854
▁gee	-6855
▁haz	-6856
▁inn	-6857
▁nic	-6858
▁rac	-6859
▁ray	-6860
▁tro	-6861
▁unh	-6862
▁ush	-6863
▁vas	-6864
adays	-6865
annah	-6866
apore	-6867
apses	-6868
atson	-6869
ctica	-6870
going	-6871
idesp	-6872
iment	-6873
itate	-6874
ocell	-6875
otted	-6876
riger	-6877
▁aunt	-6878
▁beer	-6879
▁biod	-6880
▁brut	-6881
▁chat	-6882
▁cope	-6883
▁crop	-6884
▁cuts	-6885
▁dish	-6886
▁dose	-6887
▁echo	-6888
▁fate	-6889
▁grat	-6890
▁hier	-6891
▁labs	-6892
▁lied	-6893
▁nove	-6894
▁pete	-6895
▁pupp	-6896
▁repu	-6897
▁rush	-6898
▁sons	-6899
▁spoo	-6900
▁stam	-6901
▁worm	-6902
athers	-6903
iences	-6904
onacci	-6905
uating	-6906
▁ambul	-6907
▁banks	-6908
▁blame	-6909
▁cares	-6910
▁congo	-6911
▁datab	-6912
▁deter	-6913
▁ebola	-6914
▁finds	-6915
▁flies	-6916
▁halls	-6917
▁humil	-6918
▁incom	-6919
▁jesus	-6920
▁loyal	-6921
▁males	-6922
▁pilot	-6923
▁rhyth	-6924
▁rocks	-6925
▁route	-6926
▁sperm	-6927
▁spots	-6928
▁steam	-6929
▁stops	-6930
▁tooth	-6931
▁ultra	-6932
▁unint	-6933
▁upper	-6934
respond	-6935
▁agency	-6936
▁atomic	-6937
▁basket	-6938
▁boston	-6939
▁branch	-6940
▁bricks	-6941
▁clouds	-6942
▁contam	-6943
▁defend	-6944
▁differ	-6945
▁digest	-6946
▁emphas	-6947
▁ensure	-6948
▁freely	-6949
▁garage	-6950
▁grades	-6951
▁insane	-6952
▁integr	-6953
▁invite	-6954
▁kansas	-6955
▁learns	-6956
▁locked	-6957
▁mapped	-6958
▁nearby	-6959
▁nether	-6960
▁nurses	-6961
▁occupy	-6962
▁portug	-6963
▁powers	-6964
▁proved	-6965
▁smooth	-6966
▁stages	-6967
▁sticks	-6968
▁stolen	-6969
▁stones	-6970
▁suffic	-6971
▁thirty	-6972
▁tragic	-6973
▁valley	-6974
▁venice	-6975
▁virtue	-6976
▁watson	-6977
▁widely	-6978
▁widesp	-6979
iversary	-6980
lication	-6981
▁beliefs	-6982
▁briefly	-6983
▁closing	-6984
▁cluster	-6985
▁colored	-6986
▁consult	-6987
▁consume	-6988
▁crushed	-6989
▁despair	-6990
▁dismiss	-6991
▁emerged	-6992
▁encount	-6993
▁finance	-6994
▁garbage	-6995
▁glacier	-6996
▁harvest	-6997
▁healing	-6998
▁involve	-6999
▁islamic	-7000
▁mapping	-7001
▁nigeria	-7002
▁posters	-7003
▁profile	-7004
▁refused	-7005
▁retired	-7006
▁robotic	-7007
▁selfish	-7008
▁sounded	-7009
▁statist	-7010
▁syringe	-7011
▁tattoos	-7012
▁traject	-7013
▁utility	-7014
▁appeared	-7015
▁attacked	-7016
▁cleaning	-7017
▁counting	-7018
▁creature	-7019
▁crossing	-7020
▁deforest	-7021
▁disabled	-7022
▁district	-7023
▁download	-7024
▁explains	-7025
▁fraction	-7026
▁gathered	-7027
▁hardware	-7028
▁homeless	-7029
▁honestly	-7030
▁interior	-7031
▁laughing	-7032
▁managing	-7033
▁mobility	-7034
▁nowadays	-7035
▁officers	-7036
▁openness	-7037
▁opinions	-7038
▁paradigm	-7039
▁randomly	-7040
▁refriger	-7041
▁register	-7042
▁remained	-7043
▁replaced	-7044
▁romantic	-7045
▁strongly	-7046
▁treating	-7047
▁ambitious	-7048
▁animation	-7049
▁corporate	-7050
▁dependent	-7051
▁embracing	-7052
▁equations	-7053
▁establish	-7054
▁estimated	-7055
▁fibonacci	-7056
▁household	-7057
▁hurricane	-7058
▁inspiring	-7059
▁installed	-7060
▁kilograms	-7061
▁mechanics	-7062
▁mountains	-7063
▁paralyzed	-7064
▁preparing	-7065
▁reasoning	-7066
▁reflected	-7067
▁singapore	-7068
▁antarctica	-7069
▁architects	-7070
▁assistance	-7071
▁barbershop	-7072
▁commission	-7073
▁connecting	-7074
▁correspond	-7075
▁curriculum	-7076
▁ecological	-7077
▁facilities	-7078
▁frustrated	-7079
▁impression	-7080
▁mechanisms	-7081
▁productive	-7082
▁projection	-7083
▁translator	-7084
▁widespread	-7085
▁anniversary	-7086
▁appropriate	-7087
▁competitive	-7088
▁constraints	-7089
▁constructed	-7090
▁empowerment	-7091
▁ingredients	-7092
▁netherlands	-7093
▁perceptions	-7094
▁understands	-7095
▁calculations	-7096
▁corporations	-7097
▁observations	-7098
▁perspectives	-7099
▁successfully	-7100
▁institutional	-7101
▁significantly	-7102
▁pharmaceutical	-7103
aa	-7104
jo	-7105
wl	-7106
bra	-7107
bru	-7108
ema	-7109
han	-7110
idi	-7111
iza	-7112
net	-7113
oen	-7114
sec	-7115
ubs	-7116
zzy	-7117
▁dv	-7118
▁jh	-7119
▁mm	-7120
▁si	-7121
▁tb	-7122
▁ze	-7123
adel	-7124
anus	-7125
apor	-7126
appy	-7127
bees	-7128
icip	-7129
igma	-7130
illy	-7131
inea	-7132
oked	-7133
osen	-7134
rade	-7135
rain	-7136
rifu	-7137
rous	-7138
ship	-7139
vest	-7140
viet	-7141
viol	-7142
▁gal	-7143
▁jar	-7144
▁kar	-7145
▁lon	-7146
▁obl	-7147
▁pir	-7148
▁rez	-7149
▁rna	-7150
▁tab	-7151
▁tea	-7152
attle	-7153
bered	-7154
berry	-7155
cohol	-7156
craft	-7157
eroid	-7158
gradu	-7159
iotic	-7160
itzer	-7161
ouses	-7162
reced	-7163
using	-7164
ville	-7165
▁adam	-7166
▁alph	-7167
▁bite	-7168
▁bure	-7169
▁bust	-7170
▁cats	-7171
▁coca	-7172
▁cola	-7173
▁dirt	-7174
▁erad	-7175
▁foie	-7176
▁glad	-7177
▁glor	-7178
▁gore	-7179
▁herd	-7180
▁hers	-7181
▁hook	-7182
▁intr	-7183
▁jane	-7184
▁jean	-7185
▁jenn	-7186
▁olds	-7187
▁orch	-7188
▁owns	-7189
▁prey	-7190
▁rape	-7191
▁scal	-7192
▁tort	-7193
▁viet	-7194
▁whis	-7195
▁whit	-7196
bruary	-7197
ipedia	-7198
ometer	-7199
▁agent	-7200
▁ambig	-7201
▁blink	-7202
▁bombs	-7203
▁brian	-7204
▁chile	-7205
▁civic	-7206
▁clues	-7207
▁dates	-7208
▁drops	-7209
▁eaten	-7210
▁fancy	-7211
▁filmm	-7212
▁films	-7213
▁flows	-7214
▁fract	-7215
▁korea	-7216
▁marks	-7217
▁membr	-7218
▁obama	-7219
▁outdo	-7220
▁paste	-7221
▁penet	-7222
▁plain	-7223
▁shine	-7224
▁shops	-7225
▁slums	-7226
▁spray	-7227
▁sugar	-7228
▁syndr	-7229
▁tempt	-7230
▁trail	-7231
▁trash	-7232
▁treas	-7233
▁tweet	-7234
▁valid	-7235
▁veloc	-7236
▁vocal	-7237
▁weeke	-7238
▁appeal	-7239
▁breaks	-7240
▁cables	-7241
▁cheese	-7242
▁chosen	-7243
▁county	-7244
▁dating	-7245
▁editor	-7246
▁firing	-7247
▁fueled	-7248
▁guinea	-7249
▁halluc	-7250
▁handed	-7251
▁hunger	-7252
▁injury	-7253
▁killer	-7254
▁lifted	-7255
▁marine	-7256
▁martin	-7257
▁merely	-7258
▁perpet	-7259
▁proust	-7260
▁psycho	-7261
▁recall	-7262
▁recept	-7263
▁relent	-7264
▁simult	-7265
▁slides	-7266
▁soviet	-7267
▁sunday	-7268
▁superp	-7269
▁traits	-7270
▁twenty	-7271
▁winner	-7272
iversity	-7273
▁adopted	-7274
▁alcohol	-7275
▁arrange	-7276
▁automob	-7277
▁balloon	-7278
▁barrels	-7279
▁chemist	-7280
▁chronic	-7281
▁couples	-7282
▁creator	-7283
▁dancers	-7284
▁decline	-7285
▁density	-7286
▁enterpr	-7287
▁feeding	-7288
▁females	-7289
▁flowing	-7290
▁fortune	-7291
▁founded	-7292
▁gaining	-7293
▁habitat	-7294
▁housing	-7295
▁impacts	-7296
▁indigen	-7297
▁kitchen	-7298
▁lawyers	-7299
▁nonviol	-7300
▁novelty	-7301
▁origins	-7302
▁powered	-7303
▁prostit	-7304
▁reports	-7305
▁revenue	-7306
▁ringing	-7307
▁shadows	-7308
▁soldier	-7309
▁synthes	-7310
▁texting	-7311
▁wealthy	-7312
▁accuracy	-7313
▁arrested	-7314
▁barriers	-7315
▁brooklyn	-7316
▁centrifu	-7317
▁confront	-7318
▁controls	-7319
▁division	-7320
▁enabling	-7321
▁february	-7322
▁flourish	-7323
▁friendly	-7324
▁included	-7325
▁informed	-7326
▁innovate	-7327
▁insecure	-7328
▁listened	-7329
▁magnific	-7330
▁meetings	-7331
▁ministry	-7332
▁narrator	-7333
▁november	-7334
▁relation	-7335
▁reported	-7336
▁soldiers	-7337
▁suffered	-7338
▁theories	-7339
▁transmit	-7340
▁unpreced	-7341
▁vertical	-7342
▁visiting	-7343
▁visitors	-7344
▁wireless	-7345
▁activists	-7346
▁audiences	-7347
▁backwards	-7348
▁dedicated	-7349
▁egyptians	-7350
▁improving	-7351
▁limestone	-7352
▁nutrients	-7353
▁permanent	-7354
▁pervasive	-7355
▁regularly	-7356
▁replicate	-7357
▁reporting	-7358
▁sensitive	-7359
▁signature	-7360
▁substance	-7361
▁terrified	-7362
▁traumatic	-7363
▁tunneling	-7364
▁wikipedia	-7365
▁workforce	-7366
▁attractive	-7367
▁australian	-7368
▁categories	-7369
▁difficulty	-7370
▁infections	-7371
▁infectious	-7372
▁mainstream	-7373
▁millimeter	-7374
▁prosthetic	-7375
▁psychology	-7376
▁remembered	-7377
▁renewables	-7378
▁simulation	-7379
▁transplant	-7380
▁undergradu	-7381
▁accountable	-7382
▁astonishing	-7383
▁authorities	-7384
▁calculation	-7385
▁consequence	-7386
▁exponential	-7387
▁manufacture	-7388
▁projections	-7389
▁rainforests	-7390
▁recognizing	-7391
▁specialized	-7392
▁supermarket	-7393
▁theoretical	-7394
▁alternatives	-7395
▁biodiversity	-7396
▁exploitation	-7397
▁independence	-7398
▁presidential	-7399
▁unbelievable	-7400
▁deforestation	-7401
▁demonstration	-7402
▁interventions	-7403
▁traditionally	-7404
▁unprecedented	-7405
▁visualization	-7406
hh	-7407
ta	-7408
va	-7409
ata	-7410
bag	-7411
cus	-7412
ira	-7413
lem	-7414
pea	-7415
ups	-7416
▁dh	-7417
▁hp	-7418
▁rh	-7419
▁um	-7420
anth	-7421
away	-7422
blic	-7423
chel	-7424
esis	-7425
etta	-7426
idal	-7427
keys	-7428
ndur	-7429
obia	-7430
oler	-7431
oric	-7432
oton	-7433
ouri	-7434
oust	-7435
rect	-7436
rium	-7437
rust	-7438
soft	-7439
ymph	-7440
▁als	-7441
▁amy	-7442
▁aqu	-7443
▁ara	-7444
▁ari	-7445
▁bay	-7446
▁bio	-7447
▁bug	-7448
▁dvd	-7449
▁hef	-7450
▁kit	-7451
▁lee	-7452
▁nin	-7453
▁pla	-7454
▁rew	-7455
▁tbp	-7456
▁une	-7457
▁unw	-7458
▁ups	-7459
▁vit	-7460
▁voy	-7461
▁wed	-7462
amboo	-7463
ducer	-7464
esign	-7465
ffiti	-7466
gines	-7467
isons	-7468
itage	-7469
liest	-7470
opath	-7471
orous	-7472
ribly	-7473
uated	-7474
unate	-7475
usive	-7476
▁acid	-7477
▁amen	-7478
▁bend	-7479
▁boyf	-7480
▁chew	-7481
▁clay	-7482
▁damn	-7483
▁deaf	-7484
▁dear	-7485
▁deck	-7486
▁dump	-7487
▁emer	-7488
▁emma	-7489
▁evan	-7490
▁fest	-7491
▁fits	-7492
▁forb	-7493
▁gand	-7494
▁gate	-7495
▁hipp	-7496
▁jord	-7497
▁mold	-7498
▁mood	-7499
▁onst	-7500
▁paci	-7501
▁penn	-7502
▁pity	-7503
▁rail	-7504
▁sext	-7505
▁sket	-7506
▁snea	-7507
▁sque	-7508
▁tear	-7509
▁thro	-7510
▁tide	-7511
▁till	-7512
▁toll	-7513
▁torn	-7514
▁trib	-7515
▁tube	-7516
▁twin	-7517
ancing	-7518
encing	-7519
ometry	-7520
places	-7521
ronome	-7522
▁alarm	-7523
▁bears	-7524
▁cairo	-7525
▁charl	-7526
▁cloth	-7527
▁coinc	-7528
▁farms	-7529
▁fence	-7530
▁flick	-7531
▁forum	-7532
▁girlf	-7533
▁guard	-7534
▁hemis	-7535
▁hurts	-7536
▁legit	-7537
▁libya	-7538
▁lifel	-7539
▁lymph	-7540
▁mario	-7541
▁minus	-7542
▁monit	-7543
▁orbit	-7544
▁panic	-7545
▁paths	-7546
▁pride	-7547
▁queen	-7548
▁reson	-7549
▁revel	-7550
▁risky	-7551
▁saves	-7552
▁ships	-7553
▁silks	-7554
▁smith	-7555
▁strip	-7556
▁thumb	-7557
▁tiger	-7558
▁tight	-7559
▁toast	-7560
▁toxic	-7561
▁trips	-7562
▁twins	-7563
▁ushah	-7564
▁woods	-7565
attered	-7566
erences	-7567
▁absorb	-7568
▁absurd	-7569
▁acoust	-7570
▁amazed	-7571
▁approx	-7572
▁arabia	-7573
▁bamboo	-7574
▁basics	-7575
▁boring	-7576
▁butter	-7577
▁canvas	-7578
▁cathed	-7579
▁chairs	-7580
▁chocol	-7581
▁conver	-7582
▁cooked	-7583
▁daniel	-7584
▁encoun	-7585
▁fantas	-7586
▁gained	-7587
▁givers	-7588
▁guests	-7589
▁hondur	-7590
▁horror	-7591
▁hybrid	-7592
▁imagin	-7593
▁korean	-7594
▁landed	-7595
▁laptop	-7596
▁lasted	-7597
▁losses	-7598
▁marked	-7599
▁matrix	-7600
▁murder	-7601
▁orders	-7602
▁packed	-7603
▁panels	-7604
▁pigeon	-7605
▁preach	-7606
▁proven	-7607
▁robust	-7608
▁sacred	-7609
▁sacrif	-7610
▁silver	-7611
▁spends	-7612
▁sticky	-7613
▁stores	-7614
▁suprem	-7615
▁territ	-7616
▁theirs	-7617
▁thrive	-7618
▁tongue	-7619
▁truths	-7620
▁tumors	-7621
▁upside	-7622
aggering	-7623
▁analogy	-7624
▁assault	-7625
▁beating	-7626
▁benefic	-7627
▁blowing	-7628
▁broader	-7629
▁ceiling	-7630
▁charged	-7631
▁crystal	-7632
▁diagram	-7633
▁dispers	-7634
▁enforce	-7635
▁engines	-7636
▁enhance	-7637
▁exploit	-7638
▁farther	-7639
▁fluores	-7640
▁forming	-7641
▁hitting	-7642
▁immense	-7643
▁iranian	-7644
▁labeled	-7645
▁magical	-7646
▁masterp	-7647
▁mastery	-7648
▁monkeys	-7649
▁package	-7650
▁paralle	-7651
▁pockets	-7652
▁printer	-7653
▁proceed	-7654
▁pyramid	-7655
▁restore	-7656
▁trapped	-7657
▁trigger	-7658
▁utterly	-7659
▁accounts	-7660
▁altruism	-7661
▁articles	-7662
▁atlantic	-7663
▁attached	-7664
▁basement	-7665
▁calculus	-7666
▁disagree	-7667
▁dragline	-7668
▁extended	-7669
▁graffiti	-7670
▁lectures	-7671
▁odysseus	-7672
▁peaceful	-7673
▁perceive	-7674
▁pointing	-7675
▁presence	-7676
▁provides	-7677
▁reconcil	-7678
▁redesign	-7679
▁republic	-7680
▁revealed	-7681
▁socially	-7682
▁sunlight	-7683
▁synapses	-7684
▁syndrome	-7685
▁teenager	-7686
▁youngest	-7687
▁abandoned	-7688
▁abilities	-7689
▁alongside	-7690
▁augmented	-7691
▁blueprint	-7692
▁boyfriend	-7693
▁countless	-7694
▁diffusion	-7695
▁elsewhere	-7696
▁explosion	-7697
▁guarantee	-7698
▁magnitude	-7699
▁meanwhile	-7700
▁metronome	-7701
▁obstacles	-7702
▁palestine	-7703
▁passenger	-7704
▁phenomena	-7705
▁psychiatr	-7706
▁replacing	-7707
▁separated	-7708
▁supported	-7709
▁variables	-7710
▁biologists	-7711
▁employment	-7712
▁evaluation	-7713
▁girlfriend	-7714
▁hemisphere	-7715
▁immigrants	-7716
▁indigenous	-7717
▁motivation	-7718
▁organizing	-7719
▁physicists	-7720
▁previously	-7721
▁regulation	-7722
▁ridiculous	-7723
▁staggering	-7724
▁sufficient	-7725
▁terrifying	-7726
▁transducer	-7727
▁advertising	-7728
▁cooperation	-7729
▁diagnostics	-7730
▁distinction	-7731
▁emotionally	-7732
▁integration	-7733
▁magnificent	-7734
▁medications	-7735
▁partnership	-7736
▁practically	-7737
▁predictions	-7738
▁proposition	-7739
▁realization	-7740
▁accomplished	-7741
▁capabilities	-7742
▁historically	-7743
▁philosophers	-7744
▁significance	-7745
▁communicating	-7746
▁controversial	-7747
▁gravitational	-7748
▁psychological	-7749
▁communications	-7750
da	-7751
dy	-7752
lu	-7753
cor	-7754
hal	-7755
him	-7756
hyd	-7757
isa	-7758
oke	-7759
pro	-7760
ris	-7761
sen	-7762
uce	-7763
▁bb	-7764
▁cp	-7765
▁ly	-7766
▁rb	-7767
amin	-7768
araj	-7769
arks	-7770
asma	-7771
asty	-7772
char	-7773
city	-7774
cont	-7775
erts	-7776
fers	-7777
fire	-7778
hamm	-7779
mann	-7780
ober	-7781
oded	-7782
olit	-7783
onic	-7784
oved	-7785
owed	-7786
phia	-7787
quis	-7788
tery	-7789
▁awk	-7790
▁blo	-7791
▁cin	-7792
▁jaw	-7793
▁jul	-7794
▁lol	-7795
▁mig	-7796
▁moo	-7797
▁moz	-7798
▁pit	-7799
▁rig	-7800
▁rit	-7801
▁sew	-7802
▁sib	-7803
▁sna	-7804
▁soc	-7805
▁spi	-7806
▁tub	-7807
▁wag	-7808
▁wet	-7809
gical	-7810
inity	-7811
irect	-7812
oning	-7813
orshe	-7814
osure	-7815
oying	-7816
uting	-7817
▁alle	-7818
▁ampl	-7819
▁biof	-7820
▁brun	-7821
▁buzz	-7822
▁cham	-7823
▁cube	-7824
▁dare	-7825
▁dumb	-7826
▁eggs	-7827
▁eleg	-7828
▁file	-7829
▁fled	-7830
▁guit	-7831
▁hind	-7832
▁hire	-7833
▁hors	-7834
▁igno	-7835
▁inch	-7836
▁inex	-7837
▁irre	-7838
▁jose	-7839
▁july	-7840
▁leaf	-7841
▁lock	-7842
▁mard	-7843
▁matt	-7844
▁merg	-7845
▁mock	-7846
▁nike	-7847
▁obso	-7848
▁radi	-7849
▁rust	-7850
▁seam	-7851
▁seed	-7852
▁sexy	-7853
▁slog	-7854
▁symp	-7855
▁tail	-7856
▁tale	-7857
▁trap	-7858
▁trop	-7859
▁urge	-7860
▁wine	-7861
▁wise	-7862
aining	-7863
arents	-7864
culiar	-7865
forced	-7866
hammad	-7867
ilized	-7868
iously	-7869
rabbit	-7870
usalem	-7871
vation	-7872
verted	-7873
▁arabs	-7874
▁awake	-7875
▁brush	-7876
▁carri	-7877
▁chick	-7878
▁cruel	-7879
▁daisy	-7880
▁denis	-7881
▁endea	-7882
▁facil	-7883
▁faint	-7884
▁fifty	-7885
▁fires	-7886
▁genoc	-7887
▁geoff	-7888
▁henry	-7889
▁homet	-7890
▁hopes	-7891
▁incor	-7892
▁ingen	-7893
▁inhib	-7894
▁irrig	-7895
▁knees	-7896
▁mimic	-7897
▁moons	-7898
▁overl	-7899
▁reass	-7900
▁redef	-7901
▁redem	-7902
▁sandy	-7903
▁sarah	-7904
▁sched	-7905
▁schem	-7906
▁seats	-7907
▁shelf	-7908
▁shirt	-7909
▁silly	-7910
▁skull	-7911
▁spain	-7912
▁tends	-7913
▁tenth	-7914
▁trump	-7915
▁upset	-7916
▁whale	-7917
▁width	-7918
▁wings	-7919
▁wound	-7920
alities	-7921
conomic	-7922
essions	-7923
forward	-7924
idelity	-7925
imately	-7926
inating	-7927
parents	-7928
▁adjust	-7929
▁anatom	-7930
▁argent	-7931
▁behalf	-7932
▁brands	-7933
▁chains	-7934
▁combat	-7935
▁conspi	-7936
▁curves	-7937
▁dental	-7938
▁foster	-7939
▁greece	-7940
▁hotels	-7941
▁insult	-7942
▁johnny	-7943
▁jumped	-7944
▁jungle	-7945
▁kicked	-7946
▁lifest	-7947
▁mouths	-7948
▁norway	-7949
▁offers	-7950
▁oxford	-7951
▁pedest	-7952
▁prince	-7953
▁pursue	-7954
▁reader	-7955
▁regime	-7956
▁regist	-7957
▁rescue	-7958
▁riding	-7959
▁scales	-7960
▁smells	-7961
▁stable	-7962
▁stimul	-7963
▁tables	-7964
▁tablet	-7965
▁tender	-7966
▁timing	-7967
▁tribal	-7968
▁uganda	-7969
▁waited	-7970
adelphia	-7971
fficient	-7972
function	-7973
▁absence	-7974
▁adapted	-7975
▁affairs	-7976
▁anthrop	-7977
▁anticip	-7978
▁appears	-7979
▁autonom	-7980
▁awkward	-7981
▁bedroom	-7982
▁bridges	-7983
▁budgets	-7984
▁charity	-7985
▁command	-7986
▁decides	-7987
▁deepest	-7988
▁default	-7989
▁distort	-7990
▁enabled	-7991
▁endless	-7992
▁exhibit	-7993
▁fastest	-7994
▁fishing	-7995
▁fitness	-7996
▁formula	-7997
▁handful	-7998
▁happily	-7999
▁harmony	-8000
▁harness	-8001
▁injured	-8002
▁kidding	-8003
▁loyalty	-8004
▁luckily	-8005
▁masters	-8006
▁matches	-8007
▁october	-8008
▁onstage	-8009
▁passing	-8010
▁pasting	-8011
▁payment	-8012
▁peoples	-8013
▁phrases	-8014
▁planted	-8015
▁priorit	-8016
▁pulling	-8017
▁russian	-8018
▁sexting	-8019
▁shorter	-8020
▁shortly	-8021
▁spheres	-8022
▁staring	-8023
▁toilets	-8024
▁trivial	-8025
▁tuition	-8026
▁tunisia	-8027
▁winning	-8028
▁abortion	-8029
▁accompan	-8030
▁assemble	-8031
▁attempts	-8032
▁breadwin	-8033
▁canadian	-8034
▁certific	-8035
▁circuits	-8036
▁cochrane	-8037
▁confined	-8038
▁constitu	-8039
▁covering	-8040
▁customer	-8041
▁democrat	-8042
▁feminine	-8043
▁findings	-8044
▁friction	-8045
▁heforshe	-8046
▁heritage	-8047
▁hometown	-8048
▁horizont	-8049
▁improved	-8050
▁informal	-8051
▁jennifer	-8052
▁judgment	-8053
▁lifelong	-8054
▁missouri	-8055
▁momentum	-8056
▁muhammad	-8057
▁observed	-8058
▁obsolete	-8059
▁optimism	-8060
▁passions	-8061
▁peculiar	-8062
▁procrast	-8063
▁receptor	-8064
▁revenues	-8065
▁reverber	-8066
▁saturday	-8067
▁sexually	-8068
▁stealing	-8069
▁striking	-8070
▁supports	-8071
▁tendency	-8072
▁terribly	-8073
▁ushahidi	-8074
▁variable	-8075
▁velocity	-8076
▁weakness	-8077
▁abundance	-8078
▁accidents	-8079
▁affecting	-8080
▁ambulance	-8081
▁associate	-8082
▁authentic	-8083
▁authority	-8084
▁automated	-8085
▁bacterial	-8086
▁cathedral	-8087
▁christian	-8088
▁continues	-8089
▁correctly	-8090
▁delicious	-8091
▁dominated	-8092
▁electrons	-8093
▁empowered	-8094
▁exercises	-8095
▁healthier	-8096
▁hierarchy	-8097
▁histories	-8098
▁jerusalem	-8099
▁locations	-8100
▁malarious	-8101
▁migration	-8102
▁mutations	-8103
▁portraits	-8104
▁recommend	-8105
▁responded	-8106
▁seemingly	-8107
▁skeletons	-8108
▁synthetic	-8109
▁textbooks	-8110
▁vibrating	-8111
▁virtually	-8112
▁assumption	-8113
▁astronauts	-8114
▁basketball	-8115
▁calculated	-8116
▁candidates	-8117
▁chimpanzee	-8118
▁describing	-8119
▁engineered	-8120
▁extroverts	-8121
▁geographic	-8122
▁identified	-8123
▁microphone	-8124
▁politician	-8125
▁programmer	-8126
▁propaganda	-8127
▁protecting	-8128
▁reasonable	-8129
▁redemption	-8130
▁regardless	-8131
▁structural	-8132
▁variations	-8133
▁approaching	-8134
▁collaborate	-8135
▁controlling	-8136
▁desperately	-8137
▁devastating	-8138
▁discoveries	-8139
▁discussions	-8140
▁encouraging	-8141
▁investigate	-8142
▁limitations	-8143
▁palestinian	-8144
▁programmers	-8145
▁accelerating	-8146
▁grandparents	-8147
▁neuroscience	-8148
▁overwhelming	-8149
▁philadelphia	-8150
▁transforming	-8151
▁configuration	-8152
▁exponentially	-8153
▁simultaneously	-8154
▁straightforward	-8155
lv	-8156
ado	-8157
ano	-8158
auc	-8159
cal	-8160
che	-8161
cin	-8162
dam	-8163
eda	-8164
ego	-8165
evo	-8166
flu	-8167
ini	-8168
min	-8169
rel	-8170
ril	-8171
sis	-8172
uum	-8173
war	-8174
▁ib	-8175
▁nl	-8176
abwe	-8177
aved	-8178
brew	-8179
cats	-8180
corn	-8181
dney	-8182
eren	-8183
eted	-8184
fish	-8185
icop	-8186
imag	-8187
inas	-8188
irts	-8189
itud	-8190
obic	-8191
oran	-8192
oted	-8193
otes	-8194
play	-8195
rine	-8196
roid	-8197
yard	-8198
▁cig	-8199
▁dol	-8200
▁dop	-8201
▁fet	-8202
▁gon	-8203
▁hip	-8204
▁jet	-8205
▁jim	-8206
▁jup	-8207
▁kin	-8208
▁mah	-8209
▁pel	-8210
▁pic	-8211
▁que	-8212
▁rab	-8213
▁rap	-8214
▁vin	-8215
arest	-8216
artic	-8217
assad	-8218
corps	-8219
eable	-8220
enter	-8221
erved	-8222
eting	-8223
field	-8224
inery	-8225
matic	-8226
naiss	-8227
negie	-8228
oline	-8229
rence	-8230
rians	-8231
ridge	-8232
stone	-8233
umble	-8234
unami	-8235
▁anes	-8236
▁anno	-8237
▁belt	-8238
▁butt	-8239
▁caps	-8240
▁cree	-8241
▁dorm	-8242
▁enzy	-8243
▁ethn	-8244
▁evac	-8245
▁exec	-8246
▁fans	-8247
▁flor	-8248
▁furn	-8249
▁gear	-8250
▁gest	-8251
▁gods	-8252
▁gran	-8253
▁holl	-8254
▁holy	-8255
▁lane	-8256
▁micr	-8257
▁mush	-8258
▁oecd	-8259
▁orph	-8260
▁outl	-8261
▁porn	-8262
▁prol	-8263
▁rank	-8264
▁reck	-8265
▁rect	-8266
▁scra	-8267
▁shoe	-8268
▁sier	-8269
▁soap	-8270
▁subt	-8271
▁thus	-8272
▁tone	-8273
▁unst	-8274
▁wins	-8275
▁yard	-8276
▁zeal	-8277
▁zimb	-8278
alized	-8279
asters	-8280
boards	-8281
hammed	-8282
irable	-8283
onesia	-8284
ricate	-8285
▁april	-8286
▁autos	-8287
▁booth	-8288
▁brave	-8289
▁bruno	-8290
▁cabin	-8291
▁conce	-8292
▁conor	-8293
▁conqu	-8294
▁delay	-8295
▁devil	-8296
▁diego	-8297
▁diver	-8298
▁faiza	-8299
▁foods	-8300
▁fuzzy	-8301
▁ghost	-8302
▁hired	-8303
▁holly	-8304
▁illum	-8305
▁index	-8306
▁italy	-8307
▁jewel	-8308
▁kidna	-8309
▁kilos	-8310
▁knife	-8311
▁lanes	-8312
▁laure	-8313
▁lingu	-8314
▁links	-8315
▁lobby	-8316
▁lungs	-8317
▁maker	-8318
▁miner	-8319
▁naive	-8320
▁newly	-8321
▁nurse	-8322
▁proph	-8323
▁ratio	-8324
▁recip	-8325
▁remix	-8326
▁saraj	-8327
▁scott	-8328
▁sends	-8329
▁shuff	-8330
▁skype	-8331
▁slice	-8332
▁squee	-8333
▁steal	-8334
▁straw	-8335
▁teams	-8336
▁threw	-8337
▁tries	-8338
▁wives	-8339
▁worms	-8340
▁wrist	-8341
atories	-8342
cession	-8343
fulness	-8344
iations	-8345
itating	-8346
reshold	-8347
ughters	-8348
▁admire	-8349
▁adoles	-8350
▁advant	-8351
▁agents	-8352
▁barbar	-8353
▁burned	-8354
▁compos	-8355
▁contra	-8356
▁cosmic	-8357
▁cosmos	-8358
▁counts	-8359
▁courts	-8360
▁cowork	-8361
▁cracks	-8362
▁criter	-8363
▁domain	-8364
▁doming	-8365
▁doodle	-8366
▁emerge	-8367
▁enrich	-8368
▁fisher	-8369
▁gallon	-8370
▁gandhi	-8371
▁guards	-8372
▁guitar	-8373
▁hannah	-8374
▁hebrew	-8375
▁heroic	-8376
▁interd	-8377
▁ironic	-8378
▁joshua	-8379
▁kidney	-8380
▁lander	-8381
▁lowest	-8382
▁manner	-8383
▁marrow	-8384
▁marvel	-8385
▁mining	-8386
▁miscon	-8387
▁motors	-8388
▁passes	-8389
▁pestic	-8390
▁presum	-8391
▁preval	-8392
▁refuse	-8393
▁relief	-8394
▁render	-8395
▁rezero	-8396
▁rubble	-8397
▁salary	-8398
▁senior	-8399
▁socioe	-8400
▁sooner	-8401
▁sydney	-8402
▁temple	-8403
▁trains	-8404
▁tweets	-8405
▁unfold	-8406
▁urgent	-8407
▁vivian	-8408
▁waters	-8409
▁weighs	-8410
▁whales	-8411
▁wheels	-8412
ogenesis	-8413
▁applies	-8414
▁ashamed	-8415
▁beloved	-8416
▁bubbles	-8417
▁charter	-8418
▁cleaner	-8419
▁collaps	-8420
▁columns	-8421
▁comprom	-8422
▁copying	-8423
▁crossed	-8424
▁denisov	-8425
▁diamond	-8426
▁discrim	-8427
▁encoder	-8428
▁episode	-8429
▁fathers	-8430
▁federal	-8431
▁footage	-8432
▁generic	-8433
▁grammar	-8434
▁graphic	-8435
▁handbag	-8436
▁honesty	-8437
▁hunting	-8438
▁incomes	-8439
▁jupiter	-8440
▁liberia	-8441
▁liberty	-8442
▁museums	-8443
▁ongoing	-8444
▁opposed	-8445
▁outward	-8446
▁pacific	-8447
▁pathway	-8448
▁periods	-8449
▁placing	-8450
▁popcorn	-8451
▁portion	-8452
▁prisons	-8453
▁promote	-8454
▁publish	-8455
▁pursuit	-8456
▁ratings	-8457
▁reclaim	-8458
▁regener	-8459
▁retreat	-8460
▁shaking	-8461
▁sighted	-8462
▁singers	-8463
▁slavery	-8464
▁somalia	-8465
▁squares	-8466
▁strings	-8467
▁supreme	-8468
▁tsunami	-8469
▁unhappy	-8470
▁useless	-8471
▁vietnam	-8472
▁warhead	-8473
▁whoever	-8474
naissance	-8475
▁actively	-8476
▁advances	-8477
▁ambassad	-8478
▁arranged	-8479
▁bicycles	-8480
▁calories	-8481
▁carnegie	-8482
▁channels	-8483
▁communal	-8484
▁consists	-8485
▁diameter	-8486
▁displace	-8487
▁distingu	-8488
▁dopamine	-8489
▁drawings	-8490
▁earliest	-8491
▁explicit	-8492
▁feminist	-8493
▁fertiliz	-8494
▁forecast	-8495
▁goodness	-8496
▁habitats	-8497
▁historic	-8498
▁includes	-8499
▁magnetic	-8500
▁mohammed	-8501
▁offering	-8502
▁outbreak	-8503
▁papercut	-8504
▁parasite	-8505
▁pathways	-8506
▁payments	-8507
▁persuade	-8508
▁philanth	-8509
▁planting	-8510
▁precious	-8511
▁protests	-8512
▁reporter	-8513
▁resident	-8514
▁sarajevo	-8515
▁stopping	-8516
▁switched	-8517
▁thrilled	-8518
▁underest	-8519
▁zimbabwe	-8520
▁aggregate	-8521
▁amazingly	-8522
▁attending	-8523
▁celebrity	-8524
▁champions	-8525
▁chocolate	-8526
▁consuming	-8527
▁dictators	-8528
▁diplomacy	-8529
▁hamburger	-8530
▁headlines	-8531
▁hollywood	-8532
▁honeybees	-8533
▁illnesses	-8534
▁imagining	-8535
▁immigrant	-8536
▁indonesia	-8537
▁initially	-8538
▁intuition	-8539
▁intuitive	-8540
▁microsoft	-8541
▁negotiate	-8542
▁overnight	-8543
▁pregnancy	-8544
▁prevented	-8545
▁principal	-8546
▁qualities	-8547
▁realities	-8548
▁relatives	-8549
▁reporters	-8550
▁secretary	-8551
▁seduction	-8552
▁succeeded	-8553
▁territory	-8554
▁threshold	-8555
▁victorian	-8556
▁witnessed	-8557
▁accelerate	-8558
▁accomplish	-8559
▁afterwards	-8560
▁apartments	-8561
▁automobile	-8562
▁boundaries	-8563
▁capability	-8564
▁comparison	-8565
▁consistent	-8566
▁convincing	-8567
▁critically	-8568
▁determined	-8569
▁determines	-8570
▁dictionary	-8571
▁discipline	-8572
▁disturbing	-8573
▁encouraged	-8574
▁enormously	-8575
▁impressive	-8576
▁intangible	-8577
▁intriguing	-8578
▁journalism	-8579
▁littlebits	-8580
▁practicing	-8581
▁privileged	-8582
▁professors	-8583
▁spacecraft	-8584
▁storycorps	-8585
▁translated	-8586
▁unintended	-8587
▁assignments	-8588
▁chimpanzees	-8589
▁citizenship	-8590
▁composition	-8591
▁demographic	-8592
▁demonstrate	-8593
▁encountered	-8594
▁fingerprint	-8595
▁frightening	-8596
▁implemented	-8597
▁manuscripts	-8598
▁neanderthal	-8599
▁pollination	-8600
▁positioning	-8601
▁predictable	-8602
▁probability	-8603
▁psychiatric	-8604
▁reinventing	-8605
▁statistical	-8606
▁stimulation	-8607
▁underground	-8608
▁authenticity	-8609
▁catastrophic	-8610
▁contribution	-8611
▁demonstrated	-8612
▁disconnected	-8613
▁improvements	-8614
▁laboratories	-8615
▁participants	-8616
▁presentation	-8617
▁psychologist	-8618
▁urbanization	-8619
▁approximately	-8620
▁philosophical	-8621
▁socioeconomic	-8622
▁discrimination	-8623
▁reconciliation	-8624
fy	-8625
hc	-8626
mo	-8627
ada	-8628
agn	-8629
aks	-8630
ani	-8631
anz	-8632
ati	-8633
bro	-8634
cap	-8635
ias	-8636
ida	-8637
mod	-8638
mun	-8639
ona	-8640
sey	-8641
urp	-8642
ymm	-8643
▁bc	-8644
▁cm	-8645
▁jr	-8646
▁ol	-8647
▁vo	-8648
▁yr	-8649
abil	-8650
abit	-8651
aken	-8652
arre	-8653
atts	-8654
bble	-8655
bral	-8656
down	-8657
eath	-8658
fall	-8659
fing	-8660
holm	-8661
hran	-8662
ilib	-8663
lied	-8664
neys	-8665
olis	-8666
osex	-8667
outs	-8668
pack	-8669
plus	-8670
pple	-8671
raff	-8672
rans	-8673
step	-8674
uced	-8675
ucky	-8676
umph	-8677
vity	-8678
well	-8679
xnet	-8680
yles	-8681
▁aer	-8682
▁arc	-8683
▁ate	-8684
▁bru	-8685
▁cyn	-8686
▁dil	-8687
▁dun	-8688
▁egg	-8689
▁gel	-8690
▁gow	-8691
▁gum	-8692
▁hug	-8693
▁irr	-8694
▁isa	-8695
▁lhc	-8696
▁ner	-8697
▁ngo	-8698
▁piv	-8699
▁ram	-8700
▁seg	-8701
▁sie	-8702
▁sms	-8703
▁upd	-8704
▁vig	-8705
▁woo	-8706
▁yog	-8707
adium	-8708
brush	-8709
elled	-8710
fluid	-8711
iatur	-8712
icked	-8713
inter	-8714
iture	-8715
oenix	-8716
orage	-8717
otion	-8718
phalt	-8719
pless	-8720
ymmet	-8721
▁abol	-8722
▁abra	-8723
▁adul	-8724
▁aged	-8725
▁bake	-8726
▁bars	-8727
▁boil	-8728
▁cake	-8729
▁cock	-8730
▁cott	-8731
▁cues	-8732
▁deer	-8733
▁dive	-8734
▁ease	-8735
▁exit	-8736
▁fier	-8737
▁flee	-8738
▁gaps	-8739
▁golf	-8740
▁keys	-8741
▁lamb	-8742
▁limb	-8743
▁lion	-8744
▁ment	-8745
▁nich	-8746
▁nurt	-8747
▁sail	-8748
▁sake	-8749
▁salt	-8750
▁sant	-8751
▁tanz	-8752
▁taxi	-8753
▁toes	-8754
▁turk	-8755
▁unem	-8756
▁vary	-8757
▁wing	-8758
▁yale	-8759
ailing	-8760
anging	-8761
erkats	-8762
houses	-8763
inging	-8764
iotics	-8765
itated	-8766
itters	-8767
ndered	-8768
plegic	-8769
rative	-8770
redict	-8771
tzmann	-8772
uctive	-8773
usions	-8774
▁acids	-8775
▁align	-8776
▁alter	-8777
▁arbit	-8778
▁arche	-8779
▁arist	-8780
▁asian	-8781
▁bench	-8782
▁bimet	-8783
▁bites	-8784
▁blown	-8785
▁brick	-8786
▁bronx	-8787
▁bully	-8788
▁camps	-8789
▁cared	-8790
▁cheer	-8791
▁chern	-8792
▁choir	-8793
▁cubic	-8794
▁decor	-8795
▁donna	-8796
▁excit	-8797
▁exile	-8798
▁fraud	-8799
▁freud	-8800
▁funds	-8801
▁guilt	-8802
▁harry	-8803
▁idiot	-8804
▁laser	-8805
▁limbs	-8806
▁liver	-8807
▁loans	-8808
▁maria	-8809
▁messy	-8810
▁moist	-8811
▁nickn	-8812
▁nonin	-8813
▁parap	-8814
▁recre	-8815
▁regul	-8816
▁relax	-8817
▁repet	-8818
▁reuse	-8819
▁rises	-8820
▁roger	-8821
▁royal	-8822
▁scand	-8823
▁sharp	-8824
▁sized	-8825
▁surre	-8826
▁swall	-8827
▁tanks	-8828
▁theft	-8829
▁towns	-8830
▁tribe	-8831
▁vapor	-8832
eration	-8833
inished	-8834
organic	-8835
ounding	-8836
underst	-8837
vestock	-8838
▁actors	-8839
▁albert	-8840
▁allies	-8841
▁angles	-8842
▁annual	-8843
▁arrive	-8844
▁athlet	-8845
▁backed	-8846
▁barrel	-8847
▁beaten	-8848
▁betray	-8849
▁builds	-8850
▁bullet	-8851
▁campus	-8852
▁coined	-8853
▁columb	-8854
▁denial	-8855
▁dispar	-8856
▁emails	-8857
▁enters	-8858
▁fixing	-8859
▁fluent	-8860
▁folded	-8861
▁grocer	-8862
▁heaven	-8863
▁holmes	-8864
▁hunter	-8865
▁immers	-8866
▁immort	-8867
▁louder	-8868
▁marduk	-8869
▁newton	-8870
▁noises	-8871
▁noneth	-8872
▁offend	-8873
▁overse	-8874
▁partly	-8875
▁plasma	-8876
▁prayer	-8877
▁purely	-8878
▁purple	-8879
▁regret	-8880
▁repurp	-8881
▁resign	-8882
▁rubber	-8883
▁server	-8884
▁sheets	-8885
▁shifts	-8886
▁shower	-8887
▁sierra	-8888
▁slower	-8889
▁sovere	-8890
▁stigma	-8891
▁strict	-8892
▁summar	-8893
▁tagged	-8894
▁tehran	-8895
▁typing	-8896
▁uncons	-8897
▁underm	-8898
▁verbal	-8899
▁viewed	-8900
▁wasted	-8901
ilibrium	-8902
izations	-8903
▁asphalt	-8904
▁asymmet	-8905
▁atlanta	-8906
▁belongs	-8907
▁beneath	-8908
▁bureauc	-8909
▁chasing	-8910
▁checked	-8911
▁chicken	-8912
▁claimed	-8913
▁cleaned	-8914
▁clients	-8915
▁closest	-8916
▁committ	-8917
▁contest	-8918
▁corrupt	-8919
▁counted	-8920
▁cousins	-8921
▁curator	-8922
▁deserts	-8923
▁digging	-8924
▁disagre	-8925
▁encoded	-8926
▁entered	-8927
▁enzymes	-8928
▁ethical	-8929
▁fragile	-8930
▁gowanus	-8931
▁hackers	-8932
▁halfway	-8933
▁helicop	-8934
▁iceberg	-8935
▁imagery	-8936
▁intrins	-8937
▁logical	-8938
▁lolcats	-8939
▁looting	-8940
▁metabol	-8941
▁mirrors	-8942
▁phoenix	-8943
▁players	-8944
▁quantit	-8945
▁reaches	-8946
▁reactor	-8947
▁reduces	-8948
▁refugee	-8949
▁reminds	-8950
▁reserve	-8951
▁scaling	-8952
▁scholar	-8953
▁serving	-8954
▁session	-8955
▁settled	-8956
▁shifted	-8957
▁shining	-8958
▁simpler	-8959
▁spreads	-8960
▁squared	-8961
▁stadium	-8962
▁storage	-8963
▁stuxnet	-8964
▁surplus	-8965
▁surveys	-8966
▁touches	-8967
▁triumph	-8968
▁viewing	-8969
▁voyager	-8970
▁wrapped	-8971
▁abundant	-8972
▁activism	-8973
▁announce	-8974
▁assigned	-8975
▁asteroid	-8976
▁attacker	-8977
▁believes	-8978
▁catholic	-8979
▁cerebral	-8980
▁criteria	-8981
▁directed	-8982
▁distract	-8983
▁dropping	-8984
▁famously	-8985
▁genocide	-8986
▁glaciers	-8987
▁highways	-8988
▁honduras	-8989
▁indicate	-8990
▁injuries	-8991
▁interrog	-8992
▁inventor	-8993
▁meerkats	-8994
▁membrane	-8995
▁miniatur	-8996
▁moreover	-8997
▁notebook	-8998
▁obtained	-8999
▁operated	-9000
▁orbiting	-9001
▁overload	-9002
▁parallel	-9003
▁princess	-9004
▁prospect	-9005
▁responds	-9006
▁selected	-9007
▁stressed	-9008
▁superint	-9009
▁surgical	-9010
▁talented	-9011
▁thriving	-9012
▁touching	-9013
▁unemploy	-9014
▁uploaded	-9015
▁vacation	-9016
▁workshop	-9017
▁accenture	-9018
▁acknowled	-9019
▁alexander	-9020
▁arguments	-9021
▁attracted	-9022
▁bacterium	-9023
▁batteries	-9024
▁boltzmann	-9025
▁campaigns	-9026
▁circuitry	-9027
▁container	-9028
▁contracts	-9029
▁daughters	-9030
▁desperate	-9031
▁displaced	-9032
▁educators	-9033
▁encounter	-9034
▁exclusion	-9035
▁exhausted	-9036
▁expecting	-9037
▁expressed	-9038
▁inorganic	-9039
▁intrigued	-9040
▁inventing	-9041
▁investing	-9042
▁livestock	-9043
▁marriages	-9044
▁millennia	-9045
▁officials	-9046
▁originals	-9047
▁promising	-9048
▁protocell	-9049
▁psychotic	-9050
▁radically	-9051
▁realistic	-9052
▁recession	-9053
▁recovered	-9054
▁resilient	-9055
▁screening	-9056
▁skeptical	-9057
▁specimens	-9058
▁stockholm	-9059
▁stretched	-9060
▁struggled	-9061
▁surgeries	-9062
▁surviving	-9063
▁temporary	-9064
▁tolerance	-9065
▁trillions	-9066
▁unpredict	-9067
▁volunteer	-9068
▁acceptable	-9069
▁accounting	-9070
▁antibiotic	-9071
▁celebrated	-9072
▁classmates	-9073
▁conspiracy	-9074
▁devastated	-9075
▁documented	-9076
▁excitement	-9077
▁extinction	-9078
▁friendship	-9079
▁governance	-9080
▁illustrate	-9081
▁inherently	-9082
▁initiative	-9083
▁innovators	-9084
▁intentions	-9085
▁interviews	-9086
▁irrigation	-9087
▁monitoring	-9088
▁nanopartic	-9089
▁newspapers	-9090
▁phenomenal	-9091
▁prediction	-9092
▁procedures	-9093
▁programmed	-9094
▁punishment	-9095
▁rebuilding	-9096
▁researcher	-9097
▁settlement	-9098
▁smartphone	-9099
▁supporting	-9100
▁tenderness	-9101
▁antibiotics	-9102
▁certificate	-9103
▁connectomes	-9104
▁convenience	-9105
▁dangerously	-9106
▁destination	-9107
▁documenting	-9108
▁enforcement	-9109
▁equilibrium	-9110
▁foundations	-9111
▁functioning	-9112
▁neuroscient	-9113
▁nonetheless	-9114
▁politically	-9115
▁prosthetics	-9116
▁threatening	-9117
▁trafficking	-9118
▁transferred	-9119
▁collaborator	-9120
▁conditioning	-9121
▁conservative	-9122
▁difficulties	-9123
▁fluctuations	-9124
▁intersection	-9125
▁invisibility	-9126
▁polarization	-9127
▁compassionate	-9128
▁determination	-9129
▁investigation	-9130
▁participating	-9131
▁revolutionary	-9132
▁accountability	-9133
▁systematically	-9134
▁characteristics	-9135
eb	-9136
gl	-9137
gr	-9138
ui	-9139
wa	-9140
aya	-9141
bow	-9142
cet	-9143
fly	-9144
imm	-9145
jud	-9146
kin	-9147
nat	-9148
nia	-9149
nut	-9150
oma	-9151
rol	-9152
rot	-9153
yan	-9154
yll	-9155
zes	-9156
▁eb	-9157
▁ft	-9158
▁iv	-9159
▁jb	-9160
▁rn	-9161
▁tk	-9162
▁ub	-9163
▁vr	-9164
agog	-9165
ails	-9166
arer	-9167
blin	-9168
bris	-9169
elly	-9170
flow	-9171
fold	-9172
gami	-9173
iful	-9174
ipes	-9175
izza	-9176
mare	-9177
mart	-9178
mate	-9179
mill	-9180
obyl	-9181
ocur	-9182
omed	-9183
omos	-9184
osal	-9185
pler	-9186
quez	-9187
ront	-9188
take	-9189
uana	-9190
uese	-9191
umen	-9192
untu	-9193
view	-9194
wind	-9195
ylum	-9196
▁ade	-9197
▁ads	-9198
▁biz	-9199
▁dub	-9200
▁ego	-9201
▁ell	-9202
▁fda	-9203
▁fer	-9204
▁fog	-9205
▁hav	-9206
▁hut	-9207
▁ian	-9208
▁jav	-9209
▁ket	-9210
▁lev	-9211
▁lou	-9212
▁luc	-9213
▁mud	-9214
▁mun	-9215
▁mur	-9216
▁nag	-9217
▁nam	-9218
▁naz	-9219
▁phd	-9220
▁sud	-9221
▁tus	-9222
▁wax	-9223
alled	-9224
aming	-9225
athan	-9226
atter	-9227
eling	-9228
emies	-9229
erate	-9230
impse	-9231
inent	-9232
inton	-9233
lings	-9234
oscop	-9235
peare	-9236
plete	-9237
press	-9238
raged	-9239
rones	-9240
▁bali	-9241
▁blew	-9242
▁blur	-9243
▁casc	-9244
▁chad	-9245
▁clar	-9246
▁clot	-9247
▁coma	-9248
▁curs	-9249
▁cycl	-9250
▁dawn	-9251
▁dies	-9252
▁drum	-9253
▁dude	-9254
▁enth	-9255
▁feat	-9256
▁glow	-9257
▁grey	-9258
▁guid	-9259
▁gulf	-9260
▁heel	-9261
▁hust	-9262
▁item	-9263
▁junk	-9264
▁lege	-9265
▁loan	-9266
▁mant	-9267
▁nour	-9268
▁opec	-9269
▁palm	-9270
▁pear	-9271
▁pipe	-9272
▁pops	-9273
▁quiz	-9274
▁reci	-9275
▁rome	-9276
▁ross	-9277
▁sher	-9278
▁sixt	-9279
▁slam	-9280
▁slee	-9281
▁snap	-9282
▁solo	-9283
▁spat	-9284
▁stew	-9285
▁stum	-9286
▁tenn	-9287
▁unic	-9288
▁verb	-9289
▁vice	-9290
▁ware	-9291
▁woke	-9292
▁wool	-9293
abetes	-9294
awatts	-9295
ertips	-9296
ilding	-9297
inator	-9298
itudes	-9299
nesday	-9300
oosing	-9301
orence	-9302
passed	-9303
ulsion	-9304
urable	-9305
▁alloc	-9306
▁amino	-9307
▁bonds	-9308
▁bored	-9309
▁bucks	-9310
▁chief	-9311
▁chore	-9312
▁coord	-9313
▁couch	-9314
▁cream	-9315
▁depos	-9316
▁desal	-9317
▁draws	-9318
▁dread	-9319
▁eager	-9320
▁ethic	-9321
▁fails	-9322
▁frost	-9323
▁gross	-9324
▁haunt	-9325
▁hence	-9326
▁hoped	-9327
▁icons	-9328
▁inade	-9329
▁innoc	-9330
▁irony	-9331
▁jones	-9332
▁kills	-9333
▁koran	-9334
▁loose	-9335
▁meets	-9336
▁milky	-9337
▁monum	-9338
▁morph	-9339
▁noisy	-9340
▁opera	-9341
▁pants	-9342
▁pater	-9343
▁patri	-9344
▁physi	-9345
▁pivot	-9346
▁pizza	-9347
▁polls	-9348
▁posed	-9349
▁poses	-9350
▁prone	-9351
▁pulse	-9352
▁recyc	-9353
▁reefs	-9354
▁rides	-9355
▁rigor	-9356
▁roles	-9357
▁roofs	-9358
▁shelt	-9359
▁shots	-9360
▁slope	-9361
▁spare	-9362
▁spons	-9363
▁suite	-9364
▁sweat	-9365
▁traff	-9366
▁voted	-9367
▁wheat	-9368
▁wrest	-9369
abulary	-9370
ictions	-9371
ilizing	-9372
imeters	-9373
osexual	-9374
ritious	-9375
version	-9376
▁abused	-9377
▁advers	-9378
▁aiming	-9379
▁angels	-9380
▁apolog	-9381
▁asylum	-9382
▁bonica	-9383
▁butler	-9384
▁candle	-9385
▁cement	-9386
▁checks	-9387
▁cinema	-9388
▁copied	-9389
▁correl	-9390
▁cotton	-9391
▁crimes	-9392
▁dances	-9393
▁deterg	-9394
▁execut	-9395
▁extens	-9396
▁fooled	-9397
▁format	-9398
▁frames	-9399
▁grains	-9400
▁guided	-9401
▁hippoc	-9402
▁impose	-9403
▁improb	-9404
▁inches	-9405
▁incons	-9406
▁kepler	-9407
▁lastly	-9408
▁lethal	-9409
▁manual	-9410
▁marath	-9411
▁maslow	-9412
▁minded	-9413
▁miners	-9414
▁modest	-9415
▁neurot	-9416
▁orient	-9417
▁pencil	-9418
▁piracy	-9419
▁planes	-9420
▁potato	-9421
▁potter	-9422
▁prepar	-9423
▁rachel	-9424
▁raises	-9425
▁reluct	-9426
▁restra	-9427
▁rhythm	-9428
▁robert	-9429
▁rolled	-9430
▁rooted	-9431
▁scares	-9432
▁shakes	-9433
▁shares	-9434
▁spiral	-9435
▁stakes	-9436
▁strike	-9437
▁strive	-9438
▁subsid	-9439
▁symmet	-9440
▁tattoo	-9441
▁thermo	-9442
▁thread	-9443
▁throat	-9444
▁thrust	-9445
▁topics	-9446
▁tricky	-9447
▁ubuntu	-9448
▁unexpl	-9449
▁wilder	-9450
▁wooden	-9451
rability	-9452
▁appoint	-9453
▁battles	-9454
▁bimetal	-9455
▁bizarre	-9456
▁boiling	-9457
▁buttons	-9458
▁captain	-9459
▁chromos	-9460
▁cigaret	-9461
▁consens	-9462
▁daycare	-9463
▁editing	-9464
▁editors	-9465
▁enemies	-9466
▁fantasy	-9467
▁filming	-9468
▁glimpse	-9469
▁grading	-9470
▁grandma	-9471
▁hacking	-9472
▁hardest	-9473
▁harmful	-9474
▁headach	-9475
▁heavens	-9476
▁iceland	-9477
▁indoors	-9478
▁inhabit	-9479
▁italian	-9480
▁joining	-9481
▁laughed	-9482
▁leaning	-9483
▁longing	-9484
▁magnets	-9485
▁mankind	-9486
▁margins	-9487
▁maximum	-9488
▁muscles	-9489
▁origami	-9490
▁paraphr	-9491
▁philipp	-9492
▁pouring	-9493
▁proport	-9494
▁punched	-9495
▁records	-9496
▁regions	-9497
▁revenge	-9498
▁rockets	-9499
▁rosetta	-9500
▁sectors	-9501
▁sensing	-9502
▁sensory	-9503
▁spoofer	-9504
▁stephen	-9505
▁stepped	-9506
▁substit	-9507
▁temples	-9508
▁thermal	-9509
▁touched	-9510
▁trailer	-9511
▁ukraine	-9512
▁vantage	-9513
▁veteran	-9514
▁virtues	-9515
▁visited	-9516
▁volumes	-9517
▁weaving	-9518
▁zealand	-9519
▁accommod	-9520
▁ambition	-9521
▁anesthes	-9522
▁animated	-9523
▁annoying	-9524
▁backpack	-9525
▁backyard	-9526
▁blocking	-9527
▁boundary	-9528
▁centered	-9529
▁choosing	-9530
▁clothing	-9531
▁clusters	-9532
▁colorful	-9533
▁database	-9534
▁daylight	-9535
▁deserves	-9536
▁destruct	-9537
▁diabetes	-9538
▁dinosaur	-9539
▁domingos	-9540
▁dynamics	-9541
▁embraced	-9542
▁enjoying	-9543
▁evolving	-9544
▁expanded	-9545
▁florence	-9546
▁fracking	-9547
▁gasoline	-9548
▁geometry	-9549
▁gigantic	-9550
▁graphics	-9551
▁helpless	-9552
▁incorpor	-9553
▁multiply	-9554
▁mutation	-9555
▁nickname	-9556
▁noticing	-9557
▁numeracy	-9558
▁olympics	-9559
▁operator	-9560
▁overseas	-9561
▁packaged	-9562
▁pinpoint	-9563
▁portrait	-9564
▁reacting	-9565
▁reducing	-9566
▁scotland	-9567
▁sections	-9568
▁shocking	-9569
▁smallest	-9570
▁speeding	-9571
▁supplies	-9572
▁symbolic	-9573
▁tanzania	-9574
▁targeted	-9575
▁temporal	-9576
▁terrific	-9577
▁tropical	-9578
▁virginia	-9579
▁answering	-9580
▁argentina	-9581
▁assembled	-9582
▁automatic	-9583
▁biologist	-9584
▁chernobyl	-9585
▁collapsed	-9586
▁collision	-9587
▁comparing	-9588
▁competing	-9589
▁coworkers	-9590
▁cryptocur	-9591
▁cultivate	-9592
▁defending	-9593
▁delighted	-9594
▁describes	-9595
▁distances	-9596
▁emergence	-9597
▁fashioned	-9598
▁filmmaker	-9599
▁formation	-9600
▁gratitude	-9601
▁implanted	-9602
▁impressed	-9603
▁inflation	-9604
▁integrity	-9605
▁intensive	-9606
▁interrupt	-9607
▁intricate	-9608
▁intrinsic	-9609
▁logistics	-9610
▁messaging	-9611
▁metabolic	-9612
▁nightmare	-9613
▁occurring	-9614
▁paralysis	-9615
▁parenting	-9616
▁passively	-9617
▁perceived	-9618
▁platforms	-9619
▁processed	-9620
▁realizing	-9621
▁rectangle	-9622
▁remaining	-9623
▁resistant	-9624
▁statistic	-9625
▁sustained	-9626
▁transcend	-9627
▁transfers	-9628
▁wednesday	-9629
▁accurately	-9630
▁advantages	-9631
▁adventures	-9632
▁assembling	-9633
▁attributes	-9634
▁calculator	-9635
▁complained	-9636
▁conductive	-9637
▁confession	-9638
▁confronted	-9639
▁continents	-9640
▁continuous	-9641
▁creatively	-9642
▁destroying	-9643
▁diagnostic	-9644
▁elementary	-9645
▁evaluating	-9646
▁exhausting	-9647
▁expressing	-9648
▁facilitate	-9649
▁fingertips	-9650
▁futureless	-9651
▁greenhouse	-9652
▁identities	-9653
▁imperative	-9654
▁inadequate	-9655
▁introverts	-9656
▁limitation	-9657
▁millennium	-9658
▁mysterious	-9659
▁nutritious	-9660
▁physicians	-9661
▁portuguese	-9662
▁prioritize	-9663
▁profoundly	-9664
▁publishing	-9665
▁reinforced	-9666
▁relentless	-9667
▁restricted	-9668
▁specialist	-9669
▁taskrabbit	-9670
▁vocabulary	-9671
▁acknowledge	-9672
▁consciously	-9673
▁dysfunction	-9674
▁flexibility	-9675
▁frustrating	-9676
▁genetically	-9677
▁implication	-9678
▁measurement	-9679
▁problematic	-9680
▁regulations	-9681
▁renaissance	-9682
▁replacement	-9683
▁requirement	-9684
▁researching	-9685
▁restaurants	-9686
▁shakespeare	-9687
▁transported	-9688
▁volunteered	-9689
▁appreciation	-9690
▁associations	-9691
▁experimental	-9692
▁fluorescence	-9693
▁measurements	-9694
▁requirements	-9695
▁transmission	-9696
▁collaborators	-9697
▁superintellig	-9698
▁undergraduate	-9699
▁unpredictable	-9700
▁interconnected	-9701
▁nanotechnology	-9702
▁transformative	-9703
▁entrepreneurial	-9704
cs	-9705
sp	-9706
afi	-9707
amy	-9708
aud	-9709
awi	-9710
bul	-9711
ena	-9712
enh	-9713
hot	-9714
ioc	-9715
lor	-9716
nde	-9717
not	-9718
obs	-9719
ogs	-9720
olo	-9721
oly	-9722
ora	-9723
rid	-9724
rov	-9725
see	-9726
sts	-9727
the	-9728
uba	-9729
uel	-9730
urt	-9731
vae	-9732
xit	-9733
▁au	-9734
▁dm	-9735
▁mw	-9736
▁nt	-9737
▁nu	-9738
▁om	-9739
▁uh	-9740
abel	-9741
alli	-9742
ambi	-9743
aska	-9744
atar	-9745
born	-9746
burg	-9747
cart	-9748
cile	-9749
cycl	-9750
east	-9751
eryl	-9752
fare	-9753
gled	-9754
grad	-9755
hrir	-9756
intu	-9757
ipol	-9758
ller	-9759
math	-9760
nedy	-9761
nity	-9762
ocks	-9763
opia	-9764
oral	-9765
plet	-9766
raph	-9767
road	-9768
ssip	-9769
thur	-9770
uine	-9771
uman	-9772
wing	-9773
ytes	-9774
▁awe	-9775
▁clo	-9776
▁cue	-9777
▁cul	-9778
▁han	-9779
▁hob	-9780
▁hud	-9781
▁ibm	-9782
▁ike	-9783
▁joe	-9784
▁jur	-9785
▁kev	-9786
▁lur	-9787
▁lyn	-9788
▁mcd	-9789
▁mug	-9790
▁mul	-9791
▁onc	-9792
▁ooh	-9793
▁owe	-9794
▁reb	-9795
▁rng	-9796
▁ski	-9797
▁unl	-9798
▁vag	-9799
▁wob	-9800
▁wre	-9801
▁zod	-9802
abric	-9803
anium	-9804
arten	-9805
ashes	-9806
capes	-9807
cerpt	-9808
ceton	-9809
eland	-9810
geons	-9811
ibera	-9812
ifies	-9813
inger	-9814
integ	-9815
keley	-9816
odied	-9817
ogens	-9818
onald	-9819
oured	-9820
ppers	-9821
pring	-9822
renal	-9823
rical	-9824
state	-9825
ucked	-9826
▁alan	-9827
▁alar	-9828
▁anna	-9829
▁appe	-9830
▁barg	-9831
▁bert	-9832
▁bows	-9833
▁budd	-9834
▁chaz	-9835
▁chee	-9836
▁crum	-9837
▁dash	-9838
▁dave	-9839
▁diap	-9840
▁dick	-9841
▁doaa	-9842
▁eats	-9843
▁eman	-9844
▁exos	-9845
▁folk	-9846
▁gadd	-9847
▁gaze	-9848
▁hans	-9849
▁hood	-9850
▁ipad	-9851
▁ipod	-9852
▁ladd	-9853
▁lawn	-9854
▁lisa	-9855
▁mans	-9856
▁meme	-9857
▁mike	-9858
▁narc	-9859
▁neat	-9860
▁nuts	-9861
▁oral	-9862
▁pave	-9863
▁pian	-9864
▁pier	-9865
▁plut	-9866
▁pron	-9867
▁reus	-9868
▁skip	-9869
▁tedx	-9870
▁twel	-9871
▁unre	-9872
▁vest	-9873
▁void	-9874
▁wore	-9875
▁wrap	-9876
active	-9877
ailand	-9878
cribed	-9879
ements	-9880
ennial	-9881
erable	-9882
icable	-9883
icides	-9884
ijuana	-9885
illing	-9886
iments	-9887
inates	-9888
ipolar	-9889
ounder	-9890
ourced	-9891
racies	-9892
rophys	-9893
static	-9894
ulsive	-9895
uminum	-9896
uously	-9897
veling	-9898
writer	-9899
▁acres	-9900
▁acute	-9901
▁advis	-9902
▁affir	-9903
▁alice	-9904
▁alike	-9905
▁arsen	-9906
▁baker	-9907
▁belly	-9908
▁boils	-9909
▁canal	-9910
▁caves	-9911
▁chord	-9912
▁cliff	-9913
▁crawl	-9914
▁crude	-9915
▁deals	-9916
▁disad	-9917
▁disse	-9918
▁dolph	-9919
▁drone	-9920
▁drown	-9921
▁drunk	-9922
▁dysle	-9923
▁embry	-9924
▁emits	-9925
▁euros	-9926
▁excav	-9927
▁exped	-9928
▁fairy	-9929
▁favel	-9930
▁fever	-9931
▁flaws	-9932
▁flesh	-9933
▁floss	-9934
▁gases	-9935
▁germs	-9936
▁grabs	-9937
▁greed	-9938
▁guest	-9939
▁handy	-9940
▁hated	-9941
▁hells	-9942
▁hills	-9943
▁hiros	-9944
▁indus	-9945
▁inher	-9946
▁jokes	-9947
▁kings	-9948
▁krill	-9949
▁landm	-9950
▁leone	-9951
▁lexic	-9952
▁loads	-9953
▁lovel	-9954
▁manif	-9955
▁mason	-9956
▁meals	-9957
▁midst	-9958
▁nasty	-9959
▁norms	-9960
▁oblig	-9961
▁palli	-9962
▁patch	-9963
▁peter	-9964
▁pumps	-9965
▁punct	-9966
▁rally	-9967
▁raped	-9968
▁rebel	-9969
▁relat	-9970
▁reloc	-9971
▁repai	-9972
▁resid	-9973
▁sells	-9974
▁serge	-9975
▁shade	-9976
▁shave	-9977
▁sheer	-9978
▁shore	-9979
▁simon	-9980
▁sizes	-9981
▁snake	-9982
▁snaps	-9983
▁spine	-9984
▁spite	-9985
▁spont	-9986
▁strat	-9987
▁sudan	-9988
▁taboo	-9989
▁tutor	-9990
▁unequ	-9991
▁untie	-9992
▁veins	-9993
▁vinci	-9994
▁waist	-9995
▁watts	-9996
▁wavel	-9997
▁wiped	-9998
▁withd	-9999
ceptual	-10000
ersonal	-10001
iration	-10002
itivity	-10003
ologies	-10004
osphere	-10005
ouncing	-10006
rencies	-10007
ressing	-10008
theless	-10009
working	-10010
▁antide	-10011
▁append	-10012
▁argued	-10013
▁backup	-10014
▁ballet	-10015
▁banana	-10016
▁behold	-10017
▁boards	-10018
▁brexit	-10019
▁calend	-10020
▁caring	-10021
▁cheers	-10022
▁claims	-10023
▁condem	-10024
▁consol	-10025
▁contag	-10026
▁cousin	-10027
▁critic	-10028
▁crowds	-10029
▁dancer	-10030
▁declar	-10031
▁digits	-10032
▁dishes	-10033
▁edited	-10034
▁eleven	-10035
▁endure	-10036
▁enthus	-10037
▁fights	-10038
▁formal	-10039
▁glands	-10040
▁gossip	-10041
▁graphs	-10042
▁guides	-10043
▁hammer	-10044
▁hiding	-10045
▁hooked	-10046
▁horses	-10047
▁hubble	-10048
▁hudson	-10049
▁humble	-10050
▁hypoth	-10051
▁iconic	-10052
▁intest	-10053
▁issued	-10054
▁jacket	-10055
▁julian	-10056
▁kibera	-10057
▁larvae	-10058
▁laughs	-10059
▁league	-10060
▁lesion	-10061
▁loudly	-10062
▁metast	-10063
▁monday	-10064
▁mutant	-10065
▁nuclei	-10066
▁occurs	-10067
▁orange	-10068
▁orphan	-10069
▁paints	-10070
▁petals	-10071
▁pixels	-10072
▁poison	-10073
▁porous	-10074
▁prejud	-10075
▁priced	-10076
▁primes	-10077
▁provoc	-10078
▁pulses	-10079
▁racism	-10080
▁recipe	-10081
▁regain	-10082
▁retain	-10083
▁revers	-10084
▁scaled	-10085
▁sharks	-10086
▁shrimp	-10087
▁shrunk	-10088
▁slogan	-10089
▁sought	-10090
▁submit	-10091
▁sucked	-10092
▁tahrir	-10093
▁taller	-10094
▁ticket	-10095
▁towers	-10096
▁traces	-10097
▁turing	-10098
▁turkey	-10099
▁underp	-10100
▁underw	-10101
▁upward	-10102
▁valued	-10103
▁wallet	-10104
▁washed	-10105
▁wished	-10106
▁yorker	-10107
▁zodiac	-10108
lusively	-10109
restrial	-10110
▁abusive	-10111
▁adrenal	-10112
▁alright	-10113
▁anxious	-10114
▁athlete	-10115
▁biomole	-10116
▁blended	-10117
▁braking	-10118
▁branded	-10119
▁builder	-10120
▁bumping	-10121
▁censors	-10122
▁cleared	-10123
▁clinics	-10124
▁coating	-10125
▁corners	-10126
▁crafted	-10127
▁crashes	-10128
▁deliber	-10129
▁dressed	-10130
▁drought	-10131
▁earning	-10132
▁enjoyed	-10133
▁escaped	-10134
▁evolves	-10135
▁examine	-10136
▁excerpt	-10137
▁expands	-10138
▁expense	-10139
▁flatten	-10140
▁flipped	-10141
▁florida	-10142
▁forgive	-10143
▁gaddafi	-10144
▁genuine	-10145
▁greatly	-10146
▁grocery	-10147
▁heading	-10148
▁heavily	-10149
▁honored	-10150
▁ignored	-10151
▁illumin	-10152
▁jumping	-10153
▁kennedy	-10154
▁laptops	-10155
▁legally	-10156
▁malware	-10157
▁melting	-10158
▁merging	-10159
▁metrics	-10160
▁olympic	-10161
▁ordered	-10162
▁outrage	-10163
▁oysters	-10164
▁patents	-10165
▁persons	-10166
▁plotted	-10167
▁popping	-10168
▁premise	-10169
▁pricing	-10170
▁proving	-10171
▁ranking	-10172
▁readers	-10173
▁rehabil	-10174
▁resolve	-10175
▁rethink	-10176
▁retouch	-10177
▁reveals	-10178
▁schedul	-10179
▁seroton	-10180
▁seventh	-10181
▁signing	-10182
▁smiling	-10183
▁stewart	-10184
▁superst	-10185
▁suscept	-10186
▁switzer	-10187
▁teaches	-10188
▁texture	-10189
▁unicorn	-10190
▁utilize	-10191
▁vicious	-10192
▁victory	-10193
▁walmart	-10194
▁watches	-10195
▁weekend	-10196
▁winners	-10197
▁wonders	-10198
antically	-10199
istically	-10200
▁absorbed	-10201
▁acoustic	-10202
▁activate	-10203
▁admitted	-10204
▁alphabet	-10205
▁aluminum	-10206
▁answered	-10207
▁attracts	-10208
▁balanced	-10209
▁berkeley	-10210
▁blessing	-10211
▁blogging	-10212
▁charging	-10213
▁chemists	-10214
▁civilian	-10215
▁climbing	-10216
▁colonies	-10217
▁commerce	-10218
▁contempl	-10219
▁converse	-10220
▁defenses	-10221
▁degraded	-10222
▁diagnose	-10223
▁dreaming	-10224
▁duration	-10225
▁efficacy	-10226
▁elevated	-10227
▁emergent	-10228
▁endeavor	-10229
▁exposure	-10230
▁featured	-10231
▁festival	-10232
▁frequent	-10233
▁geograph	-10234
▁glorious	-10235
▁guidance	-10236
▁humility	-10237
▁husbands	-10238
▁impaired	-10239
▁indirect	-10240
▁intended	-10241
▁invasive	-10242
▁iranians	-10243
▁israelis	-10244
▁killings	-10245
▁learners	-10246
▁literary	-10247
▁marginal	-10248
▁mattered	-10249
▁missions	-10250
▁modeling	-10251
▁mushroom	-10252
▁nominate	-10253
▁obstacle	-10254
▁outdoors	-10255
▁paradise	-10256
▁pioneers	-10257
▁portable	-10258
▁pressing	-10259
▁protects	-10260
▁purposes	-10261
▁pursuing	-10262
▁regional	-10263
▁releases	-10264
▁reminder	-10265
▁resulted	-10266
▁reusable	-10267
▁sensible	-10268
▁severely	-10269
▁singular	-10270
▁sleeping	-10271
▁specimen	-10272
▁sticking	-10273
▁survivor	-10274
▁thailand	-10275
▁threaten	-10276
▁timeline	-10277
▁tortured	-10278
▁williams	-10279
▁aftermath	-10280
▁agreement	-10281
▁astrophys	-10282
▁attacking	-10283
▁attitudes	-10284
▁carpenter	-10285
▁committee	-10286
▁confusion	-10287
▁consensus	-10288
▁contained	-10289
▁criticism	-10290
▁detergent	-10291
▁dispersed	-10292
▁elephants	-10293
▁eliminate	-10294
▁exclusive	-10295
▁finishing	-10296
▁firsthand	-10297
▁fortunate	-10298
▁furniture	-10299
▁inconsist	-10300
▁ingenuity	-10301
▁innocence	-10302
▁intensity	-10303
▁inventors	-10304
▁isolation	-10305
▁lifestyle	-10306
▁medicines	-10307
▁ministers	-10308
▁mustaches	-10309
▁princeton	-10310
▁producers	-10311
▁residents	-10312
▁satisfact	-10313
▁sexuality	-10314
▁shattered	-10315
▁shootings	-10316
▁strengths	-10317
▁struggles	-10318
▁summarize	-10319
▁surprises	-10320
▁troubling	-10321
▁workplace	-10322
▁acceptance	-10323
▁addressing	-10324
▁appearance	-10325
▁autonomous	-10326
▁caregivers	-10327
▁centrifuge	-10328
▁clustering	-10329
▁conceptual	-10330
▁courageous	-10331
▁definitive	-10332
▁developers	-10333
▁disappoint	-10334
▁exceptions	-10335
▁explicitly	-10336
▁fragmented	-10337
▁generating	-10338
▁helicopter	-10339
▁horizontal	-10340
▁improbable	-10341
▁incomplete	-10342
▁indicators	-10343
▁infidelity	-10344
▁interfaces	-10345
▁ironically	-10346
▁legitimate	-10347
▁microfluid	-10348
▁misunderst	-10349
▁narratives	-10350
▁nonviolent	-10351
▁opposition	-10352
▁palliative	-10353
▁paraphrase	-10354
▁playground	-10355
▁presenting	-10356
▁presumably	-10357
▁propulsion	-10358
▁protective	-10359
▁psychopath	-10360
▁quantities	-10361
▁reflecting	-10362
▁responding	-10363
▁sequencing	-10364
▁simplicity	-10365
▁simplistic	-10366
▁solidarity	-10367
▁substitute	-10368
▁systematic	-10369
▁temptation	-10370
▁trajectory	-10371
▁transcript	-10372
▁wilderness	-10373
▁accompanied	-10374
▁antidepress	-10375
▁blockchains	-10376
▁celebration	-10377
▁commitments	-10378
▁destructive	-10379
▁distinctive	-10380
▁embarrassed	-10381
▁exceptional	-10382
▁frequencies	-10383
▁furthermore	-10384
▁immortality	-10385
▁influential	-10386
▁initiatives	-10387
▁investments	-10388
▁marketplace	-10389
▁masterpiece	-10390
▁neurologist	-10391
▁preparation	-10392
▁questioning	-10393
▁remembering	-10394
▁smartphones	-10395
▁storyteller	-10396
▁switzerland	-10397
▁unconscious	-10398
▁willingness	-10399
▁combinations	-10400
▁constructive	-10401
▁desalination	-10402
▁developments	-10403
▁illustration	-10404
▁installation	-10405
▁introduction	-10406
▁negotiations	-10407
▁neurogenesis	-10408
▁nevertheless	-10409
▁papercutting	-10410
▁philanthropy	-10411
▁prostitution	-10412
▁representing	-10413
▁reproduction	-10414
▁storytellers	-10415
▁characterized	-10416
▁conservatives	-10417
▁independently	-10418
▁intersections	-10419
▁repairability	-10420
▁reverberation	-10421
▁archaeological	-10422
▁characteristic	-10423
▁rehabilitation	-10424
▁neuroscientists	-10425
iw	-10426
asi	-10427
asm	-10428
bye	-10429
can	-10430
cod	-10431
cre	-10432
die	-10433
eem	-10434
eng	-10435
eor	-10436
gon	-10437
hou	-10438
los	-10439
mal	-10440
mat	-10441
omb	-10442
oot	-10443
opy	-10444
rah	-10445
ran	-10446
tes	-10447
uns	-10448
uts	-10449
▁aa	-10450
▁bp	-10451
▁eu	-10452
▁gn	-10453
▁gy	-10454
▁ov	-10455
▁oz	-10456
▁qa	-10457
agon	-10458
airo	-10459
alah	-10460
arin	-10461
aste	-10462
atin	-10463
atis	-10464
aurs	-10465
avio	-10466
avor	-10467
band	-10468
bing	-10469
cale	-10470
cely	-10471
cker	-10472
eman	-10473
emen	-10474
enet	-10475
fits	-10476
gles	-10477
gras	-10478
hist	-10479
iary	-10480
ican	-10481
iere	-10482
ileo	-10483
imee	-10484
irst	-10485
isan	-10486
izab	-10487
lers	-10488
leys	-10489
mite	-10490
offs	-10491
olas	-10492
oons	-10493
oped	-10494
ople	-10495
orse	-10496
phor	-10497
ptic	-10498
rick	-10499
riet	-10500
rong	-10501
rove	-10502
rypt	-10503
sell	-10504
seud	-10505
sylv	-10506
tail	-10507
teen	-10508
tent	-10509
tles	-10510
ucks	-10511
ulin	-10512
uson	-10513
west	-10514
zona	-10515
▁aes	-10516
▁alf	-10517
▁alm	-10518
▁bbc	-10519
▁bea	-10520
▁bor	-10521
▁bye	-10522
▁ced	-10523
▁cem	-10524
▁coe	-10525
▁cpu	-10526
▁cum	-10527
▁doc	-10528
▁esp	-10529
▁eve	-10530
▁hmm	-10531
▁hoc	-10532
▁ire	-10533
▁jit	-10534
▁lam	-10535
▁lem	-10536
▁lum	-10537
▁mes	-10538
▁mri	-10539
▁nik	-10540
▁nit	-10541
▁oak	-10542
▁pad	-10543
▁rej	-10544
▁rib	-10545
▁rov	-10546
▁rug	-10547
▁sao	-10548
▁sin	-10549
▁usa	-10550
▁wip	-10551
▁xen	-10552
▁zip	-10553
acent	-10554
agram	-10555
ampus	-10556
antom	-10557
arcer	-10558
barak	-10559
burgh	-10560
chant	-10561
ciful	-10562
ctive	-10563
ected	-10564
eries	-10565
ffect	-10566
front	-10567
icill	-10568
idity	-10569
ijing	-10570
ishes	-10571
itled	-10572
itory	-10573
luded	-10574
ndane	-10575
ochem	-10576
ogram	-10577
olera	-10578
osion	-10579
otive	-10580
owers	-10581
quart	-10582
ransm	-10583
rared	-10584
thood	-10585
ulose	-10586
ursor	-10587
▁alch	-10588
▁anch	-10589
▁apes	-10590
▁aven	-10591
▁bach	-10592
▁bond	-10593
▁calm	-10594
▁cape	-10595
▁carr	-10596
▁cass	-10597
▁clan	-10598
▁cops	-10599
▁crap	-10600
▁deci	-10601
▁demo	-10602
▁dupl	-10603
▁duty	-10604
▁ebay	-10605
▁edin	-10606
▁edit	-10607
▁ferg	-10608
▁filt	-10609
▁flaw	-10610
▁fond	-10611
▁ford	-10612
▁fung	-10613
▁gram	-10614
▁grim	-10615
▁hash	-10616
▁heal	-10617
▁hint	-10618
▁hong	-10619
▁ikea	-10620
▁impr	-10621
▁jaws	-10622
▁jazz	-10623
▁kent	-10624
▁kits	-10625
▁knit	-10626
▁lips	-10627
▁lobe	-10628
▁lone	-10629
▁lust	-10630
▁mask	-10631
▁mild	-10632
▁mixt	-10633
▁odds	-10634
▁pays	-10635
▁pile	-10636
▁plum	-10637
▁plun	-10638
▁prag	-10639
▁rabb	-10640
▁rage	-10641
▁rays	-10642
▁redd	-10643
▁reli	-10644
▁rica	-10645
▁sala	-10646
▁seti	-10647
▁slum	-10648
▁sock	-10649
▁sole	-10650
▁spar	-10651
▁spra	-10652
▁ster	-10653
▁stun	-10654
▁tact	-10655
▁temp	-10656
▁thor	-10657
▁unch	-10658
▁weed	-10659
airobi	-10660
anship	-10661
coming	-10662
etical	-10663
gevity	-10664
iaries	-10665
izable	-10666
mation	-10667
opolit	-10668
reting	-10669
teries	-10670
velope	-10671
vering	-10672
weight	-10673
▁aimee	-10674
▁amate	-10675
▁appet	-10676
▁armor	-10677
▁banjo	-10678
▁beast	-10679
▁bible	-10680
▁blend	-10681
▁blows	-10682
▁brake	-10683
▁cease	-10684
▁cheat	-10685
▁chuck	-10686
▁clubs	-10687
▁coded	-10688
▁codes	-10689
▁cohes	-10690
▁craig	-10691
▁creep	-10692
▁cried	-10693
▁crush	-10694
▁depri	-10695
▁deton	-10696
▁disgu	-10697
▁divor	-10698
▁drain	-10699
▁drama	-10700
▁entry	-10701
▁erect	-10702
▁escal	-10703
▁facit	-10704
▁feeds	-10705
▁float	-10706
▁fount	-10707
▁genom	-10708
▁goose	-10709
▁grabb	-10710
▁grams	-10711
▁grief	-10712
▁haven	-10713
▁humor	-10714
▁impul	-10715
▁infer	-10716
▁intim	-10717
▁isaac	-10718
▁johan	-10719
▁joint	-10720
▁judic	-10721
▁kabul	-10722
▁lasts	-10723
▁lined	-10724
▁lions	-10725
▁marco	-10726
▁mayor	-10727
▁mercy	-10728
▁mucus	-10729
▁papua	-10730
▁parag	-10731
▁perse	-10732
▁picks	-10733
▁plank	-10734
▁plato	-10735
▁pseud	-10736
▁qaeda	-10737
▁realm	-10738
▁resem	-10739
▁resur	-10740
▁riots	-10741
▁ruins	-10742
▁scare	-10743
▁serra	-10744
▁shiny	-10745
▁siege	-10746
▁skate	-10747
▁spade	-10748
▁spong	-10749
▁stead	-10750
▁steak	-10751
▁stere	-10752
▁stole	-10753
▁subur	-10754
▁swing	-10755
▁swiss	-10756
▁symph	-10757
▁taxes	-10758
▁teens	-10759
▁templ	-10760
▁terra	-10761
▁theat	-10762
▁tommy	-10763
▁towel	-10764
▁trace	-10765
▁truce	-10766
▁uncon	-10767
▁valve	-10768
▁winds	-10769
▁woody	-10770
ascular	-10771
eorites	-10772
holders	-10773
icillin	-10774
inarily	-10775
inators	-10776
iterate	-10777
izabeth	-10778
keepers	-10779
lection	-10780
natural	-10781
ometric	-10782
quisite	-10783
rection	-10784
rospect	-10785
secuted	-10786
▁aliens	-10787
▁apples	-10788
▁arrows	-10789
▁arthur	-10790
▁assess	-10791
▁attorn	-10792
▁autumn	-10793
▁ballot	-10794
▁berlin	-10795
▁beside	-10796
▁binary	-10797
▁bitten	-10798
▁bloody	-10799
▁bosnia	-10800
▁brakes	-10801
▁bucket	-10802
▁carter	-10803
▁cattle	-10804
▁cheeks	-10805
▁cheryl	-10806
▁client	-10807
▁costly	-10808
▁covers	-10809
▁disney	-10810
▁divine	-10811
▁donald	-10812
▁ecosia	-10813
▁eldest	-10814
▁excess	-10815
▁exotic	-10816
▁export	-10817
▁famine	-10818
▁fifths	-10819
▁finite	-10820
▁firmly	-10821
▁floors	-10822
▁fruits	-10823
▁giraff	-10824
▁gorill	-10825
▁greeks	-10826
▁harass	-10827
▁hollow	-10828
▁honors	-10829
▁humane	-10830
▁improv	-10831
▁infant	-10832
▁ingest	-10833
▁insert	-10834
▁intent	-10835
▁jitney	-10836
▁kenyan	-10837
▁legend	-10838
▁loaded	-10839
▁mantra	-10840
▁mascul	-10841
▁mature	-10842
▁multin	-10843
▁ninety	-10844
▁oftent	-10845
▁parker	-10846
▁pilots	-10847
▁poetic	-10848
▁popped	-10849
▁prizes	-10850
▁provin	-10851
▁ranges	-10852
▁reimag	-10853
▁reserv	-10854
▁reside	-10855
▁retail	-10856
▁routes	-10857
▁safari	-10858
▁scenes	-10859
▁scheme	-10860
▁scroll	-10861
▁sermon	-10862
▁shells	-10863
▁singer	-10864
▁slaves	-10865
▁slowed	-10866
▁soccer	-10867
▁speeds	-10868
▁stairs	-10869
▁strang	-10870
▁syrian	-10871
▁tastes	-10872
▁thesis	-10873
▁throws	-10874
▁tremor	-10875
▁triple	-10876
▁twelve	-10877
▁unable	-10878
▁unpack	-10879
▁vacant	-10880
▁vacuum	-10881
▁valves	-10882
▁variet	-10883
▁waking	-10884
▁wishes	-10885
▁writes	-10886
▁xenoph	-10887
ensation	-10888
ergarten	-10889
osterone	-10890
sylvania	-10891
▁anytime	-10892
▁arizona	-10893
▁beijing	-10894
▁biochem	-10895
▁bipolar	-10896
▁blessed	-10897
▁bottles	-10898
▁broadly	-10899
▁cameron	-10900
▁capgras	-10901
▁carpool	-10902
▁caution	-10903
▁charlie	-10904
▁cheaply	-10905
▁cholera	-10906
▁clinton	-10907
▁confuse	-10908
▁curtain	-10909
▁customs	-10910
▁dangers	-10911
▁denmark	-10912
▁dictate	-10913
▁dreamed	-10914
▁dropout	-10915
▁easiest	-10916
▁electri	-10917
▁erosion	-10918
▁eternal	-10919
▁exhilar	-10920
▁firstly	-10921
▁flooded	-10922
▁follows	-10923
▁fossils	-10924
▁funeral	-10925
▁galileo	-10926
▁gelatin	-10927
▁goodbye	-10928
▁grounds	-10929
▁hawking	-10930
▁holland	-10931
▁hopeful	-10932
▁imposed	-10933
▁impress	-10934
▁induced	-10935
▁inflamm	-10936
▁inspect	-10937
▁insulin	-10938
▁isolate	-10939
▁jackson	-10940
▁jordans	-10941
▁justify	-10942
▁lasting	-10943
▁lawsuit	-10944
▁lighter	-10945
▁manages	-10946
▁migrant	-10947
▁mindset	-10948
▁monster	-10949
▁mubarak	-10950
▁mundane	-10951
▁nairobi	-10952
▁narciss	-10953
▁needing	-10954
▁neglect	-10955
▁obscure	-10956
▁octavio	-10957
▁oneness	-10958
▁painter	-10959
▁patrick	-10960
▁pension	-10961
▁persuas	-10962
▁phantom	-10963
▁pitched	-10964
▁planner	-10965
▁polling	-10966
▁polymer	-10967
▁posting	-10968
▁praying	-10969
▁prescri	-10970
▁propell	-10971
▁quietly	-10972
▁rehears	-10973
▁relates	-10974
▁relying	-10975
▁replied	-10976
▁resilin	-10977
▁richest	-10978
▁rituals	-10979
▁sadness	-10980
▁skilled	-10981
▁sparked	-10982
▁strikes	-10983
▁summary	-10984
▁swallow	-10985
▁technic	-10986
▁traumat	-10987
▁travels	-10988
▁trusted	-10989
▁undergo	-10990
▁unthink	-10991
▁venture	-10992
▁vibrate	-10993
▁vitamin	-10994
▁warrant	-10995
▁weighed	-10996
▁withdra	-10997
▁yelling	-10998
▁yorkers	-10999
▁adequate	-11000
▁adjacent	-11001
▁americas	-11002
▁arteries	-11003
▁aspiring	-11004
▁assuming	-11005
▁avoiding	-11006
▁balinese	-11007
▁biennial	-11008
▁bothered	-11009
▁browsing	-11010
▁cellular	-11011
▁champion	-11012
▁charming	-11013
▁cheering	-11014
▁churches	-11015
▁composed	-11016
▁converts	-11017
▁deciding	-11018
▁declared	-11019
▁defining	-11020
▁determin	-11021
▁donating	-11022
▁doorstep	-11023
▁doubling	-11024
▁employee	-11025
▁enriched	-11026
▁envelope	-11027
▁envision	-11028
▁equipped	-11029
▁explorer	-11030
▁fairness	-11031
▁ferguson	-11032
▁forestry	-11033
▁founders	-11034
▁frontier	-11035
▁gestures	-11036
▁handbags	-11037
▁hopeless	-11038
▁ideology	-11039
▁immunity	-11040
▁incarcer	-11041
▁ineffect	-11042
▁inflated	-11043
▁infrared	-11044
▁innocent	-11045
▁insisted	-11046
▁invasion	-11047
▁kentucky	-11048
▁kindness	-11049
▁managers	-11050
▁mandarin	-11051
▁manifest	-11052
▁maximize	-11053
▁mentally	-11054
▁minerals	-11055
▁mobilize	-11056
▁needless	-11057
▁overflow	-11058
▁overhead	-11059
▁overlook	-11060
▁pathogen	-11061
▁persists	-11062
▁planners	-11063
▁porridge	-11064
▁predator	-11065
▁predicts	-11066
▁prisoner	-11067
▁publicly	-11068
▁rainfall	-11069
▁removing	-11070
▁repaired	-11071
▁rewarded	-11072
▁richness	-11073
▁rigorous	-11074
▁sacrific	-11075
▁scalable	-11076
▁scanners	-11077
▁settings	-11078
▁shelters	-11079
▁siblings	-11080
▁simplest	-11081
▁sneakers	-11082
▁sounding	-11083
▁spelling	-11084
▁spraying	-11085
▁substant	-11086
▁superior	-11087
▁surfaces	-11088
▁survives	-11089
▁sympathy	-11090
▁terminal	-11091
▁tomatoes	-11092
▁uncommon	-11093
▁underway	-11094
▁visually	-11095
▁warheads	-11096
▁worrying	-11097
▁achieving	-11098
▁activated	-11099
▁adaptable	-11100
▁addiction	-11101
▁airplanes	-11102
▁ambiguity	-11103
▁apologize	-11104
▁appealing	-11105
▁belonging	-11106
▁brazilian	-11107
▁broadcast	-11108
▁butterfly	-11109
▁cigarette	-11110
▁classical	-11111
▁completed	-11112
▁confirmed	-11113
▁contacted	-11114
▁convicted	-11115
▁creations	-11116
▁declining	-11117
▁dinosaurs	-11118
▁diplomats	-11119
▁disasters	-11120
▁distorted	-11121
▁edinburgh	-11122
▁elizabeth	-11123
▁endlessly	-11124
▁energetic	-11125
▁gentleman	-11126
▁greenland	-11127
▁inclusion	-11128
▁indicates	-11129
▁induction	-11130
▁instagram	-11131
▁instances	-11132
▁integrate	-11133
▁intensely	-11134
▁landmines	-11135
▁longevity	-11136
▁machinery	-11137
▁mammalian	-11138
▁navigated	-11139
▁obsession	-11140
▁offspring	-11141
▁performed	-11142
▁photoshop	-11143
▁pleasures	-11144
▁polarized	-11145
▁precursor	-11146
▁prevalent	-11147
▁primitive	-11148
▁punchline	-11149
▁qualified	-11150
▁reinforce	-11151
▁reproduce	-11152
▁resisting	-11153
▁respected	-11154
▁rewilding	-11155
▁routinely	-11156
▁sacrifice	-11157
▁satisfied	-11158
▁schooling	-11159
▁screaming	-11160
▁sensation	-11161
▁serotonin	-11162
▁sidewalks	-11163
▁strongest	-11164
▁suspended	-11165
▁toughness	-11166
▁unwilling	-11167
▁utilities	-11168
▁workshops	-11169
▁adaptation	-11170
▁adolescent	-11171
▁aggressive	-11172
▁analytical	-11173
▁caregiving	-11174
▁centimeter	-11175
▁compromise	-11176
▁containers	-11177
▁convenient	-11178
▁converting	-11179
▁counseling	-11180
▁delivering	-11181
▁denisovans	-11182
▁disappears	-11183
▁disruption	-11184
▁enterprise	-11185
▁expectancy	-11186
▁explosions	-11187
▁frequently	-11188
▁humanities	-11189
▁imaginable	-11190
▁infinitely	-11191
▁inflection	-11192
▁instructor	-11193
▁irrational	-11194
▁leveraging	-11195
▁microscopy	-11196
▁motivating	-11197
▁oftentimes	-11198
▁oppression	-11199
▁outrageous	-11200
▁penicillin	-11201
▁perceptual	-11202
▁performers	-11203
▁pesticides	-11204
▁predictive	-11205
▁priorities	-11206
▁prototypes	-11207
▁registered	-11208
▁restraints	-11209
▁scriptures	-11210
▁superpower	-11211
▁supportive	-11212
▁suspicious	-11213
▁thankfully	-11214
▁unfinished	-11215
▁usefulness	-11216
▁vaccinated	-11217
▁vegetables	-11218
▁ventilated	-11219
▁wavelength	-11220
▁yourselves	-11221
▁accommodate	-11222
▁backgrounds	-11223
▁brotherhood	-11224
▁competitors	-11225
▁computation	-11226
▁consolation	-11227
▁declaration	-11228
▁democracies	-11229
▁documentary	-11230
▁efficiently	-11231
▁eliminating	-11232
▁existential	-11233
▁fluctuation	-11234
▁forgiveness	-11235
▁hippocampus	-11236
▁humiliation	-11237
▁illustrates	-11238
▁interviewed	-11239
▁involvement	-11240
▁microscopic	-11241
▁neurotransm	-11242
▁noninvasive	-11243
▁operational	-11244
▁pedestrians	-11245
▁permanently	-11246
▁progression	-11247
▁progressive	-11248
▁sensitivity	-11249
▁seriousness	-11250
▁specialists	-11251
▁superpowers	-11252
▁temporarily	-11253
▁universally	-11254
▁unthinkable	-11255
▁acceleration	-11256
▁collectively	-11257
▁continuously	-11258
▁exhilarating	-11259
▁hypothetical	-11260
▁kindergarten	-11261
▁marketplaces	-11262
▁pennsylvania	-11263
▁photographed	-11264
▁psychiatrist	-11265
▁quantitative	-11266
▁recklessness	-11267
▁stratosphere	-11268
▁temperatures	-11269
▁testosterone	-11270
▁trajectories	-11271
▁architectural	-11272
▁authoritarian	-11273
▁biotechnology	-11274
▁breakthroughs	-11275
▁contraception	-11276
▁dysfunctional	-11277
▁entertainment	-11278
▁instinctively	-11279
▁intentionally	-11280
▁interpersonal	-11281
▁multinational	-11282
▁revolutionize	-11283
▁vulnerability	-11284
▁administrative	-11285
▁constitutional	-11286
▁hallucinations	-11287
▁mathematically	-11288
▁professionally	-11289
▁representative	-11290
▁understandable	-11291
▁miniaturization	-11292
dt	-11293
eu	-11294
fi	-11295
gd	-11296
ns	-11297
sm	-11298
uh	-11299
zs	-11300
afe	-11301
ali	-11302
apl	-11303
apy	-11304
cam	-11305
cca	-11306
fig	-11307
fol	-11308
fus	-11309
hhh	-11310
hib	-11311
hma	-11312
ifs	-11313
ima	-11314
kel	-11315
kem	-11316
lar	-11317
lla	-11318
ofi	-11319
ols	-11320
omi	-11321
oys	-11322
pot	-11323
psy	-11324
reh	-11325
rie	-11326
sex	-11327
top	-11328
uay	-11329
vol	-11330
yer	-11331
zer	-11332
▁dk	-11333
▁fm	-11334
▁ga	-11335
▁hg	-11336
▁hr	-11337
▁jf	-11338
▁ka	-11339
▁uc	-11340
▁vm	-11341
abad	-11342
acco	-11343
ader	-11344
alay	-11345
amil	-11346
arsh	-11347
assy	-11348
aves	-11349
ayed	-11350
bian	-11351
cken	-11352
gien	-11353
glow	-11354
hall	-11355
hima	-11356
hors	-11357
icha	-11358
itas	-11359
iwan	-11360
mons	-11361
mony	-11362
orph	-11363
peut	-11364
plex	-11365
pool	-11366
rame	-11367
recy	-11368
seen	-11369
shot	-11370
spel	-11371
tech	-11372
thew	-11373
udge	-11374
umbo	-11375
uper	-11376
uven	-11377
veli	-11378
vors	-11379
worm	-11380
yses	-11381
▁ape	-11382
▁apt	-11383
▁atm	-11384
▁aur	-11385
▁bid	-11386
▁bin	-11387
▁bou	-11388
▁bun	-11389
▁caf	-11390
▁cel	-11391
▁ces	-11392
▁cmu	-11393
▁coh	-11394
▁dos	-11395
▁dug	-11396
▁eeg	-11397
▁gnh	-11398
▁gru	-11399
▁gym	-11400
▁hes	-11401
▁igf	-11402
▁ion	-11403
▁jac	-11404
▁kam	-11405
▁kir	-11406
▁mcc	-11407
▁mik	-11408
▁mrs	-11409
▁nec	-11410
▁pod	-11411
▁quo	-11412
▁raz	-11413
▁rif	-11414
▁rio	-11415
▁roo	-11416
▁rus	-11417
▁spa	-11418
▁sta	-11419
▁tin	-11420
▁unm	-11421
▁usb	-11422
▁veg	-11423
▁yap	-11424
acked	-11425
actic	-11426
adesh	-11427
althy	-11428
anges	-11429
arted	-11430
azing	-11431
banon	-11432
burst	-11433
conds	-11434
copes	-11435
erent	-11436
ester	-11437
fting	-11438
gades	-11439
gence	-11440
geous	-11441
giene	-11442
icacy	-11443
icion	-11444
ieces	-11445
ieval	-11446
ifact	-11447
imens	-11448
iphan	-11449
isive	-11450
istle	-11451
leans	-11452
lemma	-11453
marks	-11454
metic	-11455
olate	-11456
onium	-11457
opian	-11458
pling	-11459
rillo	-11460
rimin	-11461
rogen	-11462
ronto	-11463
stand	-11464
unker	-11465
world	-11466
ynman	-11467
▁auto	-11468
▁bags	-11469
▁bark	-11470
▁beds	-11471
▁bowl	-11472
▁bras	-11473
▁bree	-11474
▁cant	-11475
▁cate	-11476
▁cher	-11477
▁chir	-11478
▁chop	-11479
▁coat	-11480
▁cogs	-11481
▁conj	-11482
▁cows	-11483
▁crux	-11484
▁denn	-11485
▁dice	-11486
▁drey	-11487
▁drip	-11488
▁dual	-11489
▁eyew	-11490
▁fade	-11491
▁geek	-11492
▁godd	-11493
▁guts	-11494
▁hama	-11495
▁hect	-11496
▁inqu	-11497
▁jake	-11498
▁kale	-11499
▁khan	-11500
▁knee	-11501
▁kofi	-11502
▁kong	-11503
▁lest	-11504
▁lith	-11505
▁lump	-11506
▁maid	-11507
▁meeg	-11508
▁menu	-11509
▁moms	-11510
▁mont	-11511
▁nano	-11512
▁nazi	-11513
▁nerd	-11514
▁nons	-11515
▁orth	-11516
▁pand	-11517
▁peek	-11518
▁peel	-11519
▁peru	-11520
▁pins	-11521
▁pist	-11522
▁pits	-11523
▁pled	-11524
▁pond	-11525
▁punk	-11526
▁puzz	-11527
▁rhet	-11528
▁ribs	-11529
▁rita	-11530
▁rope	-11531
▁ryan	-11532
▁shed	-11533
▁sigm	-11534
▁smug	-11535
▁styl	-11536
▁sued	-11537
▁sund	-11538
▁syll	-11539
▁tect	-11540
▁thum	-11541
▁tomb	-11542
▁toss	-11543
▁tune	-11544
▁turb	-11545
▁unac	-11546
▁unhe	-11547
▁unin	-11548
▁unra	-11549
▁util	-11550
▁vase	-11551
▁whew	-11552
▁whoo	-11553
acious	-11554
action	-11555
affold	-11556
aments	-11557
aneous	-11558
atable	-11559
cation	-11560
ceding	-11561
erving	-11562
iating	-11563
ilever	-11564
imated	-11565
ington	-11566
ladesh	-11567
omfort	-11568
orient	-11569
oscope	-11570
ounded	-11571
people	-11572
ppling	-11573
ranean	-11574
rapeut	-11575
stairs	-11576
strong	-11577
▁acron	-11578
▁acted	-11579
▁aicha	-11580
▁alger	-11581
▁alley	-11582
▁ammun	-11583
▁amygd	-11584
▁anecd	-11585
▁annan	-11586
▁atten	-11587
▁backs	-11588
▁beans	-11589
▁bikes	-11590
▁bills	-11591
▁bloom	-11592
▁bonus	-11593
▁boots	-11594
▁breed	-11595
▁bulbs	-11596
▁candy	-11597
▁chase	-11598
▁chunk	-11599
▁clich	-11600
▁clunk	-11601
▁comic	-11602
▁daddy	-11603
▁datas	-11604
▁debil	-11605
▁deleg	-11606
▁delhi	-11607
▁demol	-11608
▁desks	-11609
▁dough	-11610
▁drums	-11611
▁dwell	-11612
▁elite	-11613
▁exams	-11614
▁fatal	-11615
▁files	-11616
▁fills	-11617
▁fired	-11618
▁firef	-11619
▁flame	-11620
▁forty	-11621
▁freak	-11622
▁fried	-11623
▁gains	-11624
▁georg	-11625
▁glial	-11626
▁glory	-11627
▁grace	-11628
▁hairs	-11629
▁harsh	-11630
▁hatch	-11631
▁havoc	-11632
▁hives	-11633
▁incon	-11634
▁insec	-11635
▁irish	-11636
▁items	-11637
▁jails	-11638
▁jelly	-11639
▁jerry	-11640
▁joins	-11641
▁liars	-11642
▁logos	-11643
▁louis	-11644
▁lyric	-11645
▁macro	-11646
▁mango	-11647
▁manic	-11648
▁mines	-11649
▁motel	-11650
▁niece	-11651
▁noble	-11652
▁noted	-11653
▁oscar	-11654
▁palin	-11655
▁pearl	-11656
▁piano	-11657
▁piled	-11658
▁piles	-11659
▁pipes	-11660
▁poems	-11661
▁ports	-11662
▁prose	-11663
▁pulls	-11664
▁puppy	-11665
▁query	-11666
▁radar	-11667
▁ramon	-11668
▁reign	-11669
▁relie	-11670
▁reply	-11671
▁repos	-11672
▁rings	-11673
▁robin	-11674
▁salam	-11675
▁saliv	-11676
▁scars	-11677
▁scope	-11678
▁scrut	-11679
▁scuba	-11680
▁setup	-11681
▁simul	-11682
▁sixty	-11683
▁slave	-11684
▁slept	-11685
▁squir	-11686
▁stalk	-11687
▁stamp	-11688
▁stare	-11689
▁steep	-11690
▁stern	-11691
▁stiff	-11692
▁swann	-11693
▁sweep	-11694
▁sword	-11695
▁synch	-11696
▁thigh	-11697
▁tower	-11698
▁tract	-11699
▁trait	-11700
▁truff	-11701
▁trunk	-11702
▁unaff	-11703
▁vents	-11704
▁venue	-11705
▁versa	-11706
▁wages	-11707
▁weeds	-11708
▁widow	-11709
ambique	-11710
amiliar	-11711
borough	-11712
enhagen	-11713
lusions	-11714
ulously	-11715
ussions	-11716
▁abroad	-11717
▁adored	-11718
▁alaska	-11719
▁antiqu	-11720
▁assass	-11721
▁avenue	-11722
▁benign	-11723
▁biased	-11724
▁blades	-11725
▁bleach	-11726
▁bronze	-11727
▁brutal	-11728
▁canopy	-11729
▁carpet	-11730
▁cleans	-11731
▁coated	-11732
▁comets	-11733
▁commod	-11734
▁commut	-11735
▁crises	-11736
▁debbie	-11737
▁decept	-11738
▁decode	-11739
▁defect	-11740
▁demons	-11741
▁depths	-11742
▁donors	-11743
▁doubts	-11744
▁edward	-11745
▁eighth	-11746
▁elders	-11747
▁elites	-11748
▁encode	-11749
▁encycl	-11750
▁endang	-11751
▁entity	-11752
▁equals	-11753
▁equity	-11754
▁ethnic	-11755
▁expend	-11756
▁expose	-11757
▁facult	-11758
▁faiths	-11759
▁flickr	-11760
▁forged	-11761
▁formid	-11762
▁freeze	-11763
▁funded	-11764
▁gangst	-11765
▁gospel	-11766
▁habits	-11767
▁handwr	-11768
▁hasbro	-11769
▁hockey	-11770
▁homoph	-11771
▁howard	-11772
▁hugely	-11773
▁indiff	-11774
▁indoor	-11775
▁intend	-11776
▁inward	-11777
▁jersey	-11778
▁jordan	-11779
▁judges	-11780
▁kinect	-11781
▁labels	-11782
▁ladder	-11783
▁libyan	-11784
▁liters	-11785
▁liveli	-11786
▁malawi	-11787
▁masses	-11788
▁memoir	-11789
▁metals	-11790
▁misfit	-11791
▁mixing	-11792
▁namely	-11793
▁nozzle	-11794
▁optics	-11795
▁outfit	-11796
▁papaya	-11797
▁pickup	-11798
▁plaque	-11799
▁poised	-11800
▁poorly	-11801
▁precip	-11802
▁prohib	-11803
▁punish	-11804
▁puppet	-11805
▁pushes	-11806
▁rabbit	-11807
▁refers	-11808
▁resume	-11809
▁rotate	-11810
▁segreg	-11811
▁sentin	-11812
▁serves	-11813
▁sewage	-11814
▁shield	-11815
▁shovel	-11816
▁sketch	-11817
▁sleeve	-11818
▁slices	-11819
▁smiles	-11820
▁sophia	-11821
▁stacks	-11822
▁steady	-11823
▁steven	-11824
▁stockp	-11825
▁storms	-11826
▁strain	-11827
▁straws	-11828
▁subord	-11829
▁summed	-11830
▁superv	-11831
▁taiwan	-11832
▁takers	-11833
▁tamara	-11834
▁testim	-11835
▁timber	-11836
▁tracks	-11837
▁trivia	-11838
▁trolls	-11839
▁unfair	-11840
▁unions	-11841
▁update	-11842
▁violin	-11843
▁wagner	-11844
▁weaker	-11845
▁weekly	-11846
▁wiring	-11847
▁wounds	-11848
▁yields	-11849
▁zipcar	-11850
iologist	-11851
otherapy	-11852
rophilia	-11853
rophobic	-11854
ructures	-11855
▁aggress	-11856
▁airline	-11857
▁alleged	-11858
▁altered	-11859
▁applaud	-11860
▁archive	-11861
▁arguing	-11862
▁arsenal	-11863
▁atheism	-11864
▁bankers	-11865
▁banking	-11866
▁bargain	-11867
▁beaches	-11868
▁behaved	-11869
▁bending	-11870
▁biomass	-11871
▁biotech	-11872
▁blocked	-11873
▁bombers	-11874
▁bombing	-11875
▁cancers	-11876
▁carries	-11877
▁carrots	-11878
▁changer	-11879
▁climbed	-11880
▁concert	-11881
▁confess	-11882
▁cooling	-11883
▁crooked	-11884
▁darling	-11885
▁debates	-11886
▁defines	-11887
▁degener	-11888
▁detects	-11889
▁devised	-11890
▁dilemma	-11891
▁dischar	-11892
▁donated	-11893
▁doubled	-11894
▁dreyfus	-11895
▁embassy	-11896
▁ensured	-11897
▁enthusi	-11898
▁envelop	-11899
▁epiphan	-11900
▁equator	-11901
▁fearful	-11902
▁feather	-11903
▁feynman	-11904
▁fitting	-11905
▁foolish	-11906
▁forgery	-11907
▁freaked	-11908
▁genital	-11909
▁goering	-11910
▁harriet	-11911
▁hillary	-11912
▁himalay	-11913
▁holiday	-11914
▁hostile	-11915
▁hustles	-11916
▁hygiene	-11917
▁ignited	-11918
▁intimid	-11919
▁intoler	-11920
▁ireland	-11921
▁johnson	-11922
▁kidneys	-11923
▁knocked	-11924
▁learner	-11925
▁lebanon	-11926
▁locally	-11927
▁logging	-11928
▁longest	-11929
▁manager	-11930
▁masonry	-11931
▁mediter	-11932
▁millise	-11933
▁minimal	-11934
▁miracul	-11935
▁modular	-11936
▁mounted	-11937
▁nearest	-11938
▁newborn	-11939
▁offline	-11940
▁orchest	-11941
▁orleans	-11942
▁outdoor	-11943
▁paramed	-11944
▁passage	-11945
▁payload	-11946
▁perplex	-11947
▁pigeons	-11948
▁pillars	-11949
▁pirates	-11950
▁portfol	-11951
▁portray	-11952
▁protons	-11953
▁pumping	-11954
▁rabbits	-11955
▁ranging	-11956
▁rebuilt	-11957
▁rejuven	-11958
▁reorgan	-11959
▁repeats	-11960
▁retinal	-11961
▁retinas	-11962
▁returns	-11963
▁rhythms	-11964
▁russell	-11965
▁screwed	-11966
▁seattle	-11967
▁secrecy	-11968
▁shipped	-11969
▁shuffle	-11970
▁sticker	-11971
▁strands	-11972
▁suffers	-11973
▁summers	-11974
▁sweater	-11975
▁symptom	-11976
▁talents	-11977
▁telecom	-11978
▁tijuana	-11979
▁toronto	-11980
▁tracker	-11981
▁trading	-11982
▁treason	-11983
▁turtles	-11984
▁unclear	-11985
▁unified	-11986
▁unsatis	-11987
▁uranium	-11988
▁viewers	-11989
▁whisper	-11990
icultural	-11991
intuitive	-11992
▁acquired	-11993
▁adaptive	-11994
▁advertis	-11995
▁alarming	-11996
▁alliance	-11997
▁analyses	-11998
▁ancestor	-11999
▁archives	-12000
▁artifact	-12001
▁attended	-12002
▁attorney	-12003
▁betrayal	-12004
▁bleeding	-12005
▁breeding	-12006
▁broadway	-12007
▁calendar	-12008
▁carrillo	-12009
▁ceremony	-12010
▁cheating	-12011
▁circular	-12012
▁coherent	-12013
▁columbia	-12014
▁complain	-12015
▁concerts	-12016
▁consumed	-12017
▁contents	-12018
▁contexts	-12019
▁damaging	-12020
▁declined	-12021
▁delicacy	-12022
▁detected	-12023
▁detector	-12024
▁deterior	-12025
▁develops	-12026
▁dyslexic	-12027
▁educator	-12028
▁emphasis	-12029
▁employer	-12030
▁exploded	-12031
▁feminism	-12032
▁fighters	-12033
▁flooding	-12034
▁foremost	-12035
▁freedoms	-12036
▁geoffrey	-12037
▁gorgeous	-12038
▁governed	-12039
▁granular	-12040
▁grasshop	-12041
▁headline	-12042
▁homeland	-12043
▁impacted	-12044
▁improvis	-12045
▁integral	-12046
▁interven	-12047
▁johannes	-12048
▁jonathan	-12049
▁lestrade	-12050
▁licenses	-12051
▁listener	-12052
▁malarial	-12053
▁mastered	-12054
▁mcdonald	-12055
▁medieval	-12056
▁meegeren	-12057
▁micromet	-12058
▁midnight	-12059
▁minimize	-12060
▁mistrust	-12061
▁modified	-12062
▁monument	-12063
▁neurosur	-12064
▁nitrogen	-12065
▁nonsense	-12066
▁observer	-12067
▁occasion	-12068
▁optimize	-12069
▁pathetic	-12070
▁pigments	-12071
▁politely	-12072
▁portugal	-12073
▁preacher	-12074
▁presents	-12075
▁prevents	-12076
▁prolifer	-12077
▁provider	-12078
▁punished	-12079
▁quartile	-12080
▁readings	-12081
▁realizes	-12082
▁receiver	-12083
▁reconfig	-12084
▁recreate	-12085
▁reflects	-12086
▁registry	-12087
▁rejected	-12088
▁requests	-12089
▁respects	-12090
▁rhetoric	-12091
▁salaries	-12092
▁scaffold	-12093
▁scanning	-12094
▁sergeant	-12095
▁sessions	-12096
▁simplify	-12097
▁skeletal	-12098
▁stimulus	-12099
▁strapped	-12100
▁stumbled	-12101
▁symphony	-12102
▁troubled	-12103
▁unaccept	-12104
▁unilever	-12105
▁unstable	-12106
▁wearable	-12107
▁weekends	-12108
▁windmill	-12109
abrication	-12110
ifications	-12111
imensional	-12112
ustainable	-12113
▁academics	-12114
▁accepting	-12115
▁addressed	-12116
▁adulthood	-12117
▁afterglow	-12118
▁analogous	-12119
▁appointed	-12120
▁armstrong	-12121
▁balancing	-12122
▁benefited	-12123
▁breakdown	-12124
▁broadband	-12125
▁capturing	-12126
▁ceasefire	-12127
▁certainty	-12128
▁collusion	-12129
▁companion	-12130
▁converted	-12131
▁counselor	-12132
▁databases	-12133
▁decentral	-12134
▁delusions	-12135
▁detectors	-12136
▁discussed	-12137
▁dismissed	-12138
▁emphasize	-12139
▁eradicate	-12140
▁explorers	-12141
▁forbidden	-12142
▁generates	-12143
▁geography	-12144
▁gigawatts	-12145
▁headaches	-12146
▁highlands	-12147
▁hiroshima	-12148
▁horrified	-12149
▁hostility	-12150
▁immersive	-12151
▁imperfect	-12152
▁increment	-12153
▁indicated	-12154
▁inspected	-12155
▁involving	-12156
▁judgments	-12157
▁kilometer	-12158
▁libraries	-12159
▁lightning	-12160
▁masculine	-12161
▁massively	-12162
▁memorable	-12163
▁miserable	-12164
▁mysteries	-12165
▁necessity	-12166
▁networked	-12167
▁observing	-12168
▁oppressed	-12169
▁partially	-12170
▁pathogens	-12171
▁penetrate	-12172
▁planetary	-12173
▁plutonium	-12174
▁powerless	-12175
▁pressures	-12176
▁protocols	-12177
▁reception	-12178
▁reconcile	-12179
▁resonance	-12180
▁revealing	-12181
▁scripture	-12182
▁seductive	-12183
▁sequenced	-12184
▁simulated	-12185
▁slaughter	-12186
▁sovereign	-12187
▁startling	-12188
▁strangely	-12189
▁successes	-12190
▁surrender	-12191
▁temperate	-12192
▁testament	-12193
▁therapeut	-12194
▁therapist	-12195
▁undermine	-12196
▁unhealthy	-12197
▁varieties	-12198
▁warehouse	-12199
▁worldview	-12200
▁worthless	-12201
▁activating	-12202
▁advocating	-12203
▁altruistic	-12204
▁ammunition	-12205
▁anatomical	-12206
▁approached	-12207
▁astonished	-12208
▁attraction	-12209
▁attributed	-12210
▁automation	-12211
▁automotive	-12212
▁babylonian	-12213
▁bangladesh	-12214
▁blueprints	-12215
▁carpooling	-12216
▁conscience	-12217
▁conversely	-12218
▁conviction	-12219
▁copenhagen	-12220
▁depressing	-12221
▁discomfort	-12222
▁discussing	-12223
▁disgusting	-12224
▁driverless	-12225
▁eliminated	-12226
▁homosexual	-12227
▁ingredient	-12228
▁invitation	-12229
▁landscapes	-12230
▁liberating	-12231
▁livelihood	-12232
▁modalities	-12233
▁mozambique	-12234
▁multiplied	-12235
▁paintbrush	-12236
▁perfection	-12237
▁powerpoint	-12238
▁predicting	-12239
▁presidents	-12240
▁prevention	-12241
▁profitable	-12242
▁provincial	-12243
▁questioned	-12244
▁randomness	-12245
▁repeatedly	-12246
▁respectful	-12247
▁revelation	-12248
▁sacrifices	-12249
▁seamlessly	-12250
▁signatures	-12251
▁strengthen	-12252
▁structured	-12253
▁suggestion	-12254
▁telescopes	-12255
▁unfamiliar	-12256
▁vertically	-12257
▁workplaces	-12258
▁adolescents	-12259
▁ambassadors	-12260
▁aspirations	-12261
▁bloodstream	-12262
▁catastrophe	-12263
▁celebrating	-12264
▁centrifuges	-12265
▁chromosomes	-12266
▁circulation	-12267
▁coincidence	-12268
▁collections	-12269
▁compression	-12270
▁conclusions	-12271
▁consistency	-12272
▁continually	-12273
▁contributed	-12274
▁controversy	-12275
▁corporation	-12276
▁correctness	-12277
▁credibility	-12278
▁degradation	-12279
▁devastation	-12280
▁enterprises	-12281
▁exclusively	-12282
▁fascination	-12283
▁fertilizers	-12284
▁flourishing	-12285
▁frantically	-12286
▁highlighted	-12287
▁hydrostatic	-12288
▁inefficient	-12289
▁interrogate	-12290
▁necrophilia	-12291
▁nonviolence	-12292
▁overwhelmed	-12293
▁provocative	-12294
▁publication	-12295
▁recommended	-12296
▁replication	-12297
▁residential	-12298
▁scholarship	-12299
▁simulations	-12300
▁speculation	-12301
▁utilitarian	-12302
▁ventilation	-12303
▁accumulating	-12304
▁achievements	-12305
▁breadwinners	-12306
▁concentrated	-12307
▁connectivity	-12308
▁constructing	-12309
▁cryptography	-12310
▁differential	-12311
▁displacement	-12312
▁economically	-12313
▁embarrassing	-12314
▁governmental	-12315
▁gratefulness	-12316
▁illuminating	-12317
▁inflammation	-12318
▁insecticides	-12319
▁instrumental	-12320
▁interviewing	-12321
▁manipulating	-12322
▁manufactured	-12323
▁mechanically	-12324
▁nanoparticle	-12325
▁neurological	-12326
▁proportional	-12327
▁refrigerator	-12328
▁reproductive	-12329
▁satisfaction	-12330
▁scholarships	-12331
▁unexpectedly	-12332
▁automatically	-12333
▁computational	-12334
▁concentration	-12335
▁consideration	-12336
▁contamination	-12337
▁contradiction	-12338
▁contributions	-12339
▁embarrassment	-12340
▁illustrations	-12341
▁inspirational	-12342
▁investigating	-12343
▁manufacturers	-12344
▁misunderstood	-12345
▁participatory	-12346
▁psychiatrists	-12347
▁psychologists	-12348
▁reconstructed	-12349
▁spontaneously	-12350
▁unsustainable	-12351
▁biofabrication	-12352
▁implementation	-12353
▁interpretation	-12354
▁multiplication	-12355
▁reconstructing	-12356
▁underestimated	-12357
▁extraordinarily	-12358
▁instantaneously	-12359
▁micrometeorites	-12360
iy	-12361
ja	-12362
ki	-12363
ku	-12364
ni	-12365
tw	-12366
zi	-12367
zu	-12368
afa	-12369
aho	-12370
atr	-12371
bee	-12372
bot	-12373
cia	-12374
dad	-12375
eny	-12376
fts	-12377
fty	-12378
ifi	-12379
ikh	-12380
ili	-12381
iqu	-12382
iry	-12383
las	-12384
len	-12385
mmm	-12386
nee	-12387
oli	-12388
opl	-12389
ppy	-12390
pse	-12391
rer	-12392
rin	-12393
rip	-12394
roc	-12395
rof	-12396
sea	-12397
tag	-12398
tha	-12399
tic	-12400
ugs	-12401
wid	-12402
wom	-12403
xia	-12404
yss	-12405
zac	-12406
zid	-12407
zig	-12408
▁cd	-12409
▁cf	-12410
▁ct	-12411
▁fi	-12412
▁hw	-12413
▁lc	-12414
▁ml	-12415
▁mp	-12416
▁oo	-12417
▁sq	-12418
▁uv	-12419
abha	-12420
achi	-12421
adic	-12422
agan	-12423
aine	-12424
aire	-12425
alai	-12426
arts	-12427
asis	-12428
ason	-12429
asso	-12430
bear	-12431
bell	-12432
bery	-12433
bour	-12434
bted	-12435
club	-12436
conf	-12437
ctar	-12438
cule	-12439
eent	-12440
elwe	-12441
eous	-12442
etti	-12443
flix	-12444
guan	-12445
hara	-12446
held	-12447
hots	-12448
icut	-12449
ifts	-12450
inda	-12451
inee	-12452
irus	-12453
ista	-12454
leep	-12455
list	-12456
meer	-12457
nals	-12458
ndal	-12459
nere	-12460
neum	-12461
olia	-12462
ollo	-12463
onal	-12464
othe	-12465
otid	-12466
otle	-12467
otto	-12468
ousy	-12469
oven	-12470
pers	-12471
pley	-12472
prot	-12473
rose	-12474
rows	-12475
ruci	-12476
sole	-12477
unks	-12478
xter	-12479
ymah	-12480
▁bam	-12481
▁boo	-12482
▁cof	-12483
▁dak	-12484
▁ddt	-12485
▁dye	-12486
▁ets	-12487
▁eul	-12488
▁fel	-12489
▁gle	-12490
▁glo	-12491
▁hoo	-12492
▁hou	-12493
▁ipr	-12494
▁jen	-12495
▁jog	-12496
▁jop	-12497
▁kal	-12498
▁kur	-12499
▁lik	-12500
▁lut	-12501
▁mba	-12502
▁moh	-12503
▁mow	-12504
▁nap	-12505
▁nsa	-12506
▁ome	-12507
▁ost	-12508
▁ove	-12509
▁rud	-12510
▁rum	-12511
▁sue	-12512
▁toe	-12513
▁vic	-12514
▁wan	-12515
▁yan	-12516
▁yor	-12517
afaun	-12518
agasc	-12519
apest	-12520
apped	-12521
arthe	-12522
asant	-12523
ascal	-12524
aters	-12525
atile	-12526
aware	-12527
azzar	-12528
backs	-12529
bread	-12530
bucks	-12531
cting	-12532
eenth	-12533
erers	-12534
essee	-12535
human	-12536
ibati	-12537
ienna	-12538
ights	-12539
iocre	-12540
istas	-12541
iyama	-12542
lined	-12543
oding	-12544
oidal	-12545
olloh	-12546
ordis	-12547
ostic	-12548
otype	-12549
ourge	-12550
ourse	-12551
owden	-12552
owitz	-12553
pable	-12554
phing	-12555
proof	-12556
regon	-12557
reted	-12558
rines	-12559
rosso	-12560
rovir	-12561
sored	-12562
tsuit	-12563
utors	-12564
utter	-12565
width	-12566
zalah	-12567
▁abus	-12568
▁adds	-12569
▁agon	-12570
▁alec	-12571
▁amit	-12572
▁amph	-12573
▁anom	-12574
▁aura	-12575
▁avaz	-12576
▁bald	-12577
▁barn	-12578
▁bart	-12579
▁beef	-12580
▁beep	-12581
▁bore	-12582
▁brib	-12583
▁brow	-12584
▁bugs	-12585
▁bulk	-12586
▁bury	-12587
▁cane	-12588
▁cans	-12589
▁cels	-12590
▁cern	-12591
▁cerv	-12592
▁chag	-12593
▁choo	-12594
▁clim	-12595
▁cole	-12596
▁cort	-12597
▁coup	-12598
▁crab	-12599
▁cubs	-12600
▁dean	-12601
▁dips	-12602
▁dong	-12603
▁duke	-12604
▁entr	-12605
▁epic	-12606
▁evol	-12607
▁feas	-12608
▁fees	-12609
▁flap	-12610
▁fred	-12611
▁fuse	-12612
▁gaza	-12613
▁geys	-12614
▁gill	-12615
▁glam	-12616
▁glaz	-12617
▁glim	-12618
▁grip	-12619
▁halt	-12620
▁hary	-12621
▁heir	-12622
▁horn	-12623
▁hose	-12624
▁hugh	-12625
▁imip	-12626
▁inan	-12627
▁isaf	-12628
▁isis	-12629
▁joan	-12630
▁joie	-12631
▁katr	-12632
▁kiln	-12633
▁knob	-12634
▁lama	-12635
▁lamp	-12636
▁lazy	-12637
▁ling	-12638
▁load	-12639
▁mama	-12640
▁mann	-12641
▁mash	-12642
▁maui	-12643
▁mead	-12644
▁mega	-12645
▁mell	-12646
▁melt	-12647
▁merc	-12648
▁mini	-12649
▁moan	-12650
▁mong	-12651
▁mour	-12652
▁nail	-12653
▁nash	-12654
▁nemo	-12655
▁neon	-12656
▁noun	-12657
▁nuns	-12658
▁obey	-12659
▁obit	-12660
▁obsc	-12661
▁omer	-12662
▁ommm	-12663
▁oven	-12664
▁para	-12665
▁pean	-12666
▁pena	-12667
▁pent	-12668
▁pets	-12669
▁pitt	-12670
▁plag	-12671
▁pose	-12672
▁prox	-12673
▁rans	-12674
▁reed	-12675
▁rene	-12676
▁rook	-12677
▁ruin	-12678
▁saus	-12679
▁scyt	-12680
▁sean	-12681
▁semi	-12682
▁semm	-12683
▁shah	-12684
▁skim	-12685
▁skys	-12686
▁slab	-12687
▁slap	-12688
▁sled	-12689
▁sped	-12690
▁stif	-12691
▁sufi	-12692
▁sulf	-12693
▁swap	-12694
▁swat	-12695
▁tori	-12696
▁toys	-12697
▁trol	-12698
▁tues	-12699
▁unco	-12700
▁unne	-12701
▁unqu	-12702
▁unsc	-12703
▁vein	-12704
▁wael	-12705
▁wald	-12706
▁wolf	-12707
▁yoga	-12708
abytes	-12709
ankton	-12710
apters	-12711
arians	-12712
ateral	-12713
atters	-12714
aution	-12715
bering	-12716
comput	-12717
cycles	-12718
elweis	-12719
enance	-12720
erated	-12721
ercion	-12722
farers	-12723
formed	-12724
iberia	-12725
ickers	-12726
interp	-12727
istine	-12728
itably	-12729
izzing	-12730
keeper	-12731
luores	-12732
mentia	-12733
ochond	-12734
ocracy	-12735
ordial	-12736
oscopy	-12737
ouring	-12738
rators	-12739
repres	-12740
terdam	-12741
terior	-12742
urfing	-12743
ursday	-12744
ussani	-12745
utants	-12746
veland	-12747
▁abbre	-12748
▁ahmed	-12749
▁alert	-12750
▁alleg	-12751
▁aloud	-12752
▁andes	-12753
▁arena	-12754
▁arith	-12755
▁arose	-12756
▁babys	-12757
▁bacon	-12758
▁bands	-12759
▁batht	-12760
▁beats	-12761
▁beers	-12762
▁bells	-12763
▁belsh	-12764
▁blade	-12765
▁blobs	-12766
▁brace	-12767
▁bride	-12768
▁brine	-12769
▁bunny	-12770
▁cafes	-12771
▁catal	-12772
▁cesar	-12773
▁charm	-12774
▁chefs	-12775
▁chess	-12776
▁churn	-12777
▁coaut	-12778
▁cohen	-12779
▁compr	-12780
▁crank	-12781
▁crate	-12782
▁cumul	-12783
▁cures	-12784
▁dalai	-12785
▁decim	-12786
▁delta	-12787
▁dials	-12788
▁diets	-12789
▁discl	-12790
▁dunes	-12791
▁ebert	-12792
▁elbow	-12793
▁elvis	-12794
▁emble	-12795
▁eyebr	-12796
▁fault	-12797
▁feast	-12798
▁feces	-12799
▁filed	-12800
▁flush	-12801
▁folds	-12802
▁gamma	-12803
▁geeks	-12804
▁gifts	-12805
▁gover	-12806
▁grove	-12807
▁hawai	-12808
▁helen	-12809
▁helix	-12810
▁heter	-12811
▁hindu	-12812
▁hints	-12813
▁hurry	-12814
▁idaho	-12815
▁imped	-12816
▁indel	-12817
▁indul	-12818
▁jimmy	-12819
▁juicy	-12820
▁kevin	-12821
▁lacks	-12822
▁lakes	-12823
▁lists	-12824
▁lonel	-12825
▁loses	-12826
▁lousy	-12827
▁lover	-12828
▁maneu	-12829
▁mates	-12830
▁maths	-12831
▁merge	-12832
▁monop	-12833
▁moocs	-12834
▁moose	-12835
▁myths	-12836
▁namib	-12837
▁nanos	-12838
▁naomi	-12839
▁ninth	-12840
▁notor	-12841
▁opium	-12842
▁overt	-12843
▁paolo	-12844
▁parch	-12845
▁parse	-12846
▁penny	-12847
▁perme	-12848
▁pills	-12849
▁plent	-12850
▁pneum	-12851
▁polly	-12852
▁pools	-12853
▁purse	-12854
▁rains	-12855
▁rainy	-12856
▁reads	-12857
▁rearr	-12858
▁reint	-12859
▁remen	-12860
▁reper	-12861
▁riley	-12862
▁roman	-12863
▁rooft	-12864
▁roost	-12865
▁ruled	-12866
▁sands	-12867
▁santa	-12868
▁scalp	-12869
▁scans	-12870
▁scram	-12871
▁shady	-12872
▁shalt	-12873
▁shook	-12874
▁shred	-12875
▁simps	-12876
▁sirna	-12877
▁sniff	-12878
▁sonar	-12879
▁sonny	-12880
▁souls	-12881
▁spart	-12882
▁stain	-12883
▁stair	-12884
▁stall	-12885
▁stasi	-12886
▁stats	-12887
▁stems	-12888
▁stool	-12889
▁strom	-12890
▁sucks	-12891
▁swine	-12892
▁tense	-12893
▁tides	-12894
▁torch	-12895
▁tours	-12896
▁tubes	-12897
▁typed	-12898
▁unite	-12899
▁unple	-12900
▁vivre	-12901
▁voila	-12902
▁votes	-12903
▁warps	-12904
▁warri	-12905
▁widen	-12906
▁woven	-12907
▁yards	-12908
▁zones	-12909
agascar	-12910
artheid	-12911
athetic	-12912
blinear	-12913
comings	-12914
emakers	-12915
entials	-12916
gically	-12917
houette	-12918
iential	-12919
itories	-12920
itorium	-12921
menting	-12922
oniazid	-12923
ourcing	-12924
passing	-12925
tically	-12926
ultures	-12927
xterity	-12928
▁absent	-12929
▁affair	-12930
▁agrees	-12931
▁almond	-12932
▁amazes	-12933
▁apollo	-12934
▁argues	-12935
▁arises	-12936
▁asleep	-12937
▁asthma	-12938
▁awards	-12939
▁balcon	-12940
▁barbie	-12941
▁barren	-12942
▁bassem	-12943
▁bitter	-12944
▁bombed	-12945
▁bounds	-12946
▁breeze	-12947
▁bullsh	-12948
▁busted	-12949
▁casual	-12950
▁cataly	-12951
▁census	-12952
▁cereal	-12953
▁cloned	-12954
▁cooled	-12955
▁copies	-12956
▁copper	-12957
▁corrid	-12958
▁courty	-12959
▁coward	-12960
▁creepy	-12961
▁crocod	-12962
▁cruise	-12963
▁cycles	-12964
▁dakota	-12965
▁debris	-12966
▁dining	-12967
▁diving	-12968
▁embark	-12969
▁estate	-12970
▁fading	-12971
▁filmed	-12972
▁flavor	-12973
▁forums	-12974
▁frenzy	-12975
▁fuller	-12976
▁fundra	-12977
▁gamble	-12978
▁geneva	-12979
▁ginger	-12980
▁gravel	-12981
▁grease	-12982
▁harlem	-12983
▁harold	-12984
▁haters	-12985
▁healed	-12986
▁heated	-12987
▁helmet	-12988
▁hiring	-12989
▁hyster	-12990
▁infuse	-12991
▁inland	-12992
▁isabel	-12993
▁janine	-12994
▁jargon	-12995
▁joplin	-12996
▁junior	-12997
▁justin	-12998
▁kendal	-12999
▁knight	-13000
▁lately	-13001
▁latter	-13002
▁leaned	-13003
▁levers	-13004
▁leymah	-13005
▁listed	-13006
▁lonely	-13007
▁loving	-13008
▁luther	-13009
▁maddie	-13010
▁magnet	-13011
▁malign	-13012
▁malnut	-13013
▁mammal	-13014
▁manure	-13015
▁marker	-13016
▁metrop	-13017
▁millig	-13018
▁modify	-13019
▁motifs	-13020
▁mozart	-13021
▁multif	-13022
▁natanz	-13023
▁nectar	-13024
▁nikola	-13025
▁novels	-13026
▁obsess	-13027
▁obtain	-13028
▁octave	-13029
▁openly	-13030
▁oregon	-13031
▁poland	-13032
▁ponder	-13033
▁portal	-13034
▁potent	-13035
▁poured	-13036
▁priest	-13037
▁propel	-13038
▁proton	-13039
▁proves	-13040
▁prozac	-13041
▁psyche	-13042
▁pumped	-13043
▁quadri	-13044
▁racial	-13045
▁radius	-13046
▁ranked	-13047
▁replic	-13048
▁retrie	-13049
▁ricans	-13050
▁ripley	-13051
▁ripple	-13052
▁ritual	-13053
▁router	-13054
▁runway	-13055
▁salaam	-13056
▁schwar	-13057
▁seeded	-13058
▁shocks	-13059
▁skinny	-13060
▁smiled	-13061
▁somali	-13062
▁spouse	-13063
▁sprawl	-13064
▁squeak	-13065
▁stamps	-13066
▁stated	-13067
▁stitch	-13068
▁stocks	-13069
▁styles	-13070
▁syllab	-13071
▁thirst	-13072
▁toyota	-13073
▁traced	-13074
▁traded	-13075
▁transg	-13076
▁treaty	-13077
▁tribes	-13078
▁tucked	-13079
▁unsafe	-13080
▁vanier	-13081
▁varied	-13082
▁venter	-13083
▁vienna	-13084
▁viscer	-13085
▁visits	-13086
▁yogurt	-13087
ifically	-13088
othermal	-13089
ptioning	-13090
urations	-13091
▁abandon	-13092
▁abraham	-13093
▁accents	-13094
▁accused	-13095
▁acquire	-13096
▁acronym	-13097
▁admired	-13098
▁alchemy	-13099
▁android	-13100
▁arrives	-13101
▁assured	-13102
▁atheist	-13103
▁austria	-13104
▁backing	-13105
▁banging	-13106
▁betting	-13107
▁blinded	-13108
▁braille	-13109
▁cabinet	-13110
▁caltech	-13111
▁canning	-13112
▁cardiac	-13113
▁careers	-13114
▁cascade	-13115
▁categor	-13116
▁celsius	-13117
▁chamber	-13118
▁chaotic	-13119
▁cheated	-13120
▁clarify	-13121
▁commons	-13122
▁compreh	-13123
▁costume	-13124
▁cracked	-13125
▁crosses	-13126
▁crowded	-13127
▁darkest	-13128
▁desires	-13129
▁destiny	-13130
▁discard	-13131
▁distill	-13132
▁divides	-13133
▁dropper	-13134
▁drowned	-13135
▁elastic	-13136
▁elusive	-13137
▁encrypt	-13138
▁evident	-13139
▁excruci	-13140
▁fascist	-13141
▁fraught	-13142
▁gangsta	-13143
▁gardens	-13144
▁garment	-13145
▁gateway	-13146
▁glasses	-13147
▁goddess	-13148
▁goldman	-13149
▁gradual	-13150
▁handing	-13151
▁harming	-13152
▁haryana	-13153
▁hashtag	-13154
▁heating	-13155
▁houston	-13156
▁ideally	-13157
▁impulse	-13158
▁infring	-13159
▁inmates	-13160
▁inquiry	-13161
▁intertw	-13162
▁jewelry	-13163
▁katrina	-13164
▁latrine	-13165
▁leaflet	-13166
▁lesbian	-13167
▁leveled	-13168
▁lexicon	-13169
▁likable	-13170
▁lurking	-13171
▁madness	-13172
▁mammoth	-13173
▁mangoes	-13174
▁mansion	-13175
▁matched	-13176
▁matthew	-13177
▁microns	-13178
▁mixture	-13179
▁needles	-13180
▁netflix	-13181
▁nucleus	-13182
▁oakland	-13183
▁odyssey	-13184
▁okolloh	-13185
▁optical	-13186
▁outlets	-13187
▁packets	-13188
▁paleont	-13189
▁partial	-13190
▁parting	-13191
▁penises	-13192
▁pennies	-13193
▁pharmac	-13194
▁photons	-13195
▁picasso	-13196
▁plaster	-13197
▁plugged	-13198
▁plummet	-13199
▁pollock	-13200
▁quoting	-13201
▁redisco	-13202
▁refined	-13203
▁relaxed	-13204
▁removal	-13205
▁renting	-13206
▁rescued	-13207
▁resumes	-13208
▁rewards	-13209
▁roaring	-13210
▁rodents	-13211
▁sampled	-13212
▁scripts	-13213
▁seasons	-13214
▁sermons	-13215
▁shooter	-13216
▁shuttle	-13217
▁siberia	-13218
▁sibling	-13219
▁sincere	-13220
▁spatial	-13221
▁spirits	-13222
▁sponsor	-13223
▁spotted	-13224
▁streams	-13225
▁suburbs	-13226
▁surfing	-13227
▁synapse	-13228
▁tackled	-13229
▁tactile	-13230
▁tapping	-13231
▁tearing	-13232
▁thanked	-13233
▁theatre	-13234
▁thirdly	-13235
▁thordis	-13236
▁tipping	-13237
▁tornado	-13238
▁torture	-13239
▁tracked	-13240
▁tribute	-13241
▁tuesday	-13242
▁turnout	-13243
▁unleash	-13244
▁untouch	-13245
▁urgency	-13246
▁vermeer	-13247
▁weeding	-13248
▁wetsuit	-13249
▁whewell	-13250
▁whistle	-13251
▁worship	-13252
▁zooming	-13253
oplankton	-13254
▁adapting	-13255
▁adjusted	-13256
▁adopting	-13257
▁amitabha	-13258
▁analyzed	-13259
▁assaults	-13260
▁atheists	-13261
▁athletes	-13262
▁bankrupt	-13263
▁bridging	-13264
▁budapest	-13265
▁bullying	-13266
▁carriage	-13267
▁chapters	-13268
▁chatting	-13269
▁clapping	-13270
▁coercion	-13271
▁colleges	-13272
▁colonial	-13273
▁commands	-13274
▁commonly	-13275
▁conceive	-13276
▁counterp	-13277
▁creators	-13278
▁credible	-13279
▁cultured	-13280
▁delivers	-13281
▁delusion	-13282
▁dementia	-13283
▁discount	-13284
▁disinteg	-13285
▁distress	-13286
▁doctrine	-13287
▁dongguan	-13288
▁drilling	-13289
▁earnings	-13290
▁elevator	-13291
▁enduring	-13292
▁entirety	-13293
▁entitled	-13294
▁epiphany	-13295
▁evaluate	-13296
▁excluded	-13297
▁exposing	-13298
▁finances	-13299
▁founding	-13300
▁freezing	-13301
▁genetics	-13302
▁genomics	-13303
▁geopolit	-13304
▁giussani	-13305
▁grounded	-13306
▁handling	-13307
▁hatzalah	-13308
▁horrific	-13309
▁imagenet	-13310
▁imposing	-13311
▁inconven	-13312
▁judicial	-13313
▁kilogram	-13314
▁kiribati	-13315
▁laureate	-13316
▁lawrence	-13317
▁liberate	-13318
▁limiting	-13319
▁lovelace	-13320
▁marketed	-13321
▁meanings	-13322
▁mediated	-13323
▁mediocre	-13324
▁megafaun	-13325
▁migraine	-13326
▁migrants	-13327
▁mongolia	-13328
▁musician	-13329
▁nanocell	-13330
▁nigerian	-13331
▁numerous	-13332
▁pipeline	-13333
▁pleasant	-13334
▁potatoes	-13335
▁pounding	-13336
▁producer	-13337
▁proposal	-13338
▁psychoan	-13339
▁purchase	-13340
▁pushcart	-13341
▁quadrant	-13342
▁quantity	-13343
▁receives	-13344
▁recycled	-13345
▁regulate	-13346
▁remotely	-13347
▁rendered	-13348
▁resemble	-13349
▁resolved	-13350
▁restored	-13351
▁reversed	-13352
▁ridicule	-13353
▁scarcity	-13354
▁scytodes	-13355
▁searched	-13356
▁sentinel	-13357
▁settlers	-13358
▁settling	-13359
▁silently	-13360
▁sometime	-13361
▁spinnere	-13362
▁squirrel	-13363
▁stranded	-13364
▁suicidal	-13365
▁superhyd	-13366
▁symmetry	-13367
▁systemic	-13368
▁taniyama	-13369
▁tedsters	-13370
▁tensions	-13371
▁thursday	-13372
▁titanium	-13373
▁tolerate	-13374
▁treasure	-13375
▁trusting	-13376
▁uberpool	-13377
▁unlikely	-13378
▁unlocked	-13379
▁unnecess	-13380
▁upstream	-13381
▁vicinity	-13382
▁whitopia	-13383
▁writings	-13384
▁adversity	-13385
▁altruists	-13386
▁analyzing	-13387
▁apartheid	-13388
▁aristotle	-13389
▁assistant	-13390
▁asteroids	-13391
▁audacious	-13392
▁bandwidth	-13393
▁bathrooms	-13394
▁bhutanese	-13395
▁biography	-13396
▁boardroom	-13397
▁cardboard	-13398
▁cherished	-13399
▁cleveland	-13400
▁combining	-13401
▁compelled	-13402
▁compounds	-13403
▁conducted	-13404
▁contagion	-13405
▁criminals	-13406
▁darwinian	-13407
▁decorated	-13408
▁desirable	-13409
▁detecting	-13410
▁developer	-13411
▁dexterity	-13412
▁digitally	-13413
▁directive	-13414
▁donations	-13415
▁editorial	-13416
▁electoral	-13417
▁evolvable	-13418
▁examining	-13419
▁excavated	-13420
▁executive	-13421
▁expansive	-13422
▁exquisite	-13423
▁extending	-13424
▁extensive	-13425
▁extremism	-13426
▁fieldwork	-13427
▁fisheries	-13428
▁flowering	-13429
▁fractions	-13430
▁fragments	-13431
▁gardening	-13432
▁governing	-13433
▁graduates	-13434
▁habitable	-13435
▁himalayas	-13436
▁historian	-13437
▁humankind	-13438
▁improvise	-13439
▁inanimate	-13440
▁instincts	-13441
▁interfere	-13442
▁intervene	-13443
▁intestine	-13444
▁isolating	-13445
▁jellyfish	-13446
▁kidnapped	-13447
▁launching	-13448
▁laureates	-13449
▁liberated	-13450
▁malicious	-13451
▁misinterp	-13452
▁mitochond	-13453
▁motivates	-13454
▁narration	-13455
▁offenders	-13456
▁offensive	-13457
▁paragraph	-13458
▁parchment	-13459
▁paternity	-13460
▁pathology	-13461
▁performer	-13462
▁plentiful	-13463
▁pneumonia	-13464
▁populated	-13465
▁portfolio	-13466
▁practiced	-13467
▁prejudice	-13468
▁premature	-13469
▁proceeded	-13470
▁processor	-13471
▁projected	-13472
▁promotion	-13473
▁provision	-13474
▁purchased	-13475
▁purchases	-13476
▁rehearsal	-13477
▁reintrodu	-13478
▁rejection	-13479
▁releasing	-13480
▁relocated	-13481
▁repulsive	-13482
▁requiring	-13483
▁reservoir	-13484
▁resulting	-13485
▁retention	-13486
▁rotterdam	-13487
▁scenarios	-13488
▁scratched	-13489
▁seafarers	-13490
▁secondary	-13491
▁selecting	-13492
▁selective	-13493
▁shoulders	-13494
▁sigmoidal	-13495
▁someplace	-13496
▁southeast	-13497
▁spectacle	-13498
▁splitting	-13499
▁starbucks	-13500
▁strategic	-13501
▁stressful	-13502
▁stretches	-13503
▁sublinear	-13504
▁subsidies	-13505
▁suspicion	-13506
▁switching	-13507
▁tennessee	-13508
▁testified	-13509
▁testimony	-13510
▁therapies	-13511
▁threatens	-13512
▁travelers	-13513
▁uniformly	-13514
▁unleashed	-13515
▁unnatural	-13516
▁wealthier	-13517
▁wrestling	-13518
▁accumulate	-13519
▁admiration	-13520
▁adrenaline	-13521
▁aggression	-13522
▁alienation	-13523
▁ambassador	-13524
▁anesthesia	-13525
▁anticipate	-13526
▁arithmetic	-13527
▁astounding	-13528
▁beekeepers	-13529
▁belshazzar	-13530
▁beneficial	-13531
▁biofluores	-13532
▁captioning	-13533
▁censorship	-13534
▁christians	-13535
▁cloudburst	-13536
▁commenting	-13537
▁comparable	-13538
▁consulting	-13539
▁convention	-13540
▁conversion	-13541
▁correlated	-13542
▁culturally	-13543
▁delegation	-13544
▁deliberate	-13545
▁detonation	-13546
▁discharged	-13547
▁evacuation	-13548
▁expedition	-13549
▁extremists	-13550
▁eyewitness	-13551
▁filmmakers	-13552
▁formidable	-13553
▁fossilized	-13554
▁fulfilling	-13555
▁hamburgers	-13556
▁harnessing	-13557
▁historians	-13558
▁horrifying	-13559
▁humiliated	-13560
▁illiterate	-13561
▁inevitably	-13562
▁interstate	-13563
▁inventions	-13564
▁iproniazid	-13565
▁liberation	-13566
▁madagascar	-13567
▁miraculous	-13568
▁mobilizing	-13569
▁navigating	-13570
▁networking	-13571
▁obligation	-13572
▁occasional	-13573
▁oppressive	-13574
▁paramedics	-13575
▁paraplegic	-13576
▁passengers	-13577
▁pedestrian	-13578
▁persuasion	-13579
▁pollutants	-13580
▁possession	-13581
▁precaution	-13582
▁preference	-13583
▁pretending	-13584
▁primordial	-13585
▁propensity	-13586
▁prosperous	-13587
▁protesters	-13588
▁psychiatry	-13589
▁purchasing	-13590
▁reasonably	-13591
▁recipients	-13592
▁reclaiming	-13593
▁recognizes	-13594
▁references	-13595
▁regulators	-13596
▁relativity	-13597
▁repetitive	-13598
▁replicated	-13599
▁republican	-13600
▁repurposed	-13601
▁satisfying	-13602
▁scratching	-13603
▁secondhand	-13604
▁semmelweis	-13605
▁separately	-13606
▁silhouette	-13607
▁skepticism	-13608
▁specialize	-13609
▁starvation	-13610
▁statements	-13611
▁stretching	-13612
▁telephones	-13613
▁thousandth	-13614
▁translates	-13615
▁unexplored	-13616
▁unleashing	-13617
▁unpleasant	-13618
▁unraveling	-13619
▁weaknesses	-13620
▁worthwhile	-13621
▁archaeology	-13622
▁bureaucracy	-13623
▁calculators	-13624
▁comparative	-13625
▁complaining	-13626
▁conflicting	-13627
▁connecticut	-13628
▁correlation	-13629
▁definitions	-13630
▁departments	-13631
▁discovering	-13632
▁dynamically	-13633
▁eradication	-13634
▁fulfillment	-13635
▁ideological	-13636
▁imaginative	-13637
▁impressions	-13638
▁ineffective	-13639
▁integrating	-13640
▁intentional	-13641
▁interdepend	-13642
▁introducing	-13643
▁intuitively	-13644
▁maintaining	-13645
▁manipulated	-13646
▁meaningless	-13647
▁microscopes	-13648
▁motivations	-13649
▁negotiation	-13650
▁persistence	-13651
▁philippines	-13652
▁possessions	-13653
▁protections	-13654
▁psychopaths	-13655
▁recruitment	-13656
▁reliability	-13657
▁repurposing	-13658
▁sacrificing	-13659
▁seventeenth	-13660
▁supercomput	-13661
▁sustainably	-13662
▁technically	-13663
▁traffickers	-13664
▁unfortunate	-13665
▁vaccination	-13666
▁accidentally	-13667
▁additionally	-13668
▁arrangements	-13669
▁breadwinning	-13670
▁bureaucratic	-13671
▁commercially	-13672
▁commissioner	-13673
▁compensation	-13674
▁constituency	-13675
▁contributing	-13676
▁debilitating	-13677
▁dictatorship	-13678
▁dictionaries	-13679
▁enthusiastic	-13680
▁establishing	-13681
▁excruciating	-13682
▁experiential	-13683
▁explanations	-13684
▁frustrations	-13685
▁illumination	-13686
▁incarcerated	-13687
▁incidentally	-13688
▁individually	-13689
▁interpreting	-13690
▁malnutrition	-13691
▁manufacturer	-13692
▁masterpieces	-13693
▁microfluidic	-13694
▁palestinians	-13695
▁quadriplegic	-13696
▁restrictions	-13697
▁shortcomings	-13698
▁similarities	-13699
▁stakeholders	-13700
▁standardized	-13701
▁surroundings	-13702
▁transitional	-13703
▁transporting	-13704
▁tremendously	-13705
▁unacceptable	-13706
▁unemployment	-13707
▁confrontation	-13708
▁decentralized	-13709
▁distinguished	-13710
▁documentation	-13711
▁experimenting	-13712
▁installations	-13713
▁instructional	-13714
▁investigative	-13715
▁mediterranean	-13716
▁misconception	-13717
▁multicultural	-13718
▁nanocellulose	-13719
▁photographing	-13720
▁uncertainties	-13721
▁underestimate	-13722
▁accomplishment	-13723
▁correspondence	-13724
▁differentiated	-13725
▁evolutionarily	-13726
▁organizational	-13727
▁reconstruction	-13728
▁scientifically	-13729
▁undergraduates	-13730
▁understandably	-13731
▁antidepressants	-13732
▁fundamentalists	-13733
▁representatives	-13734
di	-13735
ga	-13736
ji	-13737
mi	-13738
si	-13739
ux	-13740
yr	-13741
za	-13742
aba	-13743
abi	-13744
acc	-13745
aco	-13746
ahn	-13747
aic	-13748
aid	-13749
ajo	-13750
aki	-13751
aky	-13752
ams	-13753
bib	-13754
boy	-13755
cha	-13756
chs	-13757
col	-13758
dle	-13759
dog	-13760
dri	-13761
emi	-13762
eur	-13763
fin	-13764
fti	-13765
gae	-13766
gli	-13767
gly	-13768
gre	-13769
hov	-13770
iah	-13771
iev	-13772
ilm	-13773
imi	-13774
irl	-13775
isc	-13776
isp	-13777
jal	-13778
jif	-13779
kyo	-13780
lah	-13781
lex	-13782
lip	-13783
nap	-13784
nas	-13785
ndt	-13786
nie	-13787
ogy	-13788
ois	-13789
oko	-13790
oop	-13791
opa	-13792
orp	-13793
oto	-13794
ova	-13795
ozy	-13796
pat	-13797
pil	-13798
pit	-13799
pox	-13800
shr	-13801
tra	-13802
uci	-13803
ulu	-13804
upt	-13805
was	-13806
yon	-13807
zwe	-13808
▁bj	-13809
▁ck	-13810
▁hm	-13811
▁iw	-13812
▁jn	-13813
▁kh	-13814
▁kp	-13815
▁ku	-13816
▁ky	-13817
▁ld	-13818
▁lg	-13819
▁lp	-13820
▁lt	-13821
▁ny	-13822
▁oc	-13823
▁ot	-13824
▁rs	-13825
▁tc	-13826
▁ti	-13827
▁tm	-13828
▁zi	-13829
acar	-13830
acey	-13831
ache	-13832
acle	-13833
adus	-13834
agua	-13835
agus	-13836
ahed	-13837
aism	-13838
aith	-13839
alas	-13840
aler	-13841
amas	-13842
anas	-13843
anca	-13844
anch	-13845
anic	-13846
anka	-13847
anzi	-13848
aque	-13849
arel	-13850
aris	-13851
aron	-13852
assa	-13853
atal	-13854
atma	-13855
atol	-13856
atom	-13857
atra	-13858
atus	-13859
aver	-13860
bird	-13861
bler	-13862
bons	-13863
bora	-13864
boro	-13865
bust	-13866
cano	-13867
cher	-13868
cois	-13869
crap	-13870
egal	-13871
elia	-13872
elor	-13873
emed	-13874
emor	-13875
eras	-13876
ersk	-13877
esty	-13878
etts	-13879
fted	-13880
gate	-13881
gine	-13882
grim	-13883
hift	-13884
hill	-13885
icef	-13886
ignt	-13887
ilst	-13888
inai	-13889
inav	-13890
inge	-13891
inky	-13892
isen	-13893
itic	-13894
ivia	-13895
ivoc	-13896
izer	-13897
last	-13898
late	-13899
lemm	-13900
life	-13901
made	-13902
mers	-13903
ndry	-13904
occo	-13905
opes	-13906
opot	-13907
oufl	-13908
pace	-13909
pans	-13910
pill	-13911
pros	-13912
rens	-13913
rett	-13914
rist	-13915
rock	-13916
roit	-13917
text	-13918
thia	-13919
ulas	-13920
ules	-13921
usor	-13922
vals	-13923
verb	-13924
vres	-13925
wich	-13926
ylan	-13927
ylon	-13928
▁avo	-13929
▁baz	-13930
▁bib	-13931
▁bil	-13932
▁bot	-13933
▁bum	-13934
▁cav	-13935
▁cen	-13936
▁cia	-13937
▁coc	-13938
▁cyc	-13939
▁diy	-13940
▁dor	-13941
▁drc	-13942
▁dup	-13943
▁edu	-13944
▁edx	-13945
▁fbi	-13946
▁fee	-13947
▁fey	-13948
▁gib	-13949
▁gil	-13950
▁hay	-13951
▁hod	-13952
▁idi	-13953
▁iii	-13954
▁imf	-13955
▁jig	-13956
▁jug	-13957
▁ker	-13958
▁kob	-13959
▁lav	-13960
▁leo	-13961
▁lew	-13962
▁lip	-13963
▁lod	-13964
▁lud	-13965
▁moi	-13966
▁nas	-13967
▁nud	-13968
▁omn	-13969
▁oph	-13970
▁pav	-13971
▁pew	-13972
▁raf	-13973
▁rah	-13974
▁raj	-13975
▁rav	-13976
▁rip	-13977
▁ron	-13978
▁sod	-13979
▁tay	-13980
▁thy	-13981
▁tid	-13982
▁tig	-13983
▁tob	-13984
▁tvs	-13985
▁tyr	-13986
▁upl	-13987
▁usc	-13988
▁vel	-13989
▁vet	-13990
▁wig	-13991
▁wiz	-13992
▁wol	-13993
▁yak	-13994
▁yay	-13995
▁zac	-13996
▁zur	-13997
abama	-13998
achus	-13999
adder	-14000
aders	-14001
ahili	-14002
amese	-14003
andan	-14004
aplan	-14005
asses	-14006
atics	-14007
bborn	-14008
becca	-14009
cedon	-14010
creat	-14011
creen	-14012
drive	-14013
enger	-14014
ennon	-14015
ensed	-14016
enser	-14017
ested	-14018
eston	-14019
etary	-14020
eters	-14021
etery	-14022
etian	-14023
garet	-14024
gebra	-14025
gered	-14026
ghdad	-14027
grass	-14028
haust	-14029
heric	-14030
ichot	-14031
icond	-14032
idote	-14033
illed	-14034
ilton	-14035
imity	-14036
inted	-14037
ipher	-14038
istor	-14039
ithic	-14040
jamin	-14041
kirts	-14042
laved	-14043
lfare	-14044
lical	-14045
liers	-14046
lipse	-14047
llins	-14048
nosis	-14049
ollen	-14050
omagn	-14051
ombia	-14052
onies	-14053
ouncy	-14054
pipes	-14055
produ	-14056
prosy	-14057
quard	-14058
rater	-14059
shine	-14060
shore	-14061
store	-14062
terol	-14063
ucose	-14064
uddle	-14065
uguay	-14066
umbai	-14067
umber	-14068
viets	-14069
wling	-14070
works	-14071
zweil	-14072
▁acre	-14073
▁akin	-14074
▁ants	-14075
▁aper	-14076
▁arup	-14077
▁baff	-14078
▁barb	-14079
▁bedr	-14080
▁bina	-14081
▁bion	-14082
▁bred	-14083
▁bros	-14084
▁buen	-14085
▁bulb	-14086
▁cafe	-14087
▁cann	-14088
▁caut	-14089
▁chih	-14090
▁clap	-14091
▁cler	-14092
▁clut	-14093
▁cmus	-14094
▁conn	-14095
▁curb	-14096
▁deah	-14097
▁decr	-14098
▁defy	-14099
▁deny	-14100
▁ding	-14101
▁dock	-14102
▁doha	-14103
▁dvds	-14104
▁ehud	-14105
▁elon	-14106
▁elyn	-14107
▁empl	-14108
▁enro	-14109
▁envy	-14110
▁erra	-14111
▁esot	-14112
▁etsy	-14113
▁eyed	-14114
▁fict	-14115
▁fist	-14116
▁flux	-14117
▁frid	-14118
▁fury	-14119
▁gary	-14120
▁goat	-14121
▁greg	-14122
▁hala	-14123
▁hast	-14124
▁hats	-14125
▁heck	-14126
▁herb	-14127
▁homo	-14128
▁hott	-14129
▁hugs	-14130
▁hydr	-14131
▁hype	-14132
▁imam	-14133
▁inad	-14134
▁ishi	-14135
▁itch	-14136
▁jama	-14137
▁jess	-14138
▁kahn	-14139
▁karl	-14140
▁kate	-14141
▁keen	-14142
▁kipp	-14143
▁koko	-14144
▁leak	-14145
▁limp	-14146
▁litt	-14147
▁loaf	-14148
▁logo	-14149
▁mang	-14150
▁marx	-14151
▁memo	-14152
▁midw	-14153
▁milo	-14154
▁mous	-14155
▁myop	-14156
▁nato	-14157
▁nodd	-14158
▁obed	-14159
▁oops	-14160
▁oslo	-14161
▁pant	-14162
▁pend	-14163
▁pert	-14164
▁pest	-14165
▁phyt	-14166
▁pine	-14167
▁piss	-14168
▁polo	-14169
▁pony	-14170
▁pots	-14171
▁prad	-14172
▁prud	-14173
▁rais	-14174
▁raku	-14175
▁ramp	-14176
▁rear	-14177
▁reen	-14178
▁rift	-14179
▁rotc	-14180
▁rovs	-14181
▁rows	-14182
▁rupt	-14183
▁sank	-14184
▁sans	-14185
▁sark	-14186
▁shru	-14187
▁slid	-14188
▁slim	-14189
▁slip	-14190
▁socr	-14191
▁spit	-14192
▁spon	-14193
▁stip	-14194
▁sums	-14195
▁suns	-14196
▁sust	-14197
▁tags	-14198
▁teeb	-14199
▁teth	-14200
▁tips	-14201
▁tire	-14202
▁todd	-14203
▁tore	-14204
▁tren	-14205
▁tres	-14206
▁trim	-14207
▁troj	-14208
▁tutu	-14209
▁ucla	-14210
▁unsp	-14211
▁uter	-14212
▁vanc	-14213
▁veil	-14214
▁wage	-14215
▁wand	-14216
▁watt	-14217
▁wint	-14218
▁wipe	-14219
▁womb	-14220
▁worn	-14221
▁yang	-14222
amycin	-14223
andler	-14224
appear	-14225
arious	-14226
athize	-14227
bourne	-14228
brandt	-14229
broken	-14230
eroids	-14231
ertive	-14232
esters	-14233
estial	-14234
ficial	-14235
getown	-14236
ghetti	-14237
iances	-14238
iberal	-14239
igious	-14240
igrade	-14241
ilizes	-14242
imagin	-14243
inence	-14244
ingale	-14245
inning	-14246
ippers	-14247
iscipl	-14248
istrib	-14249
jifilm	-14250
lahoma	-14251
laimed	-14252
lectic	-14253
lemmas	-14254
lights	-14255
liness	-14256
makers	-14257
making	-14258
matism	-14259
namics	-14260
olitan	-14261
omater	-14262
opedia	-14263
opotam	-14264
opular	-14265
person	-14266
phobia	-14267
placed	-14268
ramine	-14269
rarian	-14270
retion	-14271
rogram	-14272
rowave	-14273
semble	-14274
stones	-14275
urance	-14276
utable	-14277
utsche	-14278
ynthes	-14279
▁aaron	-14280
▁abdom	-14281
▁accid	-14282
▁accus	-14283
▁acous	-14284
▁admin	-14285
▁aesth	-14286
▁aimed	-14287
▁aired	-14288
▁algae	-14289
▁allan	-14290
▁alpha	-14291
▁angel	-14292
▁annie	-14293
▁anore	-14294
▁anten	-14295
▁arise	-14296
▁arrog	-14297
▁atlas	-14298
▁atroc	-14299
▁bangs	-14300
▁baron	-14301
▁beard	-14302
▁beeth	-14303
▁billy	-14304
▁biofu	-14305
▁bison	-14306
▁blabl	-14307
▁bloss	-14308
▁boats	-14309
▁boost	-14310
▁bould	-14311
▁bruce	-14312
▁brute	-14313
▁bumps	-14314
▁burke	-14315
▁burma	-14316
▁burnt	-14317
▁cajal	-14318
▁calci	-14319
▁cater	-14320
▁centr	-14321
▁chant	-14322
▁cilia	-14323
▁clara	-14324
▁clips	-14325
▁clump	-14326
▁codex	-14327
▁conco	-14328
▁cords	-14329
▁corps	-14330
▁cough	-14331
▁crick	-14332
▁cryst	-14333
▁culpr	-14334
▁curbs	-14335
▁curse	-14336
▁dealt	-14337
▁decay	-14338
▁dehyd	-14339
▁diary	-14340
▁downs	-14341
▁dried	-14342
▁dubai	-14343
▁dylan	-14344
▁edgar	-14345
▁ellen	-14346
▁emily	-14347
▁enact	-14348
▁encel	-14349
▁enlar	-14350
▁enshr	-14351
▁essay	-14352
▁essex	-14353
▁etern	-14354
▁ether	-14355
▁fades	-14356
▁fatty	-14357
▁fecal	-14358
▁fiery	-14359
▁firms	-14360
▁flags	-14361
▁flock	-14362
[...]
